{
  "version": "1.0",
  "truncation": null,
  "padding": null,
  "added_tokens": [
    {
      "id": 0,
      "content": "[UNK]",
      "single_word": false,
      "lstrip": false,
      "rstrip": false,
      "normalized": false,
      "special": true
    },
    {
      "id": 1,
      "content": "[PAD]",
      "single_word": false,
      "lstrip": false,
      "rstrip": false,
      "normalized": false,
      "special": true
    },
    {
      "id": 2,
      "content": "[BOS]",
      "single_word": false,
      "lstrip": false,
      "rstrip": false,
      "normalized": false,
      "special": true
    },
    {
      "id": 3,
      "content": "[EOS]",
      "single_word": false,
      "lstrip": false,
      "rstrip": false,
      "normalized": false,
      "special": true
    }
  ],
  "normalizer": null,
  "pre_tokenizer": {
    "type": "ByteLevel",
    "add_prefix_space": false,
    "trim_offsets": true,
    "use_regex": true
  },
  "post_processor": null,
  "decoder": {
    "type": "ByteLevel",
    "add_prefix_space": true,
    "trim_offsets": true,
    "use_regex": true
  },
  "model": {
    "type": "BPE",
    "dropout": null,
    "unk_token": "[UNK]",
    "continuing_subword_prefix": null,
    "end_of_word_suffix": null,
    "fuse_unk": false,
    "byte_fallback": false,
    "ignore_merges": false,
    "vocab": {
      "[UNK]": 0,
      "[PAD]": 1,
      "[BOS]": 2,
      "[EOS]": 3,
      "(": 4,
      ")": 5,
      ",": 6,
      "f": 7,
      "g": 8,
      "i": 9,
      "k": 10,
      "l": 11,
      "n": 12,
      "p": 13,
      "r": 14,
      "u": 15,
      "w": 16,
      "x": 17,
      "¡": 18,
      "¢": 19,
      "£": 20,
      "¤": 21,
      "¥": 22,
      "¦": 23,
      "§": 24,
      "¨": 25,
      "©": 26,
      "ª": 27,
      "«": 28,
      "¬": 29,
      "®": 30,
      "¯": 31,
      "°": 32,
      "±": 33,
      "²": 34,
      "³": 35,
      "´": 36,
      "µ": 37,
      "¶": 38,
      "·": 39,
      "¸": 40,
      "¹": 41,
      "º": 42,
      "»": 43,
      "¼": 44,
      "½": 45,
      "¾": 46,
      "¿": 47,
      "Ã": 48,
      "Ä": 49,
      "Å": 50,
      "ã": 51,
      "ä": 52,
      "å": 53,
      "æ": 54,
      "ç": 55,
      "è": 56,
      "é": 57,
      "ï": 58,
      "Ċ": 59,
      "Ģ": 60,
      "ģ": 61,
      "Ĥ": 62,
      "ĥ": 63,
      "Ħ": 64,
      "ħ": 65,
      "Ĩ": 66,
      "ĩ": 67,
      "Ī": 68,
      "ī": 69,
      "Ĭ": 70,
      "ĭ": 71,
      "Į": 72,
      "į": 73,
      "İ": 74,
      "ı": 75,
      "Ĳ": 76,
      "ĳ": 77,
      "Ĵ": 78,
      "ĵ": 79,
      "Ķ": 80,
      "ķ": 81,
      "ĸ": 82,
      "Ĺ": 83,
      "ĺ": 84,
      "Ļ": 85,
      "ļ": 86,
      "Ľ": 87,
      "ľ": 88,
      "Ŀ": 89,
      "ŀ": 90,
      "Ł": 91,
      "ł": 92,
      "Ń": 93,
      "ĢĤ": 94,
      "ãĢĤ": 95,
      "ä¸": 96,
      "çļ": 97,
      "çļĦ": 98,
      "åŃ": 99,
      "æľ": 100,
      "åŃĹ": 101,
      "æĺ": 102,
      "æĺ¯": 103,
      "ï¼": 104,
      "æ°": 105,
      "åħ": 106,
      "éĥ": 107,
      "åı": 108,
      "ï¼Į": 109,
      "åĪ": 110,
      "æĹ": 111,
      "åĴ": 112,
      "åĴĮ": 113,
      "äº": 114,
      "å¤": 115,
      "çĶ": 116,
      "æµ": 117,
      "æ±": 118,
      "éĥ¨": 119,
      "Ł³": 120,
      "çĥ": 121,
      "æĪ": 122,
      "æľ¨": 123,
      "ä¹": 124,
      "ä»": 125,
      "æĹģ": 126,
      "éĩ": 127,
      "çģ": 128,
      "åĪĨ": 129,
      "å½": 130,
      "æ³": 131,
      "¦ģ": 132,
      "è¦ģ": 133,
      "æ²": 134,
      "çģ«": 135,
      "æ°´": 136,
      "çĤ": 137,
      "è¯": 138,
      "å½¢": 139,
      "å£": 140,
      "ç»": 141,
      "çĶŁ": 142,
      "±»": 143,
      "çī": 144,
      "çŁ³": 145,
      "æ£": 146,
      "æ´": 147,
      "åĬ": 148,
      "æľī": 149,
      "å£°": 150,
      "åľ": 151,
      "ç±»": 152,
      "æĸ": 153,
      "æł": 154,
      "çĬ": 155,
      "éĩį": 156,
      "æĪĲ": 157,
      "åĲ": 158,
      "ç¤": 159,
      "åį": 160,
      "æŀ": 161,
      "æ²³": 162,
      "ä¸Ģ": 163,
      "ç§": 164,
      "æı": 165,
      "æ¹": 166,
      "ä¸İ": 167,
      "åħ³": 168,
      "ç¤º": 169,
      "äºº": 170,
      "å¯": 171,
      "æī": 172,
      "éĩįè¦ģ": 173,
      "æ°µ": 174,
      "çĥŃ": 175,
      "åŁ": 176,
      "éĥ½": 177,
      "æıĲ": 178,
      "æĿ": 179,
      "īåŃĹ": 180,
      "æ±īåŃĹ": 181,
      "åİ": 182,
      "ĦæĪĲ": 183,
      "å·": 184,
      "ä¸ª": 185,
      "é¦": 186,
      "çī©": 187,
      "æµģ": 188,
      "çĥ§": 189,
      "æłĳ": 190,
      "ï¼ļ": 191,
      "å±": 192,
      "æµ·": 193,
      "°ç": 194,
      "å£°æĹģ": 195,
      "çļĦåŃĹ": 196,
      "æľīåħ³": 197,
      "çł": 198,
      "æķ": 199,
      "èĢ": 200,
      "ä¾": 201,
      "èĥ": 202,
      "éĿ": 203,
      "æ¸": 204,
      "è´": 205,
      "ĩå": 206,
      "ä¸Ń": 207,
      "åıĳ": 208,
      "ºç": 209,
      "åģ": 210,
      "èĥ½": 211,
      "åľ¨": 212,
      "è¯»": 213,
      "æıĲç¤º": 214,
      "å¹": 215,
      "ä»İ": 216,
      "æŁ": 217,
      "é¦ĸ": 218,
      "å®": 219,
      "éĩı": 220,
      "ä¹ī": 221,
      "ä¸Ĭ": 222,
      "çļĦéĩįè¦ģ": 223,
      "ä¹ĭ": 224,
      "å·¥": 225,
      "ç»ĦæĪĲ": 226,
      "ĥçĥ§": 227,
      "ĩĥçĥ§": 228,
      "åįģ": 229,
      "æłĳæľ¨": 230,
      "éŁ³": 231,
      "æĶ": 232,
      "æĬ": 233,
      "æľĢ": 234,
      "åĳ": 235,
      "çļĦç": 236,
      "çī¹": 237,
      "å¯Į": 238,
      "æīį": 239,
      "æİ": 240,
      "è¿": 241,
      "åº": 242,
      "æĮ": 243,
      "éľ": 244,
      "Ģè¦ģ": 245,
      "å¤§": 246,
      "å¤ļ": 247,
      "éĥ¨çļĦåŃĹ": 248,
      "éľĢè¦ģ": 249,
      "è¯»éŁ³": 250,
      "çĬŃ": 251,
      "¡¨": 252,
      "è¡¨": 253,
      "çĦ": 254,
      "è®": 255,
      "å½¢å£°": 256,
      "å½¢å£°åŃĹ": 257,
      "æ¤": 258,
      "çĤİ": 259,
      "åŃ¦": 260,
      "çĶ±": 261,
      "éĥ¨é¦ĸ": 262,
      "ºĲ": 263,
      "ä½": 264,
      "æºĲ": 265,
      "éĺ": 266,
      "æ±Ł": 267,
      "æ£®": 268,
      "æ¹ĸ": 269,
      "èī": 270,
      "æ´ĭ": 271,
      "æĹı": 272,
      "æ¡": 273,
      "æĥ": 274,
      "åİĨ": 275,
      "çĽ": 276,
      "å¸": 277,
      "æĦ": 278,
      "æĻ": 279,
      "æ²³æ¹ĸ": 280,
      "æĿĲ": 281,
      "æ±Łæ²³æ¹ĸ": 282,
      "æ±Łæ²³æ¹ĸæµ·": 283,
      "åĢ": 284,
      "æ·": 285,
      "çĶ¨": 286,
      "å¾": 287,
      "ĸç": 288,
      "çļĦåŁ": 289,
      "æĺ¯äºº": 290,
      "åı²": 291,
      "è¯Ń": 292,
      "éĥ½ä¸İ": 293,
      "æĶ¯": 294,
      "æĬĢ": 295,
      "åİĨåı²": 296,
      "¡å½¢": 297,
      "±¡å½¢": 298,
      "è±¡å½¢": 299,
      "ģçļĦ": 300,
      "æĺ¯çĶŁ": 301,
      "åħ·": 302,
      "åħ»": 303,
      "äºĭ": 304,
      "å¤©": 305,
      "ç»ı": 306,
      "åĬĽ": 307,
      "ä¸Ģä¸ª": 308,
      "è±¡å½¢åŃĹ": 309,
      "è°": 310,
      "éĢ": 311,
      "ä¸į": 312,
      "æ°Ķ": 313,
      "éĥ¨åĪĨ": 314,
      "éĿ¢": 315,
      "è¿ĩ": 316,
      "åĩ": 317,
      "çĩĥçĥ§": 318,
      "è§": 319,
      "åŃĹä»İ": 320,
      "åħī": 321,
      "ç§¯": 322,
      "ç§į": 323,
      "ä¾Ľ": 324,
      "æĮĩ": 325,
      "èī²": 326,
      "æıĲç¤ºè¯»éŁ³": 327,
      "åŃĹæĹģ": 328,
      "æ±¸": 329,
      "çĬ´": 330,
      "çł¯": 331,
      "çİ": 332,
      "å½¢æĹģ": 333,
      "²©": 334,
      "å²©": 335,
      "æ¢": 336,
      "ħ¤": 337,
      "æµ¯": 338,
      "æ±Ń": 339,
      "æ³ī": 340,
      "çĤĩ": 341,
      "çĤŃ": 342,
      "æ£»": 343,
      "æ²³æµģ": 344,
      "æ¹¾": 345,
      "å±±": 346,
      "åĪ«": 347,
      "ç±»åĪ«": 348,
      "ä¹īç±»åĪ«": 349,
      "è¡¨ç¤º": 350,
      "æ¯": 351,
      "æĢ": 352,
      "ç´": 353,
      "èĩ": 354,
      "éĥ¨é¦ĸæĺ¯": 355,
      "¾åĪĨ": 356,
      "æ¶": 357,
      "Ļ¾åĪĨ": 358,
      "åı¯": 359,
      "æľ¨æĿĲ": 360,
      "åĬ¨": 361,
      "åĲĮ": 362,
      "åįł": 363,
      "æŀĦ": 364,
      "æŀĹ": 365,
      "æŀĦæĪĲ": 366,
      "çĥŃéĩı": 367,
      "çĦ°ç": 368,
      "æ£®æŀĹ": 369,
      "æĦı": 370,
      "å²©çŁ³": 371,
      "Ļ¾åĪĨä¹ĭ": 372,
      "èĬ": 373,
      "æľ¸": 374,
      "åĬł": 375,
      "æŁľ": 376,
      "æ¤ħ": 377,
      "æ´ĭæ³ī": 378,
      "æ¡Į": 379,
      "æ±Łæ²³æ¹ĸæµ·æ´ĭæ³ī": 380,
      "æ±Łæ²³æ¹ĸæµ·æ´ĭæ³īæºĲ": 381,
      "ng": 382,
      "çĭ": 383,
      "¡Ģ": 384,
      "¢å¯Į": 385,
      "¤èĢ": 386,
      "¥ŀ": 387,
      "¨Ģ": 388,
      "²¾": 389,
      "¹åħ»": 390,
      "¼ļ": 391,
      "ä¼ļ": 392,
      "åĽ": 393,
      "æĤ": 394,
      "æŃ": 395,
      "ç¥ŀ": 396,
      "è¨Ģ": 397,
      "ĨåĪ": 398,
      "ĩåħ³": 399,
      "Įĸ": 400,
      "ĳä»": 401,
      "łä¹": 402,
      "ä¸¤": 403,
      "çļĦè´": 404,
      "æľ¯": 405,
      "åŃĹçļĦ": 406,
      "æĺ¯æľĢ": 407,
      "æ°ĳ": 408,
      "åħ¬": 409,
      "åı¤èĢ": 410,
      "æĪĳä»": 411,
      "ä¹ł": 412,
      "æľīå¯": 413,
      "æĸĩ": 414,
      "æĸĩå": 415,
      "æłĩå": 416,
      "ç§ĳ": 417,
      "äººæīį": 418,
      "åŁ¹åħ»": 419,
      "åİ»": 420,
      "å±ķ": 421,
      "æķĻ": 422,
      "åıĳå±ķ": 423,
      "ºç¡Ģ": 424,
      "æıĲç¤ºåŃĹçļĦ": 425,
      "åĳ½": 426,
      "çļĦç²¾": 427,
      "åŃ¦ä¹ł": 428,
      "æĥ³": 429,
      "è¯Ńè¨Ģ": 430,
      "æĬĢæľ¯": 431,
      "æĺ¯çĶŁåĳ½": 432,
      "åŃĹæĹģæľīå¯": 433,
      "èĩª": 434,
      "¢å¯ĮåĴĮ": 435,
      "æĤłä¹": 436,
      "æŃ¥": 437,
      "ĨåĪĩåħ³": 438,
      "åı¤èĢģçļĦ": 439,
      "æĪĳä»¬": 440,
      "æĸĩåĮĸ": 441,
      "çļĦç²¾ç¥ŀ": 442,
      "åŃĹæĹģæľīå¯ĨåĪĩåħ³": 443,
      "æĤłä¹ħ": 444,
      "°å¯Į": 445,
      "åŀ": 446,
      "æ®": 447,
      "çĲ": 448,
      "èĤ": 449,
      "èĮ": 450,
      "é¢": 451,
      "ıæĹģ": 452,
      "ä¸°å¯Į": 453,
      "æĺ¯ä¸Ģä¸ª": 454,
      "ç±»åŀ": 455,
      "åĲĪ": 456,
      "åģıæĹģ": 457,
      "æŁ±": 458,
      "å®Ŀ": 459,
      "çļĦçĻ¾åĪĨä¹ĭ": 460,
      "æīįèĥ½": 461,
      "éĢĶ": 462,
      "çĲĨ": 463,
      "èĮĥ": 464,
      "ç±»åŀĭ": 465,
      "¦åı": 466,
      "®çļĦ": 467,
      "¸è§": 468,
      "¾İ": 469,
      "çĸ": 470,
      "ĬçļĦ": 471,
      "Ĳĥ": 472,
      "ä¸º": 473,
      "çļĦå": 474,
      "æĺ¯åľ": 475,
      "åĪ¶": 476,
      "æĹ¶": 477,
      "äº§": 478,
      "æ³Ľ": 479,
      "æıĲä¾Ľ": 480,
      "°çĲĥ": 481,
      "åıĳåĩ": 482,
      "åįģåĪĨ": 483,
      "å¤§å¤ļ": 484,
      "éĥ¨çļĦåŃĹå¤§å¤ļ": 485,
      "å¸¸è§": 486,
      "åĢĻ": 487,
      "éĿ¢ç§¯": 488,
      "ç§įç±»": 489,
      "ħ¤çĤŃ": 490,
      "èĬĤ": 491,
      "æ¡Įæ¤ħ": 492,
      "åıĳåĩº": 493,
      "éĥ¨çļĦåŃĹå¤§å¤ļä¸İ": 494,
      "åĮ": 495,
      "çŁ": 496,
      "æĸ¹": 497,
      "çŁ¿": 498,
      "å¹³": 499,
      "Ãł": 500,
      "ªĮ": 501,
      "åĨ": 502,
      "éªĮ": 503,
      "æľ¬": 504,
      "å®ŀ": 505,
      "åĨħ": 506,
      "å°": 507,
      "çģ¼": 508,
      "æ³«": 509,
      "æ³¶": 510,
      "æ´Ń": 511,
      "åĲį": 512,
      "æ¹¸": 513,
      "æ¸ħ": 514,
      "æ¤į": 515,
      "çļĦåŃĹä¹īç±»åĪ«": 516,
      "æľīåħ³çļĦåŃĹä¹īç±»åĪ«": 517,
      "è¡¨ç¤ºä¸İ": 518,
      "¢åĴĮ": 519,
      "¥ä¸Ĭ": 520,
      "«åįģ": 521,
      "´å²©çŁ³": 522,
      "»æķ": 523,
      "å¥": 524,
      "æį": 525,
      "Ģç´": 526,
      "Ŀæį": 527,
      "åħ«åįģ": 528,
      "åĴĮå£°æĹģ": 529,
      "å¤´å²©çŁ³": 530,
      "ä»¥ä¸Ĭ": 531,
      "åĪĨç±»": 532,
      "çģ«çĦ°ç": 533,
      "çĤ¹": 534,
      "çŁ³å¤´å²©çŁ³": 535,
      "æ£Ģç´": 536,
      "æ±īåŃĹæĢ": 537,
      "æ±īåŃĹæ£Ģç´": 538,
      "ä¾Ŀæį": 539,
      "çļĦéĩįè¦ģä¾Ŀæį": 540,
      "ĩĥçĥ§çĥŃéĩı": 541,
      "å½¢å£°åŃĹçĶ±": 542,
      "å½¢å£°åŃĹåįł": 543,
      "æĥħ": 544,
      "å½¢æĹģåĴĮå£°æĹģ": 545,
      "æ¯ı": 546,
      "éĥ¨é¦ĸæĺ¯æ±īåŃĹæ£Ģç´": 547,
      "çŁ¿çī©": 548,
      "¢åĴĮåĪĨç±»": 549,
      "åħ«åįģä»¥ä¸Ĭ": 550,
      "çģ«çĦ°çĩĥçĥ§çĥŃéĩı": 551,
      "çŁ³å¤´å²©çŁ³çŁ¿çī©": 552,
      "æ±īåŃĹæĢ»æķ": 553,
      "çļĦéĩįè¦ģä¾Ŀæį®": 554,
      "å½¢å£°åŃĹçĶ±å½¢æĹģåĴĮå£°æĹģ": 555,
      "å½¢å£°åŃĹåįłæ±īåŃĹæĢ»æķ": 556,
      "éĥ¨é¦ĸæĺ¯æ±īåŃĹæ£Ģç´¢åĴĮåĪĨç±»": 557,
      "éĥ¨é¦ĸæĺ¯æ±īåŃĹæ£Ģç´¢åĴĮåĪĨç±»çļĦéĩįè¦ģä¾Ŀæį®": 558,
      "¡æµ": 559,
      "¥æ¸": 560,
      "¦æ¸": 561,
      "¯æ¹¾": 562,
      "²ä½": 563,
      "¶éĩį": 564,
      "¸åĲĮ": 565,
      "»å½¢å£°åŃĹ": 566,
      "¼æ£®": 567,
      "åĥ": 568,
      "æ©": 569,
      "ç£": 570,
      "éĽ": 571,
      "é±»": 572,
      "ĩé±»": 573,
      "Ļæľ¨": 574,
      "łåĬł": 575,
      "ä¸ī": 576,
      "æĺ¯åı": 577,
      "å¤į": 578,
      "éĥ¨ä»": 579,
      "æ°´æ¹¾": 580,
      "æ°´æ¶": 581,
      "æ°´åĲį": 582,
      "æ£į": 583,
      "æ´¥æ¸": 584,
      "çĬĩé±»": 585,
      "æĿ¿": 586,
      "åİŁ": 587,
      "é¦Ļæľ¨": 588,
      "æµģæ´¥æ¸": 589,
      "çĥ§çģ¼": 590,
      "çł¾": 591,
      "çłĤ": 592,
      "å¹¿": 593,
      "çĤİçĬĩé±»": 594,
      "çĤİçĥ§çģ¼": 595,
      "çĶ±çĽ": 596,
      "éĺ²": 597,
      "æ·¼æ£®": 598,
      "æ±¸æ£»": 599,
      "çĬ´æµ¯": 600,
      "çł¯çĬ´æµ¯": 601,
      "æ¢ģ": 602,
      "æ±Ńæ´Ń": 603,
      "çĤĩçł¯çĬ´æµ¯": 604,
      "æŀĦåŃĹ": 605,
      "æľ¸æ±Ńæ´Ń": 606,
      "æ±Łæ²³æ¹ĸæµ·æ´ĭæ³īæºĲæµģæ´¥æ¸": 607,
      "æ³¶æ¹¸": 608,
      "æ¤įçī©": 609,
      "¡æµ¦æ¸": 610,
      "²ä½ĵ": 611,
      "¶éĩįå¤į": 612,
      "¸åĲĮéĥ¨ä»": 613,
      "åĥ»å½¢å£°åŃĹ": 614,
      "éĽĨ": 615,
      "łåĬłæŀĦåŃĹ": 616,
      "æĺ¯åıłåĬłæŀĦåŃĹ": 617,
      "æ°´æ¶²ä½ĵ": 618,
      "çĤİçĬĩé±»æĺ¯åıłåĬłæŀĦåŃĹ": 619,
      "çĤİçĥ§çģ¼çĥŃ": 620,
      "çĶ±çĽ¸åĲĮéĥ¨ä»": 621,
      "æ·¼æ£®çĤİçĬĩé±»æĺ¯åıłåĬłæŀĦåŃĹ": 622,
      "æ±¸æ£»çĤĩçł¯çĬ´æµ¯": 623,
      "æľ¸æ±Ńæ´Ńæ³¶æ¹¸": 624,
      "æ±Łæ²³æ¹ĸæµ·æ´ĭæ³īæºĲæµģæ´¥æ¸¡æµ¦æ¸": 625,
      "çĶ±çĽ¸åĲĮéĥ¨ä»¶éĩįå¤į": 626,
      "æ±¸æ£»çĤĩçł¯çĬ´æµ¯æľ¸æ±Ńæ´Ńæ³¶æ¹¸": 627,
      "æ±Łæ²³æ¹ĸæµ·æ´ĭæ³īæºĲæµģæ´¥æ¸¡æµ¦æ¸¯æ¹¾": 628,
      "æ±¸æ£»çĤĩçł¯çĬ´æµ¯æľ¸æ±Ńæ´Ńæ³¶æ¹¸æ³«": 629,
      "fÄ": 630,
      "xu": 631,
      "ģng": 632,
      "ä»İæ°´": 633,
      "Ãłn": 634,
      "¡æī": 635,
      "¢ĥ": 636,
      "£ä»": 637,
      "£æŃ¥": 638,
      "¤æĺ¯": 639,
      "¤æµģ": 640,
      "¤åĲĮ": 641,
      "¥è¯": 642,
      "¥æı": 643,
      "¥åº": 644,
      "¦ı": 645,
      "¦æĥ³": 646,
      "¨ĭ": 647,
      "¨åĬ¨": 648,
      "¨åŃ¦ä¹ł": 649,
      "ªĴ": 650,
      "ªåĬĽ": 651,
      "¬æĺ¯": 652,
      "¬çī¹": 653,
      "®æł": 654,
      "¯å": 655,
      "°åĴĮ": 656,
      "°èĩª": 657,
      "°çļĦçĻ¾åĪĨä¹ĭ": 658,
      "±çļĦ": 659,
      "²æĺ¯": 660,
      "³»": 661,
      "´æİ": 662,
      "´çĭ": 663,
      "µçļĦè´": 664,
      "¶è¯Ńè¨Ģ": 665,
      "·åı": 666,
      "·æĺ¯äºº": 667,
      "¸ç": 668,
      "ºå": 669,
      "ºèĥ½": 670,
      "ºçļĦç²¾ç¥ŀ": 671,
      "ºæľ¬": 672,
      "»åĴĮ": 673,
      "¼ºçļĦç²¾ç¥ŀ": 674,
      "½çļĦ": 675,
      "¾ä¼ļ": 676,
      "¿Ĺ": 677,
      "¿Ŀ": 678,
      "ä¿Ŀ": 679,
      "åªĴ": 680,
      "æĴ": 681,
      "çķ": 682,
      "ç¨ĭ": 683,
      "ç³»": 684,
      "èģ": 685,
      "èİ": 686,
      "Ģåľ¨": 687,
      "ĥç´": 688,
      "ĦåĴĮ": 689,
      "ĦåĲĪ": 690,
      "ĦçĲĨ": 691,
      "ħè¯»": 692,
      "Ĩç¤": 693,
      "ĨåŁ": 694,
      "ĨçļĦéĩįè¦ģ": 695,
      "ĩĨ": 696,
      "ĩæ¢": 697,
      "Īæĸ¹": 698,
      "Īå¥": 699,
      "īæĪĳä»¬": 700,
      "Ĭè¯": 701,
      "Ĭå¤©": 702,
      "Ĭæĺ¯çĶŁåĳ½": 703,
      "ĭè°": 704,
      "ĭæ®": 705,
      "ĮæĪĲ": 706,
      "Įä¸Ĭ": 707,
      "įåħ": 708,
      "İçŁ³": 709,
      "İå¸": 710,
      "İåıĳå±ķ": 711,
      "ıç»": 712,
      "ĳæĪ": 713,
      "ĵæŀĦ": 714,
      "Ķä¾": 715,
      "ķä½": 716,
      "ķĮä¸Ĭ": 717,
      "ĸå¤ļ": 718,
      "Ĺäº": 719,
      "ĺéĿ": 720,
      "ĺäºĭ": 721,
      "Ļ¨åŃ¦ä¹ł": 722,
      "Ľæĸ": 723,
      "ĽæŃ¥": 724,
      "Ŀæĥ³": 725,
      "ŀäº": 726,
      "Ł¥è¯": 727,
      "Ńæķ": 728,
      "ä¸ĸç": 729,
      "ä¸´çĭ": 730,
      "çļĦè¿": 731,
      "çļĦåİĨåı²": 732,
      "çļĦäºĭ": 733,
      "çļĦä¸Ģä¸ª": 734,
      "çļĦåıĳå±ķ": 735,
      "çļĦæĬĢæľ¯": 736,
      "çļĦæĸĩåĮĸ": 737,
      "æľºå": 738,
      "åŃĹä¹ĭ": 739,
      "åŃĹéĥ¨çļĦåŃĹ": 740,
      "åŃĹçĶ±": 741,
      "æĺ¯èİ": 742,
      "æĺ¯ä¸ĸç": 743,
      "åıĭè°": 744,
      "åıĺéĿ": 745,
      "åĪĽæĸ": 746,
      "åĴĮéĩįè¦ģ": 747,
      "åĴĮç»ı": 748,
      "åĴĮæłĩå": 749,
      "åĴĮä¸°å¯Į": 750,
      "åĴĮåªĴ": 751,
      "åĴĮåıĺéĿ": 752,
      "äº¤æµģ": 753,
      "äºĨç¤": 754,
      "å¤ĦçĲĨ": 755,
      "æµİåıĳå±ķ": 756,
      "æĪĸç": 757,
      "æĪĸå¤ļ": 758,
      "æľ¨åŃĹæĹģæľīå¯ĨåĪĩåħ³": 759,
      "ä»ĭ": 760,
      "ä»Ĭå¤©": 761,
      "åĪĨæĶ¯": 762,
      "æ³ķ": 763,
      "çģ«åŃĹæĹģæľīå¯ĨåĪĩåħ³": 764,
      "æ°´æľīåħ³": 765,
      "æ°´æĺ¯çĶŁåĳ½": 766,
      "ç»ĦåĲĪ": 767,
      "ç»ĵæŀĦ": 768,
      "çĶŁæľĢ": 769,
      "çĶŁçĽ": 770,
      "çĶŁçļĦäºĭ": 771,
      "åĬ¡æī": 772,
      "åĬªåĬĽ": 773,
      "æľīæķ": 774,
      "æľīæĤłä¹ħ": 775,
      "ç±»äº¤æµģ": 776,
      "åįķä½": 777,
      "äººçĶŁçĽ": 778,
      "æīĭæ®": 779,
      "éĩįè¦ģåĪĨæĶ¯": 780,
      "åŁºç¡Ģ": 781,
      "éĥ½å±": 782,
      "æ±īåŃĹçļĦåŁ": 783,
      "æ±īåŃĹåħ·": 784,
      "æ±īåŃĹç±»åŀĭ": 785,
      "æ±īåŃĹæĺ¯ä¸ĸç": 786,
      "å·±çļĦ": 787,
      "ä¸ªè±¡å½¢åŃĹ": 788,
      "ä¸ªåħ¬": 789,
      "ä¸ªæĪĸå¤ļ": 790,
      "æµ·æĺ¯æľĢ": 791,
      "å£°æĹģæıĲç¤ºåŃĹçļĦ": 792,
      "èĢĮæĪĲ": 793,
      "è´¢å¯ĮåĴĮ": 794,
      "è´µçļĦè´": 795,
      "ä¸Ńä¸į": 796,
      "ä¸ŃåĽ": 797,
      "ä¸Ńæĸĩ": 798,
      "åıĳçĶŁçļĦäºĭ": 799,
      "åģ¥åº": 800,
      "å¹¸ç": 801,
      "é¦ĸéĥ½": 802,
      "ä¹īåĬ¡æī": 803,
      "ä¸Ĭæµ·æĺ¯æľĢ": 804,
      "çļĦéĩįè¦ģå·¥": 805,
      "ä¹ĭæºĲ": 806,
      "å·¥æĻ": 807,
      "å·¥ç¨ĭ": 808,
      "ç»ĦæĪĲç»ĵæŀĦ": 809,
      "ç»ĦæĪĲåįķä½": 810,
      "æłĳæľ¨æ£®æŀĹ": 811,
      "æĬ¤æĺ¯": 812,
      "æľĢåı¤èĢģçļĦ": 813,
      "åĳĬè¯": 814,
      "çī¹å¾": 815,
      "çī¹çĤ¹": 816,
      "æİ¨åĬ¨": 817,
      "æĮĳæĪ": 818,
      "å¤§çļĦåŁ": 819,
      "éľĢè¦ģç§ĳ": 820,
      "çĦ¶è¯Ńè¨Ģ": 821,
      "è®Ń": 822,
      "è®¤åĲĮ": 823,
      "åŃ¦æĬĢæľ¯": 824,
      "éĺħè¯»": 825,
      "æĹıçļĦç²¾ç¥ŀ": 826,
      "æĹıèĮĥ": 827,
      "çĽ´æİ": 828,
      "æ±Łæ²³æ¹ĸæµ·éĥ½ä¸İ": 829,
      "å¾ĦåĴĮ": 830,
      "å¾Īå¥": 831,
      "ĸçŁ¥è¯": 832,
      "çļĦåŁºç¡Ģ": 833,
      "æĺ¯äººç±»äº¤æµģ": 834,
      "æĺ¯äººå·¥æĻ": 835,
      "è¯Ńä¹īç±»åĪ«": 836,
      "éĥ½ä¸İæľ¨åŃĹæĹģæľīå¯ĨåĪĩåħ³": 837,
      "éĥ½ä¸İçģ«åŃĹæĹģæľīå¯ĨåĪĩåħ³": 838,
      "æĶ¯æŁ±": 839,
      "æĶ¯æĴ": 840,
      "æĬĢåĪĽæĸ": 841,
      "åİĨåı²æĤłä¹ħ": 842,
      "åİĨåı²åĳĬè¯": 843,
      "åħ·åĴĮåªĴ": 844,
      "å¤©æ°Ķ": 845,
      "ç»ıæµİåıĳå±ķ": 846,
      "åĬĽéĩı": 847,
      "è±¡å½¢åŃĹæĺ¯æľĢ": 848,
      "éĥ¨åĪĨç»ĦæĪĲç»ĵæŀĦ": 849,
      "éĿ¢ä¸´çĭ": 850,
      "è¿ĩåİ»": 851,
      "çİ¯å": 852,
      "çİ°èĩª": 853,
      "å½¢æĹģæıĲç¤ºåŃĹçļĦ": 854,
      "æ¯Ķä¾": 855,
      "æĢĿæĥ³": 856,
      "éĥ¨é¦ĸæĺ¯æŀĦæĪĲ": 857,
      "æ¶µ": 858,
      "åı¯æĪĸç": 859,
      "æľ¨æĿĲæłĳæľ¨æ£®æŀĹ": 860,
      "æĦıåŃĹçĶ±": 861,
      "ä¼ļæĦıåŃĹçĶ±": 862,
      "åĽŃæķ": 863,
      "ä¸¤ä¸ªæĪĸå¤ļ": 864,
      "ä¸¤éĥ¨åĪĨç»ĦæĪĲç»ĵæŀĦ": 865,
      "çļĦè´£ä»": 866,
      "æ°ĳæĹıçļĦç²¾ç¥ŀ": 867,
      "æ°ĳçļĦè´£ä»": 868,
      "åħ¬åĽŃæķ": 869,
      "æĸĩåŃĹä¹ĭ": 870,
      "æłĩå¿Ĺ": 871,
      "ç§ĳåŃ¦æĬĢæľ¯": 872,
      "äººæīįåŁ¹åħ»": 873,
      "äººæīįçļĦåŁºç¡Ģ": 874,
      "åŁ¹åħ»äººæīįçļĦåŁºç¡Ģ": 875,
      "åİ»åħ¬åĽŃæķ": 876,
      "æķĻèĤ": 877,
      "æķĻè®Ń": 878,
      "åŃ¦ä¹łæīįèĥ½": 879,
      "è¯Ńè¨Ģæĺ¯äººç±»äº¤æµģ": 880,
      "èĩªçĦ¶è¯Ńè¨Ģ": 881,
      "¢å¯ĮåĴĮå¹¸ç": 882,
      "åı¤èĢģçļĦæ±īåŃĹç±»åŀĭ": 883,
      "æĪĳä»¬åİ»åħ¬åĽŃæķ": 884,
      "æĸĩåĮĸæĺ¯ä¸Ģä¸ª": 885,
      "é¢ĨåŁ": 886,
      "åģıæĹģéĥ¨é¦ĸæĺ¯æŀĦæĪĲ": 887,
      "å®Ŀè´µçļĦè´": 888,
      "éĢĶå¾ĦåĴĮ": 889,
      "åĮĹäº": 890,
      "éªĮæķĻè®Ń": 891,
      "å®ŀçİ°èĩª": 892,
      "åĨħæ¶µ": 893,
      "æĥħåĴĮç»ı": 894,
      "æ¯ıä¸ªåħ¬": 895,
      "åħ«åįģä»¥ä¸Ĭæ¯Ķä¾": 896,
      "çģ«çĦ°çĩĥçĥ§çĥŃéĩıéĥ½ä¸İçģ«åŃĹæĹģæľīå¯ĨåĪĩåħ³": 897,
      "çŁ³å¤´å²©çŁ³çŁ¿çī©éĥ½å±": 898,
      "å½¢å£°åŃĹçĶ±å½¢æĹģåĴĮå£°æĹģä¸¤éĥ¨åĪĨç»ĦæĪĲç»ĵæŀĦ": 899,
      "å½¢å£°åŃĹåįłæ±īåŃĹæĢ»æķ°çļĦçĻ¾åĪĨä¹ĭ": 900,
      "éĥ¨é¦ĸæĺ¯æ±īåŃĹæ£Ģç´¢åĴĮåĪĨç±»çļĦéĩįè¦ģä¾Ŀæį®åĴĮæłĩå": 901,
      "¢ĥä¿Ŀ": 902,
      "¥æııç»": 903,
      "¦ıåŁºç¡Ģ": 904,
      "¬æĺ¯ä¸ŃåĽ": 905,
      "¬çī¹çļĦæĬĢæľ¯": 906,
      "®æłĩæ¢": 907,
      "°åĴĮäººæīįåŁ¹åħ»": 908,
      "²æĺ¯åŁ¹åħ»äººæīįçļĦåŁºç¡Ģ": 909,
      "·åıĸçŁ¥è¯": 910,
      "·æĺ¯äººçĶŁæľĢ": 911,
      "ºèĥ½çļĦä¸Ģä¸ª": 912,
      "ºæľ¬ç»ĦæĪĲåįķä½": 913,
      "»åĴĮä¹īåĬ¡æī": 914,
      "¼ºçļĦç²¾ç¥ŀæĶ¯æŁ±": 915,
      "½çļĦé¦ĸéĥ½": 916,
      "¾ä¼ļçļĦè¿": 917,
      "çķ´": 918,
      "èģĶ": 919,
      "ĥç´ł": 920,
      "ĨçļĦéĩįè¦ģéĢĶå¾ĦåĴĮ": 921,
      "Īæĸ¹æ³ķ": 922,
      "īæĪĳä»¬è¿ĩåİ»": 923,
      "Ĭæĺ¯çĶŁåĳ½ä¸Ńä¸į": 924,
      "įåħĥç´ł": 925,
      "İçŁ³åŃĹéĥ¨çļĦåŃĹ": 926,
      "İå¸Ĥ": 927,
      "ķĮä¸ĬæľĢåı¤èĢģçļĦ": 928,
      "ĺäºĭçī©": 929,
      "Ļ¨åŃ¦ä¹łæĺ¯äººå·¥æĻ": 930,
      "ĽæŃ¥åĴĮåıĺéĿ": 931,
      "ŀäºİçŁ³åŃĹéĥ¨çļĦåŃĹ": 932,
      "çļĦåİĨåı²åĴĮä¸°å¯Į": 933,
      "çļĦåıĳå±ķæİ¨åĬ¨": 934,
      "çļĦæĸĩåĮĸåĨħæ¶µ": 935,
      "æľºåĻ¨åŃ¦ä¹łæĺ¯äººå·¥æĻ": 936,
      "æĺ¯èİ·åıĸçŁ¥è¯": 937,
      "åıĭè°Ĭæĺ¯çĶŁåĳ½ä¸Ńä¸į": 938,
      "åĴĮéĩįè¦ģæīĭæ®": 939,
      "äºĨç¤¾ä¼ļçļĦè¿": 940,
      "å¤ĦçĲĨéĿ¢ä¸´çĭ": 941,
      "ä»Ĭå¤©å¤©æ°Ķ": 942,
      "æ°´æĺ¯çĶŁåĳ½ä¹ĭæºĲ": 943,
      "ç»ĦåĲĪèĢĮæĪĲ": 944,
      "åĬªåĬĽåŃ¦ä¹łæīįèĥ½": 945,
      "æľīæķĪæĸ¹æ³ķ": 946,
      "æľīæĤłä¹ħçļĦåİĨåı²åĴĮä¸°å¯Į": 947,
      "äººçĶŁçĽ®æłĩæ¢": 948,
      "éĩįè¦ģåĪĨæĶ¯é¢ĨåŁ": 949,
      "æ±īåŃĹçļĦåŁºæľ¬ç»ĦæĪĲåįķä½": 950,
      "æ±īåŃĹåħ·æľīæĤłä¹ħçļĦåİĨåı²åĴĮä¸°å¯Į": 951,
      "æ±īåŃĹæĺ¯ä¸ĸçķĮä¸ĬæľĢåı¤èĢģçļĦ": 952,
      "å·±çļĦäººçĶŁçĽ®æłĩæ¢": 953,
      "ä¸ªè±¡å½¢åŃĹç»ĦåĲĪèĢĮæĪĲ": 954,
      "å£°æĹģæıĲç¤ºåŃĹçļĦè¯»éŁ³": 955,
      "è´¢å¯ĮåĴĮè®¤åĲĮ": 956,
      "ä¸ŃæĸĩèĩªçĦ¶è¯Ńè¨Ģ": 957,
      "åıĳçĶŁçļĦäºĭæĥħåĴĮç»ı": 958,
      "åģ¥åº·æĺ¯äººçĶŁæľĢ": 959,
      "ä¸Ĭæµ·æĺ¯æľĢå¤§çļĦåŁ": 960,
      "çļĦéĩįè¦ģå·¥åħ·åĴĮåªĴ": 961,
      "å·¥ç¨ĭåĴĮéĩįè¦ģæīĭæ®": 962,
      "æĬ¤æĺ¯æ¯ıä¸ªåħ¬": 963,
      "çī¹å¾ģ": 964,
      "æĮĳæĪĺ": 965,
      "éľĢè¦ģç§ĳæĬĢåĪĽæĸ": 966,
      "éĺħè¯»æĺ¯èİ·åıĸçŁ¥è¯": 967,
      "æĹıèĮĥçķ´": 968,
      "çĽ´æİ¥æııç»": 969,
      "æ±Łæ²³æ¹ĸæµ·éĥ½ä¸İæ°´æľīåħ³": 970,
      "å¾Īå¥½": 971,
      "éĥ½ä¸İæľ¨åŃĹæĹģæľīå¯ĨåĪĩåħ³èģĶ": 972,
      "æĶ¯æĴĳ": 973,
      "åİĨåı²åĳĬè¯īæĪĳä»¬è¿ĩåİ»": 974,
      "ç»ıæµİåıĳå±ķéľĢè¦ģç§ĳæĬĢåĪĽæĸ": 975,
      "è±¡å½¢åŃĹæĺ¯æľĢåı¤èĢģçļĦæ±īåŃĹç±»åŀĭ": 976,
      "çİ¯å¢ĥä¿Ŀ": 977,
      "å½¢æĹģæıĲç¤ºåŃĹçļĦè¯Ńä¹īç±»åĪ«": 978,
      "æĢĿæĥ³çļĦéĩįè¦ģå·¥åħ·åĴĮåªĴ": 979,
      "åı¯æĪĸç¼ºçļĦç²¾ç¥ŀæĶ¯æŁ±": 980,
      "æľ¨æĿĲæłĳæľ¨æ£®æŀĹéĥ½ä¸İæľ¨åŃĹæĹģæľīå¯ĨåĪĩåħ³èģĶ": 981,
      "ä¼ļæĦıåŃĹçĶ±ä¸¤ä¸ªæĪĸå¤ļ": 982,
      "æ°ĳæĹıçļĦç²¾ç¥ŀè´¢å¯ĮåĴĮè®¤åĲĮ": 983,
      "æ°ĳçļĦè´£ä»»åĴĮä¹īåĬ¡æī": 984,
      "æĸĩåŃĹä¹ĭä¸Ģ": 985,
      "ç§ĳåŃ¦æĬĢæľ¯çļĦåıĳå±ķæİ¨åĬ¨": 986,
      "æķĻèĤ²æĺ¯åŁ¹åħ»äººæīįçļĦåŁºç¡Ģ": 987,
      "è¯Ńè¨Ģæĺ¯äººç±»äº¤æµģæĢĿæĥ³çļĦéĩįè¦ģå·¥åħ·åĴĮåªĴ": 988,
      "¢å¯ĮåĴĮå¹¸ç¦ıåŁºç¡Ģ": 989,
      "æĪĳä»¬åİ»åħ¬åĽŃæķ£æŃ¥": 990,
      "æĸĩåĮĸæĺ¯ä¸Ģä¸ªæ°ĳæĹıçļĦç²¾ç¥ŀè´¢å¯ĮåĴĮè®¤åĲĮ": 991,
      "åģıæĹģéĥ¨é¦ĸæĺ¯æŀĦæĪĲæ±īåŃĹçļĦåŁºæľ¬ç»ĦæĪĲåįķä½": 992,
      "å®Ŀè´µçļĦè´¢å¯ĮåĴĮå¹¸ç¦ıåŁºç¡Ģ": 993,
      "åĮĹäº¬æĺ¯ä¸ŃåĽ": 994,
      "å®ŀçİ°èĩªå·±çļĦäººçĶŁçĽ®æłĩæ¢": 995,
      "åħ«åįģä»¥ä¸Ĭæ¯Ķä¾ĭ": 996,
      "çģ«çĦ°çĩĥçĥ§çĥŃéĩıéĥ½ä¸İçģ«åŃĹæĹģæľīå¯ĨåĪĩåħ³ç³»": 997,
      "çŁ³å¤´å²©çŁ³çŁ¿çī©éĥ½å±ŀäºİçŁ³åŃĹéĥ¨çļĦåŃĹ": 998,
      "å½¢å£°åŃĹçĶ±å½¢æĹģåĴĮå£°æĹģä¸¤éĥ¨åĪĨç»ĦæĪĲç»ĵæŀĦçī¹çĤ¹": 999,
      "å½¢å£°åŃĹåįłæ±īåŃĹæĢ»æķ°çļĦçĻ¾åĪĨä¹ĭåħ«åįģä»¥ä¸Ĭæ¯Ķä¾ĭ": 1000,
      "éĥ¨é¦ĸæĺ¯æ±īåŃĹæ£Ģç´¢åĴĮåĪĨç±»çļĦéĩįè¦ģä¾Ŀæį®åĴĮæłĩåĩĨ": 1001,
      "¬çī¹çļĦæĬĢæľ¯æĮĳæĪĺ": 1002,
      "°åĴĮäººæīįåŁ¹åħ»æĶ¯æĴĳ": 1003,
      "ºèĥ½çļĦä¸Ģä¸ªéĩįè¦ģåĪĨæĶ¯é¢ĨåŁ": 1004,
      "ĨçļĦéĩįè¦ģéĢĶå¾ĦåĴĮæľīæķĪæĸ¹æ³ķ": 1005,
      "ĽæŃ¥åĴĮåıĺéĿ©": 1006,
      "æľºåĻ¨åŃ¦ä¹łæĺ¯äººå·¥æĻºèĥ½çļĦä¸Ģä¸ªéĩįè¦ģåĪĨæĶ¯é¢ĨåŁ": 1007,
      "åıĭè°Ĭæĺ¯çĶŁåĳ½ä¸Ńä¸įåı¯æĪĸç¼ºçļĦç²¾ç¥ŀæĶ¯æŁ±": 1008,
      "äºĨç¤¾ä¼ļçļĦè¿ĽæŃ¥åĴĮåıĺéĿ©": 1009,
      "å¤ĦçĲĨéĿ¢ä¸´çĭ¬çī¹çļĦæĬĢæľ¯æĮĳæĪĺ": 1010,
      "ä»Ĭå¤©å¤©æ°Ķå¾Īå¥½": 1011,
      "åĬªåĬĽåŃ¦ä¹łæīįèĥ½å®ŀçİ°èĩªå·±çļĦäººçĶŁçĽ®æłĩæ¢": 1012,
      "æ±īåŃĹåħ·æľīæĤłä¹ħçļĦåİĨåı²åĴĮä¸°å¯ĮçļĦæĸĩåĮĸåĨħæ¶µ": 1013,
      "æ±īåŃĹæĺ¯ä¸ĸçķĮä¸ĬæľĢåı¤èĢģçļĦæĸĩåŃĹä¹ĭä¸Ģ": 1014,
      "ä¸ªè±¡å½¢åŃĹç»ĦåĲĪèĢĮæĪĲçī¹å¾ģ": 1015,
      "ä¸ŃæĸĩèĩªçĦ¶è¯Ńè¨Ģå¤ĦçĲĨéĿ¢ä¸´çĭ¬çī¹çļĦæĬĢæľ¯æĮĳæĪĺ": 1016,
      "åıĳçĶŁçļĦäºĭæĥħåĴĮç»ıéªĮæķĻè®Ń": 1017,
      "åģ¥åº·æĺ¯äººçĶŁæľĢå®Ŀè´µçļĦè´¢å¯ĮåĴĮå¹¸ç¦ıåŁºç¡Ģ": 1018,
      "ä¸Ĭæµ·æĺ¯æľĢå¤§çļĦåŁİå¸Ĥ": 1019,
      "å·¥ç¨ĭåĴĮéĩįè¦ģæīĭæ®µ": 1020,
      "æĬ¤æĺ¯æ¯ıä¸ªåħ¬æ°ĳçļĦè´£ä»»åĴĮä¹īåĬ¡æī": 1021,
      "éĺħè¯»æĺ¯èİ·åıĸçŁ¥è¯ĨçļĦéĩįè¦ģéĢĶå¾ĦåĴĮæľīæķĪæĸ¹æ³ķ": 1022,
      "çĽ´æİ¥æııç»ĺäºĭçī©": 1023,
      "åİĨåı²åĳĬè¯īæĪĳä»¬è¿ĩåİ»åıĳçĶŁçļĦäºĭæĥħåĴĮç»ıéªĮæķĻè®Ń": 1024,
      "ç»ıæµİåıĳå±ķéľĢè¦ģç§ĳæĬĢåĪĽæĸ°åĴĮäººæīįåŁ¹åħ»æĶ¯æĴĳ": 1025,
      "çİ¯å¢ĥä¿ĿæĬ¤æĺ¯æ¯ıä¸ªåħ¬æ°ĳçļĦè´£ä»»åĴĮä¹īåĬ¡æī": 1026,
      "ä¼ļæĦıåŃĹçĶ±ä¸¤ä¸ªæĪĸå¤ļä¸ªè±¡å½¢åŃĹç»ĦåĲĪèĢĮæĪĲçī¹å¾ģ": 1027,
      "ç§ĳåŃ¦æĬĢæľ¯çļĦåıĳå±ķæİ¨åĬ¨äºĨç¤¾ä¼ļçļĦè¿ĽæŃ¥åĴĮåıĺéĿ©": 1028,
      "æķĻèĤ²æĺ¯åŁ¹åħ»äººæīįçļĦåŁºç¡Ģå·¥ç¨ĭåĴĮéĩįè¦ģæīĭæ®µ": 1029,
      "è¯Ńè¨Ģæĺ¯äººç±»äº¤æµģæĢĿæĥ³çļĦéĩįè¦ģå·¥åħ·åĴĮåªĴä»ĭ": 1030,
      "æĸĩåĮĸæĺ¯ä¸Ģä¸ªæ°ĳæĹıçļĦç²¾ç¥ŀè´¢å¯ĮåĴĮè®¤åĲĮæłĩå¿Ĺ": 1031,
      "åģıæĹģéĥ¨é¦ĸæĺ¯æŀĦæĪĲæ±īåŃĹçļĦåŁºæľ¬ç»ĦæĪĲåįķä½įåħĥç´ł": 1032,
      "åĮĹäº¬æĺ¯ä¸ŃåĽ½çļĦé¦ĸéĥ½": 1033,
      "çŁ³å¤´å²©çŁ³çŁ¿çī©éĥ½å±ŀäºİçŁ³åŃĹéĥ¨çļĦåŃĹæĹıèĮĥçķ´": 1034,
      "æľºåĻ¨åŃ¦ä¹łæĺ¯äººå·¥æĻºèĥ½çļĦä¸Ģä¸ªéĩįè¦ģåĪĨæĶ¯é¢ĨåŁŁ": 1035,
      "åıĭè°Ĭæĺ¯çĶŁåĳ½ä¸Ńä¸įåı¯æĪĸç¼ºçļĦç²¾ç¥ŀæĶ¯æŁ±åĬĽéĩı": 1036,
      "åĬªåĬĽåŃ¦ä¹łæīįèĥ½å®ŀçİ°èĩªå·±çļĦäººçĶŁçĽ®æłĩæ¢¦æĥ³": 1037,
      "çİ¯å¢ĥä¿ĿæĬ¤æĺ¯æ¯ıä¸ªåħ¬æ°ĳçļĦè´£ä»»åĴĮä¹īåĬ¡æīĢåľ¨": 1038,
      "¡¬": 1039,
      "¡æ²³æµģ": 1040,
      "£Ł": 1041,
      "£çļĦ": 1042,
      "¤éĥ¨åĪĨ": 1043,
      "¥ª": 1044,
      "¥æ²": 1045,
      "¥çĥŃ": 1046,
      "¥è¡¨ç¤º": 1047,
      "¥æĹ¶": 1048,
      "¦ä¸Ń": 1049,
      "§æ°Ķ": 1050,
      "§åĪ¶": 1051,
      "¨åŃĹ": 1052,
      "¨åĲ": 1053,
      "©æ": 1054,
      "©äºº": 1055,
      "ªæ°´": 1056,
      "ªæĸ": 1057,
      "«ĺ": 1058,
      "«æ°µ": 1059,
      "¬æ³": 1060,
      "¬¦åı": 1061,
      "¯Ŀ": 1062,
      "¯èī²": 1063,
      "°è": 1064,
      "°å£": 1065,
      "²Į": 1066,
      "²Ĵ": 1067,
      "²åľ": 1068,
      "³çļĦéĩįè¦ģ": 1069,
      "³åħī": 1070,
      "³ä¾Ľ": 1071,
      "³åı¯": 1072,
      "³éĿ¢ç§¯": 1073,
      "´æµģ": 1074,
      "¶åħ·": 1075,
      "¶³ä¾Ľ": 1076,
      "·é": 1077,
      "·æĿ": 1078,
      "·åĢ": 1079,
      "¹é": 1080,
      "¹ģ": 1081,
      "»ºç": 1082,
      "»çĶ¨": 1083,
      "»åĬł": 1084,
      "»çĲĨ": 1085,
      "»¥æĹ¶": 1086,
      "¼é": 1087,
      "¼åĴĮ": 1088,
      "¼å¤": 1089,
      "½èī²": 1090,
      "½¬æ³": 1091,
      "¾ĥ": 1092,
      "¾Ī": 1093,
      "¾èĢ": 1094,
      "¿éľĢè¦ģ": 1095,
      "åĵ": 1096,
      "æ»¥æĹ¶": 1097,
      "æ¾Ī": 1098,
      "çľ": 1099,
      "ç¾İ": 1100,
      "çħ¤çĤŃ": 1101,
      "ç¡¬": 1102,
      "ç¬¦åı": 1103,
      "ç¯Ŀ": 1104,
      "ç²Ĵ": 1105,
      "ç¹ģ": 1106,
      "èĪ": 1107,
      "è¶³ä¾Ľ": 1108,
      "è½¬æ³": 1109,
      "è¾ĥ": 1110,
      "éķ": 1111,
      "éļ": 1112,
      "éĢĤ": 1113,
      "é£Ł": 1114,
      "ĢŁ": 1115,
      "Ģçľ": 1116,
      "ģç»ĦæĪĲ": 1117,
      "ģç§įç±»": 1118,
      "ĥåįģ": 1119,
      "ĥèĬĤ": 1120,
      "ħè¶³ä¾Ľ": 1121,
      "ĩ¥çĥŃ": 1122,
      "īç§¯": 1123,
      "ĬæŁľ": 1124,
      "ĬæĹ¶": 1125,
      "İäº": 1126,
      "İèĥ½": 1127,
      "ıå¯": 1128,
      "ıå¤©": 1129,
      "ıä¸į": 1130,
      "ĲåįģåĪĨ": 1131,
      "ĳæĿĲ": 1132,
      "Ĵæ´": 1133,
      "Ĵæŀ": 1134,
      "ĴéĢĤ": 1135,
      "ĵç£": 1136,
      "ĸæĺ": 1137,
      "Ĺ´æµģ": 1138,
      "Ĺç²Ĵ": 1139,
      "Ļåľ¨": 1140,
      "Ļèī²": 1141,
      "ļçĶŁ": 1142,
      "ļè¿ĩ": 1143,
      "ļåĩ": 1144,
      "ļçĩĥçĥ§": 1145,
      "ļç¡¬": 1146,
      "ļĸæĺ": 1147,
      "Ľ®çļĦ": 1148,
      "ľçļĦ": 1149,
      "ľæĻ": 1150,
      "ľçĶ¨": 1151,
      "Ŀļç¡¬": 1152,
      "ŁåĪ": 1153,
      "Ńä¹": 1154,
      "ŃĳæĿĲ": 1155,
      "ä¸½": 1156,
      "ä¸ĥåįģ": 1157,
      "ä¸ļçĶŁ": 1158,
      "ä¸ľçļĦ": 1159,
      "çļĦåħ": 1160,
      "çļĦå¤": 1161,
      "çļĦæ²³": 1162,
      "çļĦèĤ": 1163,
      "åŃĹæĺ¯": 1164,
      "åŃĹéĢ": 1165,
      "æĺ¯æ²³": 1166,
      "æĺ¯ä¸Ģ": 1167,
      "æĺ¯éĩįè¦ģ": 1168,
      "æĺ¯å±±": 1169,
      "æĺ¯å¸¸è§": 1170,
      "æ°§æ°Ķ": 1171,
      "åħŃä¹": 1172,
      "åı£çļĦ": 1173,
      "åıĬæĹ¶": 1174,
      "åĴĮåģ": 1175,
      "åĴĮåħ»": 1176,
      "åĴĮè°": 1177,
      "åĴĮä¸ī": 1178,
      "å¤ľæĻ": 1179,
      "éĥ¨åģıæĹģ": 1180,
      "çĥ¹é": 1181,
      "æľ¨éĥ¨çļĦåŃĹ": 1182,
      "æľ¨åĪ¶": 1183,
      "ä»·åĢ": 1184,
      "åĪĨçļĦåħ": 1185,
      "åĪĨåĴĮåħ»": 1186,
      "å½©": 1187,
      "æ³¥æ²": 1188,
      "æ³½èī²": 1189,
      "æ²»çĲĨ": 1190,
      "æ²īç§¯": 1191,
      "çģ«éĥ¨": 1192,
      "çģ«åľ¨": 1193,
      "çģ«åħī": 1194,
      "çģ«åĢĻ": 1195,
      "çģ«éĥ¨çļĦåŃĹå¤§å¤ļä¸İ": 1196,
      "æ°´åľ¨": 1197,
      "æ°´åĪĨåĴĮåħ»": 1198,
      "å½¢æĪĲ": 1199,
      "çĶŁæ´": 1200,
      "çĶŁçĥŃéĩı": 1201,
      "çĶŁéķ": 1202,
      "çŁ³éĥ¨": 1203,
      "çŁ³ç»ı": 1204,
      "æ£Ĵæŀ": 1205,
      "æ´ªæ°´": 1206,
      "åľ°çĲĥ": 1207,
      "æĸĻ": 1208,
      "åĲ«æ°µ": 1209,
      "ä¸ĢæĿ": 1210,
      "ä¸Ģå·": 1211,
      "ä¸İæłĳæľ¨": 1212,
      "æīĵç£": 1213,
      "æ°µéĥ¨çļĦåŃĹå¤§å¤ļä¸İ": 1214,
      "çĥŃæľīåħ³": 1215,
      "çĥŃçļĦå¤": 1216,
      "éĥ½æĺ¯å¸¸è§": 1217,
      "éĥ½åĲ«æ°µ": 1218,
      "çī©è´": 1219,
      "æłĳæ¡Įæ¤ħ": 1220,
      "æµ·æ´ĭ": 1221,
      "°çĩ¥çĥŃ": 1222,
      "èĢĢçľ": 1223,
      "æ¸©æ": 1224,
      "ĩåĢŁ": 1225,
      "ä¸Ńæ²īç§¯": 1226,
      "ºç¾İ": 1227,
      "ºçĽ®çļĦ": 1228,
      "åģļåĩ": 1229,
      "èĥ½éĩı": 1230,
      "åľ¨è±¡å½¢åŃĹ": 1231,
      "å®¶åħ·": 1232,
      "ä¸Ĭæ·": 1233,
      "å·¥ä¸ļçĶŁ": 1234,
      "ç»ĦæĪĲéĥ¨åĪĨ": 1235,
      "æłĳæľ¨çļĦå": 1236,
      "æłĳæľ¨çĶŁéķ": 1237,
      "åĳ³åı¯": 1238,
      "çī¹æ®": 1239,
      "æİ§åĪ¶": 1240,
      "æİªæĸ": 1241,
      "åºĶ": 1242,
      "åºĬçļĦ": 1243,
      "åºĬæŁľ": 1244,
      "å¤§å°": 1245,
      "å¤ļä¸°å¯Į": 1246,
      "éľĢè¦ģåıĬæĹ¶": 1247,
      "éľĢè¦ģæİ§åĪ¶": 1248,
      "çĬŃéĥ¨åģıæĹģ": 1249,
      "è¡¨éĿ¢ç§¯": 1250,
      "è®©äºº": 1251,
      "çĤİçĥŃçļĦå¤": 1252,
      "ä½ľçĶ¨": 1253,
      "éĺ³åħī": 1254,
      "æĦŁåĪ": 1255,
      "æĻ¯èī²": 1256,
      "æ·Į": 1257,
      "çĶ¨éĢĶ": 1258,
      "ģçļĦæľ¨åĪ¶": 1259,
      "æĺ¯çĶŁåĥ»å½¢å£°åŃĹ": 1260,
      "äºĭåŃĹéĢ": 1261,
      "è°·é": 1262,
      "ä¸įèĪ": 1263,
      "æ°ĶåĢĻ": 1264,
      "è¿ĩæīĵç£": 1265,
      "çĩĥçĥ§äº§": 1266,
      "çĩĥçĥ§çĥŃæľīåħ³": 1267,
      "è§Ĵæ´": 1268,
      "åŃĹä»İçģ«éĥ¨": 1269,
      "åŃĹä»İçŁ³éĥ¨": 1270,
      "åŃĹä»İçĬŃéĥ¨åģıæĹģ": 1271,
      "åħīæ³½èī²": 1272,
      "ç§įé¦Ļæľ¨": 1273,
      "æĮĩæ°´æ¹¾": 1274,
      "æĮĩæłĳæľ¨çļĦå": 1275,
      "æĮĩäºĭåŃĹéĢ": 1276,
      "æ±¸æĺ¯ä¸Ģä¸ª": 1277,
      "çĬ´åŃĹä»İçĬŃéĥ¨åģıæĹģ": 1278,
      "çł¯åŃĹä»İçŁ³éĥ¨": 1279,
      "æµ¯æĺ¯å±±": 1280,
      "æ±ŃæĮĩæ°´æ¹¾": 1281,
      "çĤĩåŃĹä»İçģ«éĥ¨": 1282,
      "æ£»æĺ¯ä¸Ģ": 1283,
      "æ²³æµģä¸Ńæ²īç§¯": 1284,
      "å±±è°·é": 1285,
      "æľ¨æĿĲæĺ¯éĩįè¦ģ": 1286,
      "åĬ¨åĬĽ": 1287,
      "åįłåľ°çĲĥ": 1288,
      "çĦ°çħ¤çĤŃ": 1289,
      "æ£®æŀĹæĺ¯åľ": 1290,
      "æĦıä¹ī": 1291,
      "å²©çŁ³æĺ¯åľ": 1292,
      "æľ¸æĮĩæłĳæľ¨çļĦå": 1293,
      "æŁľæĿ¿": 1294,
      "é¢Ĺç²Ĵ": 1295,
      "æŁ±æ£į": 1296,
      "å®ĿçŁ³ç»ı": 1297,
      "çļĦçĻ¾åĪĨä¹ĭä¸ĥåįģ": 1298,
      "æīįèĥ½åģļåĩ": 1299,
      "èĮĥæ²»çĲĨ": 1300,
      "¦åı³éĿ¢ç§¯": 1301,
      "®çļĦæ©": 1302,
      "çĸ¤éĥ¨åĪĨ": 1303,
      "çĸıå¯": 1304,
      "ĬçļĦç±»åŀĭ": 1305,
      "ä¸ºå·¥ä¸ļçĶŁ": 1306,
      "ä¸ºçī¹æ®": 1307,
      "çļĦå»ºç": 1308,
      "äº§æıĲä¾Ľ": 1309,
      "æ³Ľæ»¥æĹ¶": 1310,
      "æ³Ľä»·åĢ": 1311,
      "æıĲä¾Ľæ°§æ°Ķ": 1312,
      "°çĲĥçļĦèĤ": 1313,
      "åįģåĪĨç¾İ": 1314,
      "å¸¸è§ģç»ĦæĪĲ": 1315,
      "ç§įç±»ç¹ģ": 1316,
      "èĬĤçĸ¤éĥ¨åĪĨ": 1317,
      "æ¡Įæ¤ħåºĬæŁľ": 1318,
      "åıĳåĩºèĢĢçľ": 1319,
      "åıĳåĩºæ¸©æ": 1320,
      "å¹³åİŁ": 1321,
      "æ¸ħæ¾Ī": 1322,
      "çł¾æĺ¯æ²³": 1323,
      "çłĤçł¾æĺ¯æ²³": 1324,
      "å¹¿æ³Ľä»·åĢ": 1325,
      "éĺ²èĮĥæ²»çĲĨ": 1326,
      "æ¢ģæŁ±æ£į": 1327,
      "éĽĨåĲĪ": 1328,
      "æ°´æ¶²ä½ĵæľīåħ³": 1329,
      "çĤİçĥ§çģ¼çĥŃçĦ°çħ¤çĤŃ": 1330,
      "çĶ±çĽ¸åĲĮéĥ¨ä»¶éĩįå¤įæŀĦæĪĲ": 1331,
      "æ±Łæ²³æ¹ĸæµ·æ´ĭæ³īæºĲæµģæ´¥æ¸¡æµ¦æ¸¯æ¹¾éĥ½åĲ«æ°µ": 1332,
      "æ±¸æ£»çĤĩçł¯çĬ´æµ¯æľ¸æ±Ńæ´Ńæ³¶æ¹¸æ³«æĺ¯çĶŁåĥ»å½¢å£°åŃĹ": 1333,
      "¥ªéľĢè¦ģæİ§åĪ¶": 1334,
      "¥è¡¨ç¤ºæĦıä¹ī": 1335,
      "¦ä¸Ńè¾ĥ": 1336,
      "¨åŃĹåĴĮåģ": 1337,
      "¨åĲİèĥ½": 1338,
      "°è²Į": 1339,
      "°å£³çļĦéĩįè¦ģ": 1340,
      "²åľ°è²Į": 1341,
      "·æĿ¥è¡¨ç¤ºæĦıä¹ī": 1342,
      "»çĶ¨åĵ": 1343,
      "»åĬłç¬¦åı": 1344,
      "¼é«ĺ": 1345,
      "¼åĴĮéĺ²èĮĥæ²»çĲĨ": 1346,
      "¼å¤ºçĽ®çļĦ": 1347,
      "¾èĢĲåįģåĪĨ": 1348,
      "¿éľĢè¦ģéĺ³åħī": 1349,
      "çħ¤çĤŃçĩĥçĥ§äº§": 1350,
      "ç¯Ŀçģ«åľ¨": 1351,
      "è½¬æ³¨åŃĹåĴĮåģ": 1352,
      "éļ¾èĢĲåįģåĪĨ": 1353,
      "é£Łçī©": 1354,
      "ĥèĬĤæ°ĶåĢĻ": 1355,
      "ħè¶³ä¾ĽåºĶ": 1356,
      "İäº®çļĦæ©": 1357,
      "ıå¤©è®©äºº": 1358,
      "ıä¸įä¸Ģ": 1359,
      "Ĺ´æµģæ·Į": 1360,
      "Ļåľ¨æ²³æµģä¸Ńæ²īç§¯": 1361,
      "Ļèī²çģ«åħī": 1362,
      "ļè¿ĩåľ¨è±¡å½¢åŃĹ": 1363,
      "ļçĩĥçĥ§åıĳåĩºæ¸©æ": 1364,
      "ļĸæĺİäº®çļĦæ©": 1365,
      "Ŀļç¡¬èĬĤçĸ¤éĥ¨åĪĨ": 1366,
      "ŃĳæĿĲæĸĻ": 1367,
      "ä¸ľçļĦä¸ĢæĿ": 1368,
      "çļĦæ²³æ°´åľ¨": 1369,
      "åŃĹæĺ¯åħŃä¹": 1370,
      "åı£çļĦé£Łçī©": 1371,
      "åĴĮè°ĥèĬĤæ°ĶåĢĻ": 1372,
      "åĴĮä¸īè§Ĵæ´": 1373,
      "å¤ľæĻļçĩĥçĥ§åıĳåĩºæ¸©æ": 1374,
      "çĥ¹é¥ªéľĢè¦ģæİ§åĪ¶": 1375,
      "æľ¨éĥ¨çļĦåŃĹä¸İæłĳæľ¨": 1376,
      "åĪĨçļĦåħħè¶³ä¾ĽåºĶ": 1377,
      "æ³¥æ²Ļåľ¨æ²³æµģä¸Ńæ²īç§¯": 1378,
      "çģ«åĢĻæīįèĥ½åģļåĩ": 1379,
      "çģ«éĥ¨çļĦåŃĹå¤§å¤ļä¸İçĩĥçĥ§çĥŃæľīåħ³": 1380,
      "æ°´åĪĨåĴĮåħ»åĪĨçļĦåħħè¶³ä¾ĽåºĶ": 1381,
      "å½¢æĪĲå¹³åİŁ": 1382,
      "çĶŁæ´»çĶ¨åĵ": 1383,
      "çĶŁçĥŃéĩıä¸ºå·¥ä¸ļçĶŁ": 1384,
      "æ£ĴæŀĿ": 1385,
      "æ´ªæ°´æ³Ľæ»¥æĹ¶": 1386,
      "ä¸Ģå·¦åı³éĿ¢ç§¯": 1387,
      "æ°µéĥ¨çļĦåŃĹå¤§å¤ļä¸İæ°´æ¶²ä½ĵæľīåħ³": 1388,
      "éĥ½æĺ¯å¸¸è§ģçļĦæľ¨åĪ¶": 1389,
      "çī©è´¨": 1390,
      "æłĳæ¡Įæ¤ħæŁľæĿ¿": 1391,
      "æµ·æ´ĭåįłåľ°çĲĥ": 1392,
      "°çĩ¥çĥŃéļ¾èĢĲåįģåĪĨ": 1393,
      "ĩåĢŁåŃĹæĺ¯åħŃä¹": 1394,
      "ºç¾İåĳ³åı¯": 1395,
      "èĥ½éĩıåĬ¨åĬĽ": 1396,
      "å®¶åħ·çĶŁæ´»çĶ¨åĵ": 1397,
      "ä¸Ĭæ·»åĬłç¬¦åı": 1398,
      "æłĳæľ¨çĶŁéķ¿éľĢè¦ģéĺ³åħī": 1399,
      "æİªæĸ½": 1400,
      "åºĬçļĦå¸¸è§ģç»ĦæĪĲ": 1401,
      "å¤§å°ıä¸įä¸Ģ": 1402,
      "éľĢè¦ģåıĬæĹ¶çĸıå¯": 1403,
      "è¡¨éĿ¢ç§¯çļĦçĻ¾åĪĨä¹ĭä¸ĥåįģ": 1404,
      "çĤİçĥŃçļĦå¤ıå¤©è®©äºº": 1405,
      "æĦŁåĪ°çĩ¥çĥŃéļ¾èĢĲåįģåĪĨ": 1406,
      "æĻ¯èī²åįģåĪĨç¾İ": 1407,
      "çĶ¨éĢĶå¹¿æ³Ľä»·åĢ": 1408,
      "ä¸įèĪĴéĢĤ": 1409,
      "è¿ĩæīĵç£¨åĲİèĥ½": 1410,
      "åħīæ³½èī²å½©": 1411,
      "ç§įé¦Ļæľ¨æ¤įçī©": 1412,
      "æĮĩäºĭåŃĹéĢļè¿ĩåľ¨è±¡å½¢åŃĹ": 1413,
      "æ±¸æĺ¯ä¸Ģä¸ªæ°´åĲį": 1414,
      "æµ¯æĺ¯å±±ä¸ľçļĦä¸ĢæĿ": 1415,
      "æ£»æĺ¯ä¸Ģç§įé¦Ļæľ¨æ¤įçī©": 1416,
      "å±±è°·éĹ´æµģæ·Į": 1417,
      "æľ¨æĿĲæĺ¯éĩįè¦ģçļĦå»ºç": 1418,
      "æ£®æŀĹæĺ¯åľ°çĲĥçļĦèĤ": 1419,
      "å²©çŁ³æĺ¯åľ°å£³çļĦéĩįè¦ģ": 1420,
      "æľ¸æĮĩæłĳæľ¨çļĦåĿļç¡¬èĬĤçĸ¤éĥ¨åĪĨ": 1421,
      "é¢Ĺç²Ĵå¤§å°ıä¸įä¸Ģ": 1422,
      "å®ĿçŁ³ç»ıè¿ĩæīĵç£¨åĲİèĥ½": 1423,
      "ä¸ºçī¹æ®ĬçļĦç±»åŀĭ": 1424,
      "äº§æıĲä¾Ľèĥ½éĩıåĬ¨åĬĽ": 1425,
      "æıĲä¾Ľæ°§æ°ĶåĴĮè°ĥèĬĤæ°ĶåĢĻ": 1426,
      "ç§įç±»ç¹ģå¤ļä¸°å¯Į": 1427,
      "æ¡Įæ¤ħåºĬæŁľéĥ½æĺ¯å¸¸è§ģçļĦæľ¨åĪ¶": 1428,
      "åıĳåĩºèĢĢçľ¼å¤ºçĽ®çļĦ": 1429,
      "æ¸ħæ¾ĪçļĦæ²³æ°´åľ¨": 1430,
      "çłĤçł¾æĺ¯æ²³åºĬçļĦå¸¸è§ģç»ĦæĪĲ": 1431,
      "æ¢ģæŁ±æ£įæ£ĴæŀĿ": 1432,
      "æ±Łæ²³æ¹ĸæµ·æ´ĭæ³īæºĲæµģæ´¥æ¸¡æµ¦æ¸¯æ¹¾éĥ½åĲ«æ°µéĥ¨é¦ĸ": 1433,
      "æ±¸æ£»çĤĩçł¯çĬ´æµ¯æľ¸æ±Ńæ´Ńæ³¶æ¹¸æ³«æĺ¯çĶŁåĥ»å½¢å£°åŃĹéĽĨåĲĪ": 1434,
      "¦ä¸Ńè¾ĥä¸ºçī¹æ®ĬçļĦç±»åŀĭ": 1435,
      "¼åĴĮéĺ²èĮĥæ²»çĲĨæİªæĸ½": 1436,
      "çħ¤çĤŃçĩĥçĥ§äº§çĶŁçĥŃéĩıä¸ºå·¥ä¸ļçĶŁ": 1437,
      "ç¯Ŀçģ«åľ¨å¤ľæĻļçĩĥçĥ§åıĳåĩºæ¸©æ": 1438,
      "è½¬æ³¨åŃĹåĴĮåģĩåĢŁåŃĹæĺ¯åħŃä¹": 1439,
      "ļĸæĺİäº®çļĦæ©Ļèī²çģ«åħī": 1440,
      "åĴĮä¸īè§Ĵæ´²åľ°è²Į": 1441,
      "çĥ¹é¥ªéľĢè¦ģæİ§åĪ¶çģ«åĢĻæīįèĥ½åģļåĩ": 1442,
      "æľ¨éĥ¨çļĦåŃĹä¸İæłĳæľ¨æľīåħ³": 1443,
      "æ³¥æ²Ļåľ¨æ²³æµģä¸Ńæ²īç§¯å½¢æĪĲå¹³åİŁ": 1444,
      "æ´ªæ°´æ³Ľæ»¥æĹ¶éľĢè¦ģåıĬæĹ¶çĸıå¯": 1445,
      "æłĳæ¡Įæ¤ħæŁľæĿ¿æ¢ģæŁ±æ£įæ£ĴæŀĿ": 1446,
      "æµ·æ´ĭåįłåľ°çĲĥè¡¨éĿ¢ç§¯çļĦçĻ¾åĪĨä¹ĭä¸ĥåįģ": 1447,
      "ºç¾İåĳ³åı¯åı£çļĦé£Łçī©": 1448,
      "å®¶åħ·çĶŁæ´»çĶ¨åĵģç§įç±»": 1449,
      "ä¸Ĭæ·»åĬłç¬¦åı·æĿ¥è¡¨ç¤ºæĦıä¹ī": 1450,
      "æłĳæľ¨çĶŁéķ¿éľĢè¦ģéĺ³åħīæ°´åĪĨåĴĮåħ»åĪĨçļĦåħħè¶³ä¾ĽåºĶ": 1451,
      "çĤİçĥŃçļĦå¤ıå¤©è®©äººæĦŁåĪ°çĩ¥çĥŃéļ¾èĢĲåįģåĪĨ": 1452,
      "æĻ¯èī²åįģåĪĨç¾İä¸½": 1453,
      "çĶ¨éĢĶå¹¿æ³Ľä»·åĢ¼é«ĺ": 1454,
      "æĮĩäºĭåŃĹéĢļè¿ĩåľ¨è±¡å½¢åŃĹä¸Ĭæ·»åĬłç¬¦åı·æĿ¥è¡¨ç¤ºæĦıä¹ī": 1455,
      "æµ¯æĺ¯å±±ä¸ľçļĦä¸ĢæĿ¡æ²³æµģ": 1456,
      "æľ¨æĿĲæĺ¯éĩįè¦ģçļĦå»ºçŃĳæĿĲæĸĻ": 1457,
      "æ£®æŀĹæĺ¯åľ°çĲĥçļĦèĤº": 1458,
      "å²©çŁ³æĺ¯åľ°å£³çļĦéĩįè¦ģç»ĦæĪĲéĥ¨åĪĨ": 1459,
      "å®ĿçŁ³ç»ıè¿ĩæīĵç£¨åĲİèĥ½åıĳåĩºèĢĢçľ¼å¤ºçĽ®çļĦ": 1460,
      "æıĲä¾Ľæ°§æ°ĶåĴĮè°ĥèĬĤæ°ĶåĢĻä½ľçĶ¨": 1461,
      "æ¡Įæ¤ħåºĬæŁľéĥ½æĺ¯å¸¸è§ģçļĦæľ¨åĪ¶å®¶åħ·çĶŁæ´»çĶ¨åĵģç§įç±»": 1462,
      "æ¸ħæ¾ĪçļĦæ²³æ°´åľ¨å±±è°·éĹ´æµģæ·Į": 1463,
      "çłĤçł¾æĺ¯æ²³åºĬçļĦå¸¸è§ģç»ĦæĪĲçī©è´¨": 1464,
      "çħ¤çĤŃçĩĥçĥ§äº§çĶŁçĥŃéĩıä¸ºå·¥ä¸ļçĶŁäº§æıĲä¾Ľèĥ½éĩıåĬ¨åĬĽ": 1465,
      "ç¯Ŀçģ«åľ¨å¤ľæĻļçĩĥçĥ§åıĳåĩºæ¸©æļĸæĺİäº®çļĦæ©Ļèī²çģ«åħī": 1466,
      "è½¬æ³¨åŃĹåĴĮåģĩåĢŁåŃĹæĺ¯åħŃä¹¦ä¸Ńè¾ĥä¸ºçī¹æ®ĬçļĦç±»åŀĭ": 1467,
      "çĥ¹é¥ªéľĢè¦ģæİ§åĪ¶çģ«åĢĻæīįèĥ½åģļåĩºç¾İåĳ³åı¯åı£çļĦé£Łçī©": 1468,
      "æ³¥æ²Ļåľ¨æ²³æµģä¸Ńæ²īç§¯å½¢æĪĲå¹³åİŁåĴĮä¸īè§Ĵæ´²åľ°è²Į": 1469,
      "æ´ªæ°´æ³Ľæ»¥æĹ¶éľĢè¦ģåıĬæĹ¶çĸıå¯¼åĴĮéĺ²èĮĥæ²»çĲĨæİªæĸ½": 1470,
      "æµ·æ´ĭåįłåľ°çĲĥè¡¨éĿ¢ç§¯çļĦçĻ¾åĪĨä¹ĭä¸ĥåįģä¸Ģå·¦åı³éĿ¢ç§¯": 1471,
      "çĤİçĥŃçļĦå¤ıå¤©è®©äººæĦŁåĪ°çĩ¥çĥŃéļ¾èĢĲåįģåĪĨä¸įèĪĴéĢĤ": 1472,
      "å®ĿçŁ³ç»ıè¿ĩæīĵç£¨åĲİèĥ½åıĳåĩºèĢĢçľ¼å¤ºçĽ®çļĦåħīæ³½èī²å½©": 1473,
      "å¹²": 1474,
      "æĶµ": 1475,
      "åŃĹæĹģè¡¨ç¤ºä¸İ": 1476,
      "fÅ": 1477,
      "iÃł": 1478,
      "ku": 1479,
      "liÃł": 1480,
      "pÄ": 1481,
      "wÃ": 1482,
      "«ng": 1483,
      "Ã©": 1484,
      "Äģng": 1485,
      "çĮ": 1486,
      "çħ¤": 1487,
      "ĵn": 1488,
      "æĺ¯æľ¬": 1489,
      "åħ½": 1490,
      "åıį": 1491,
      "äº®": 1492,
      "çŁ³å¹³": 1493,
      "çĬ¬": 1494,
      "åĲ¾": 1495,
      "éĿĴ": 1496,
      "çĬŃå¹²": 1497,
      "çĦ°": 1498,
      "è®ł": 1499,
      "æıĲç¤ºè¯»éŁ³fÄ": 1500,
      "æıĲç¤ºè¯»éŁ³xu": 1501,
      "çİĦ": 1502,
      "åĮ¡": 1503,
      "å®ŀéªĮ": 1504,
      "fÅ«": 1505,
      "kuÄģng": 1506,
      "liÃłng": 1507,
      "pÄ«ng": 1508,
      "wÃº": 1509,
      "æĺ¯æľ¬å®ŀéªĮ": 1510,
      "ru": 1511,
      "¡æŀ": 1512,
      "¢ĳ": 1513,
      "£æµ": 1514,
      "¤çĤ": 1515,
      "¦æ¡": 1516,
      "«ĭ": 1517,
      "«æ¡": 1518,
      "»è¦ģ": 1519,
      "½æ°´": 1520,
      "¾Ĭ": 1521,
      "¾æŁ": 1522,
      "¿Ħ": 1523,
      "¿çĶ¨": 1524,
      "Ã¬": 1525,
      "åĭ": 1526,
      "åĿ": 1527,
      "å¿Ħ": 1528,
      "æŁ³": 1529,
      "çĨ": 1530,
      "çĵ": 1531,
      "çĻ": 1532,
      "ç¢ĳ": 1533,
      "ç«ĭ": 1534,
      "ç¾Ĭ": 1535,
      "èĭ": 1536,
      "ĥæ¢": 1537,
      "ħæĿ": 1538,
      "ĭè¯": 1539,
      "ıæŁ³": 1540,
      "ĶçĤ": 1541,
      "Ķæ¡": 1542,
      "ķéĽĨ": 1543,
      "ķæĺ¯æľ¬å®ŀéªĮ": 1544,
      "ĻçĨ": 1545,
      "ä¸»è¦ģ": 1546,
      "çļĦçĶŁ": 1547,
      "çļĦä¸»è¦ģ": 1548,
      "æĺĨ": 1549,
      "æĺ¯æ²³æµģ": 1550,
      "æĺ¯æ°´æ¹¾": 1551,
      "æĺ¯æ°´åĲį": 1552,
      "æĺ¯é¦Ļæľ¨": 1553,
      "åħ¹": 1554,
      "åı¥": 1555,
      "æĹ¥": 1556,
      "äºī": 1557,
      "æµĭè¯": 1558,
      "çĥ¤çĤ": 1559,
      "æĪ·": 1560,
      "æĪ¿": 1561,
      "æľ¨åĪĨ": 1562,
      "æľ¨çŁ³": 1563,
      "æľ¨åį": 1564,
      "æľ¨å¯": 1565,
      "æľ¨éĩı": 1566,
      "æľ¨æĹı": 1567,
      "æľ¨åĮ": 1568,
      "æľ¨æ¤į": 1569,
      "æľ¨å¥": 1570,
      "æľ¨åŃĹæĹģè¡¨ç¤ºä¸İ": 1571,
      "æľ¨åıį": 1572,
      "æľ¨æĺĨ": 1573,
      "æĹģè¡¨ç¤ºä¸İ": 1574,
      "åĪĨæıĲç¤ºè¯»éŁ³fÄ": 1575,
      "å½³": 1576,
      "å½·": 1577,
      "çģ«çģ«": 1578,
      "çģ«æī": 1579,
      "çģ«çĥŃ": 1580,
      "çģ«æŁ": 1581,
      "çģ«æĹı": 1582,
      "çģ«èĩ": 1583,
      "çģ«å°": 1584,
      "çģ«æĶµ": 1585,
      "çģ«åŃĹæĹģè¡¨ç¤ºä¸İ": 1586,
      "çģ«åĭ": 1587,
      "çģ«æľ¨çŁ³": 1588,
      "æ°´æĹı": 1589,
      "æ°´è¡¨ç¤ºä¸İ": 1590,
      "è¯·": 1591,
      "çŁ³åį": 1592,
      "çŁ³åİĨ": 1593,
      "çŁ³çŁ¿": 1594,
      "çŁ³å°": 1595,
      "çŁ³å¹¿": 1596,
      "çŁ³åŃĹæĹģè¡¨ç¤ºä¸İ": 1597,
      "çŁ³åħ¹": 1598,
      "æ´£æµ": 1599,
      "åľŁ": 1600,
      "ç±»æľīåħ³çļĦåŃĹä¹īç±»åĪ«": 1601,
      "æ°µæ°´": 1602,
      "æ°µèĥ": 1603,
      "æ°µå·¥": 1604,
      "æ°µåŃ¦": 1605,
      "æ°µåı¯": 1606,
      "æ°µæĸ¹": 1607,
      "æ°µåĨħ": 1608,
      "æ°µæ¯ı": 1609,
      "æ°µä¸ī": 1610,
      "æ°µåİŁ": 1611,
      "æ°µäº®": 1612,
      "æ°µåĲ¾": 1613,
      "æ°µéĿĴ": 1614,
      "æ°µçİĦ": 1615,
      "æ°µåĮ¡": 1616,
      "æ°µç¾Ĭ": 1617,
      "æ°µçģ«æľ¨çŁ³": 1618,
      "çī©åħ½": 1619,
      "æłĳæ£®æŀĹ": 1620,
      "°çĻ¾åĪĨä¹ĭ": 1621,
      "å£°æĹģè¡¨": 1622,
      "å£°æĹģåŃ¦": 1623,
      "å£°æĹģæĸ¹": 1624,
      "å£°æĹģå¹³": 1625,
      "å£°æĹģåĨħ": 1626,
      "å£°æĹģå¹²": 1627,
      "å£°æĹģæĶµ": 1628,
      "å£°æĹģäº®": 1629,
      "å£°æĹģåĲ¾": 1630,
      "å£°æĹģçİĦ": 1631,
      "å£°æĹģåĮ¡": 1632,
      "å£°æĹģåĪĨæıĲç¤ºè¯»éŁ³fÄ": 1633,
      "èĢħ": 1634,
      "éĿĸ": 1635,
      "éĿĻ": 1636,
      "ä»İçģ«": 1637,
      "ä»İçŁ³": 1638,
      "ä»İçĬ¬": 1639,
      "æłĳæľ¨æ¤įçī©": 1640,
      "æĶ¾": 1641,
      "çĬŃèī": 1642,
      "çĬŃå¸": 1643,
      "çĬŃåħ½": 1644,
      "çĬŃåıį": 1645,
      "çĬŃæĺ¯æľ¬å®ŀéªĮ": 1646,
      "çĬŃçĵ": 1647,
      "çĬŃèĭ": 1648,
      "çĬŃåı¥": 1649,
      "çĬŃèĢħ": 1650,
      "è¡¨æĦı": 1651,
      "è®¿": 1652,
      "ä½¿çĶ¨": 1653,
      "éĺĿ": 1654,
      "èī¹": 1655,
      "æ¡¦æ¡": 1656,
      "æĻ´": 1657,
      "åĢ©": 1658,
      "æıĲç¤ºè¯»éŁ³Ãłn": 1659,
      "æıĲç¤ºè¯»éŁ³fÅ«": 1660,
      "æıĲç¤ºè¯»éŁ³kuÄģng": 1661,
      "æıĲç¤ºè¯»éŁ³liÃłng": 1662,
      "æıĲç¤ºè¯»éŁ³pÄ«ng": 1663,
      "æıĲç¤ºè¯»éŁ³wÃº": 1664,
      "å½¢æĹģè¡¨æĦı": 1665,
      "çĤŃçħ¤": 1666,
      "æ²³æµģæľīåħ³çļĦåŃĹä¹īç±»åĪ«": 1667,
      "å±±çģ«": 1668,
      "å±±çŁ³": 1669,
      "æľ¨æĿĲæľīåħ³çļĦåŃĹä¹īç±»åĪ«": 1670,
      "åĬ¨çī©åħ½": 1671,
      "èĬ³": 1672,
      "çĭ®": 1673,
      "çĭ¼": 1674,
      "çĭĲ": 1675,
      "çĭĹ": 1676,
      "æĸ¹æĹı": 1677,
      "çĤ¹æ°´è¡¨ç¤ºä¸İ": 1678,
      "çģ«çĦ°çĩĥçĥ§çĥŃéĩıæľīåħ³çļĦåŃĹä¹īç±»åĪ«": 1679,
      "çŁ³å¤´å²©çŁ³çŁ¿çī©æľīåħ³çļĦåŃĹä¹īç±»åĪ«": 1680,
      "å½¢å£°åŃĹçĶ±å½¢æĹģåĴĮå£°æĹģæŀĦæĪĲ": 1681,
      "å½¢å£°åŃĹåįłæ±īåŃĹæĢ»æķ°çĻ¾åĪĨä¹ĭ": 1682,
      "æ©¡æŀ": 1683,
      "ç£ģ": 1684,
      "åĥ»å½¢å£°åŃĹæµĭè¯": 1685,
      "æ°´æ¶²ä½ĵæ²³æµģæľīåħ³çļĦåŃĹä¹īç±»åĪ«": 1686,
      "çĤİçĥ§çģ¼çĥŃçĦ°": 1687,
      "çĶ±çĽ¸åĲĮéĥ¨ä»¶éĩįå¤įç»ĦæĪĲ": 1688,
      "æ±¸æ£»çĤĩçł¯çĬ´æµ¯æľ¸æ±Ńæ´Ńæ³¶æ¹¸æ³«æ´£æµ": 1689,
      "fÄģng": 1690,
      "fÄĵn": 1691,
      "xuÃłn": 1692,
      "xuÃ©": 1693,
      "çĮª": 1694,
      "çĮ«": 1695,
      "çĬ¬æĹģè¡¨ç¤ºä¸İ": 1696,
      "éĿĴæĹı": 1697,
      "æıĲç¤ºè¯»éŁ³fÄģng": 1698,
      "æıĲç¤ºè¯»éŁ³xuÃłn": 1699,
      "æıĲç¤ºè¯»éŁ³xuÃ©": 1700,
      "ruÃ¬": 1701,
      "«æ¡ĳ": 1702,
      "¾æŁıæŁ³": 1703,
      "åĿĬ": 1704,
      "çĻ½æ°´": 1705,
      "ĥæ¢ħæĿ": 1706,
      "ĶçĤ¼": 1707,
      "Ķæ¡ĥæ¢ħæĿ": 1708,
      "ķæĺ¯æľ¬å®ŀéªĮçļĦçĶŁ": 1709,
      "ĻçĨĶçĤ¼": 1710,
      "çļĦä¸»è¦ģéĥ¨é¦ĸ": 1711,
      "æĺ¯æ²³æµģåĲį": 1712,
      "çĥ¤çĤĻçĨĶçĤ¼": 1713,
      "æľ¨åįĵ": 1714,
      "æľ¨å¯¹": 1715,
      "æľ¨åĮ®": 1716,
      "æľ¨å¥ĩ": 1717,
      "æľ¨åŃĹæĹģè¡¨ç¤ºä¸İæłĳæľ¨æ¤įçī©": 1718,
      "çģ«æī§": 1719,
      "çģ«æŁĲ": 1720,
      "çģ«èĩ½": 1721,
      "çģ«å°§": 1722,
      "çģ«åŃĹæĹģè¡¨ç¤ºä¸İçģ«çĦ°çĩĥçĥ§çĥŃéĩıæľīåħ³çļĦåŃĹä¹īç±»åĪ«": 1723,
      "çģ«åĭº": 1724,
      "çŁ³åįĳ": 1725,
      "çŁ³å°ĳ": 1726,
      "çŁ³åŃĹæĹģè¡¨ç¤ºä¸İçŁ³å¤´å²©çŁ³çŁ¿çī©æľīåħ³çļĦåŃĹä¹īç±»åĪ«": 1727,
      "æ°µèĥ¡": 1728,
      "æ°µä¸īçĤ¹æ°´è¡¨ç¤ºä¸İ": 1729,
      "æ°µçģ«æľ¨çŁ³çĬŃæĺ¯æľ¬å®ŀéªĮ": 1730,
      "æłĳæ£®æŀĹæ¡¦æ¡": 1731,
      "å£°æĹģè¡¨éŁ³": 1732,
      "å£°æĹģåŃ¦æıĲç¤ºè¯»éŁ³xuÃ©": 1733,
      "å£°æĹģæĸ¹æıĲç¤ºè¯»éŁ³fÄģng": 1734,
      "å£°æĹģå¹³æıĲç¤ºè¯»éŁ³pÄ«ng": 1735,
      "å£°æĹģåĨħæıĲç¤ºè¯»éŁ³": 1736,
      "å£°æĹģå¹²æıĲç¤ºè¯»éŁ³Ãłn": 1737,
      "å£°æĹģæĶµæıĲç¤ºè¯»éŁ³fÅ«": 1738,
      "å£°æĹģäº®æıĲç¤ºè¯»éŁ³liÃłng": 1739,
      "å£°æĹģåĲ¾æıĲç¤ºè¯»éŁ³wÃº": 1740,
      "å£°æĹģçİĦæıĲç¤ºè¯»éŁ³xuÃłn": 1741,
      "å£°æĹģåĮ¡æıĲç¤ºè¯»éŁ³kuÄģng": 1742,
      "å£°æĹģåĪĨæıĲç¤ºè¯»éŁ³fÄĵn": 1743,
      "çĬŃèī¯": 1744,
      "çĬŃå¸Ī": 1745,
      "çĬŃåıįçĬ¬æĹģè¡¨ç¤ºä¸İ": 1746,
      "çĬŃçĵľ": 1747,
      "çĬŃèĭĹ": 1748,
      "ä½¿çĶ¨çļĦä¸»è¦ģéĥ¨é¦ĸ": 1749,
      "å½¢æĹģè¡¨æĦıå£°æĹģè¡¨éŁ³": 1750,
      "çĤŃçħ¤çĥ¤çĤĻçĨĶçĤ¼": 1751,
      "åĬ¨çī©åħ½ç±»æľīåħ³çļĦåŃĹä¹īç±»åĪ«": 1752,
      "å½¢å£°åŃĹåįłæ±īåŃĹæĢ»æķ°çĻ¾åĪĨä¹ĭåħ«åįģä»¥ä¸Ĭ": 1753,
      "æ©¡æŀ«æ¡ĳ": 1754,
      "åĥ»å½¢å£°åŃĹæµĭè¯ķéĽĨ": 1755,
      "çĤİçĥ§çģ¼çĥŃçĦ°çĤŃçħ¤çĥ¤çĤĻçĨĶçĤ¼": 1756,
      "æ±¸æ£»çĤĩçł¯çĬ´æµ¯æľ¸æ±Ńæ´Ńæ³¶æ¹¸æ³«æ´£æµķæĺ¯æľ¬å®ŀéªĮçļĦçĶŁ": 1757,
      "¾æŁıæŁ³æ©¡æŀ«æ¡ĳ": 1758,
      "Ķæ¡ĥæ¢ħæĿ¾æŁıæŁ³æ©¡æŀ«æ¡ĳ": 1759,
      "æľ¨åŃĹæĹģè¡¨ç¤ºä¸İæłĳæľ¨æ¤įçī©æľ¨æĿĲæľīåħ³çļĦåŃĹä¹īç±»åĪ«": 1760,
      "æ°µä¸īçĤ¹æ°´è¡¨ç¤ºä¸İæ°´æ¶²ä½ĵæ²³æµģæľīåħ³çļĦåŃĹä¹īç±»åĪ«": 1761,
      "æ°µçģ«æľ¨çŁ³çĬŃæĺ¯æľ¬å®ŀéªĮä½¿çĶ¨çļĦä¸»è¦ģéĥ¨é¦ĸ": 1762,
      "æłĳæ£®æŀĹæ¡¦æ¡Ķæ¡ĥæ¢ħæĿ¾æŁıæŁ³æ©¡æŀ«æ¡ĳ": 1763,
      "çĬŃåıįçĬ¬æĹģè¡¨ç¤ºä¸İåĬ¨çī©åħ½ç±»æľīåħ³çļĦåŃĹä¹īç±»åĪ«": 1764,
      "æ±¸æ£»çĤĩçł¯çĬ´æµ¯æľ¸æ±Ńæ´Ńæ³¶æ¹¸æ³«æ´£æµķæĺ¯æľ¬å®ŀéªĮçļĦçĶŁåĥ»å½¢å£°åŃĹæµĭè¯ķéĽĨ": 1765
    },
    "merges": [
      [
        "Ģ",
        "Ĥ"
      ],
      [
        "ã",
        "ĢĤ"
      ],
      [
        "ä",
        "¸"
      ],
      [
        "ç",
        "ļ"
      ],
      [
        "çļ",
        "Ħ"
      ],
      [
        "å",
        "Ń"
      ],
      [
        "æ",
        "ľ"
      ],
      [
        "åŃ",
        "Ĺ"
      ],
      [
        "æ",
        "ĺ"
      ],
      [
        "æĺ",
        "¯"
      ],
      [
        "ï",
        "¼"
      ],
      [
        "æ",
        "°"
      ],
      [
        "å",
        "ħ"
      ],
      [
        "é",
        "ĥ"
      ],
      [
        "å",
        "ı"
      ],
      [
        "ï¼",
        "Į"
      ],
      [
        "å",
        "Ī"
      ],
      [
        "æ",
        "Ĺ"
      ],
      [
        "å",
        "Ĵ"
      ],
      [
        "åĴ",
        "Į"
      ],
      [
        "ä",
        "º"
      ],
      [
        "å",
        "¤"
      ],
      [
        "ç",
        "Ķ"
      ],
      [
        "æ",
        "µ"
      ],
      [
        "æ",
        "±"
      ],
      [
        "éĥ",
        "¨"
      ],
      [
        "Ł",
        "³"
      ],
      [
        "ç",
        "ĥ"
      ],
      [
        "æ",
        "Ī"
      ],
      [
        "æľ",
        "¨"
      ],
      [
        "ä",
        "¹"
      ],
      [
        "ä",
        "»"
      ],
      [
        "æĹ",
        "ģ"
      ],
      [
        "é",
        "ĩ"
      ],
      [
        "ç",
        "ģ"
      ],
      [
        "åĪ",
        "Ĩ"
      ],
      [
        "å",
        "½"
      ],
      [
        "æ",
        "³"
      ],
      [
        "¦",
        "ģ"
      ],
      [
        "è",
        "¦ģ"
      ],
      [
        "æ",
        "²"
      ],
      [
        "çģ",
        "«"
      ],
      [
        "æ°",
        "´"
      ],
      [
        "ç",
        "Ĥ"
      ],
      [
        "è",
        "¯"
      ],
      [
        "å½",
        "¢"
      ],
      [
        "å",
        "£"
      ],
      [
        "ç",
        "»"
      ],
      [
        "çĶ",
        "Ł"
      ],
      [
        "±",
        "»"
      ],
      [
        "ç",
        "ī"
      ],
      [
        "ç",
        "Ł³"
      ],
      [
        "æ",
        "£"
      ],
      [
        "æ",
        "´"
      ],
      [
        "å",
        "Ĭ"
      ],
      [
        "æľ",
        "ī"
      ],
      [
        "å£",
        "°"
      ],
      [
        "å",
        "ľ"
      ],
      [
        "ç",
        "±»"
      ],
      [
        "æ",
        "ĸ"
      ],
      [
        "æ",
        "ł"
      ],
      [
        "ç",
        "Ĭ"
      ],
      [
        "éĩ",
        "į"
      ],
      [
        "æĪ",
        "Ĳ"
      ],
      [
        "å",
        "Ĳ"
      ],
      [
        "ç",
        "¤"
      ],
      [
        "å",
        "į"
      ],
      [
        "æ",
        "ŀ"
      ],
      [
        "æ²",
        "³"
      ],
      [
        "ä¸",
        "Ģ"
      ],
      [
        "ç",
        "§"
      ],
      [
        "æ",
        "ı"
      ],
      [
        "æ",
        "¹"
      ],
      [
        "ä¸",
        "İ"
      ],
      [
        "åħ",
        "³"
      ],
      [
        "ç¤",
        "º"
      ],
      [
        "äº",
        "º"
      ],
      [
        "å",
        "¯"
      ],
      [
        "æ",
        "ī"
      ],
      [
        "éĩį",
        "è¦ģ"
      ],
      [
        "æ°",
        "µ"
      ],
      [
        "çĥ",
        "Ń"
      ],
      [
        "å",
        "Ł"
      ],
      [
        "éĥ",
        "½"
      ],
      [
        "æı",
        "Ĳ"
      ],
      [
        "æ",
        "Ŀ"
      ],
      [
        "ī",
        "åŃĹ"
      ],
      [
        "æ±",
        "īåŃĹ"
      ],
      [
        "å",
        "İ"
      ],
      [
        "Ħ",
        "æĪĲ"
      ],
      [
        "å",
        "·"
      ],
      [
        "ä¸",
        "ª"
      ],
      [
        "é",
        "¦"
      ],
      [
        "çī",
        "©"
      ],
      [
        "æµ",
        "ģ"
      ],
      [
        "çĥ",
        "§"
      ],
      [
        "æł",
        "ĳ"
      ],
      [
        "ï¼",
        "ļ"
      ],
      [
        "å",
        "±"
      ],
      [
        "æµ",
        "·"
      ],
      [
        "°",
        "ç"
      ],
      [
        "å£°",
        "æĹģ"
      ],
      [
        "çļĦ",
        "åŃĹ"
      ],
      [
        "æľī",
        "åħ³"
      ],
      [
        "ç",
        "ł"
      ],
      [
        "æ",
        "ķ"
      ],
      [
        "è",
        "Ģ"
      ],
      [
        "ä",
        "¾"
      ],
      [
        "è",
        "ĥ"
      ],
      [
        "é",
        "Ŀ"
      ],
      [
        "æ",
        "¸"
      ],
      [
        "è",
        "´"
      ],
      [
        "ĩ",
        "å"
      ],
      [
        "ä¸",
        "Ń"
      ],
      [
        "åı",
        "ĳ"
      ],
      [
        "º",
        "ç"
      ],
      [
        "å",
        "ģ"
      ],
      [
        "èĥ",
        "½"
      ],
      [
        "åľ",
        "¨"
      ],
      [
        "è¯",
        "»"
      ],
      [
        "æıĲ",
        "ç¤º"
      ],
      [
        "å",
        "¹"
      ],
      [
        "ä»",
        "İ"
      ],
      [
        "æ",
        "Ł"
      ],
      [
        "é¦",
        "ĸ"
      ],
      [
        "å",
        "®"
      ],
      [
        "éĩ",
        "ı"
      ],
      [
        "ä¹",
        "ī"
      ],
      [
        "ä¸",
        "Ĭ"
      ],
      [
        "çļĦ",
        "éĩįè¦ģ"
      ],
      [
        "ä¹",
        "ĭ"
      ],
      [
        "å·",
        "¥"
      ],
      [
        "ç»",
        "ĦæĪĲ"
      ],
      [
        "ĥ",
        "çĥ§"
      ],
      [
        "ĩ",
        "ĥçĥ§"
      ],
      [
        "åį",
        "ģ"
      ],
      [
        "æłĳ",
        "æľ¨"
      ],
      [
        "é",
        "Ł³"
      ],
      [
        "æ",
        "Ķ"
      ],
      [
        "æ",
        "Ĭ"
      ],
      [
        "æľ",
        "Ģ"
      ],
      [
        "å",
        "ĳ"
      ],
      [
        "çļĦ",
        "ç"
      ],
      [
        "çī",
        "¹"
      ],
      [
        "å¯",
        "Į"
      ],
      [
        "æī",
        "į"
      ],
      [
        "æ",
        "İ"
      ],
      [
        "è",
        "¿"
      ],
      [
        "å",
        "º"
      ],
      [
        "æ",
        "Į"
      ],
      [
        "é",
        "ľ"
      ],
      [
        "Ģ",
        "è¦ģ"
      ],
      [
        "å¤",
        "§"
      ],
      [
        "å¤",
        "ļ"
      ],
      [
        "éĥ¨",
        "çļĦåŃĹ"
      ],
      [
        "éľ",
        "Ģè¦ģ"
      ],
      [
        "è¯»",
        "éŁ³"
      ],
      [
        "çĬ",
        "Ń"
      ],
      [
        "¡",
        "¨"
      ],
      [
        "è",
        "¡¨"
      ],
      [
        "ç",
        "Ħ"
      ],
      [
        "è",
        "®"
      ],
      [
        "å½¢",
        "å£°"
      ],
      [
        "å½¢å£°",
        "åŃĹ"
      ],
      [
        "æ",
        "¤"
      ],
      [
        "çĤ",
        "İ"
      ],
      [
        "åŃ",
        "¦"
      ],
      [
        "çĶ",
        "±"
      ],
      [
        "éĥ¨",
        "é¦ĸ"
      ],
      [
        "º",
        "Ĳ"
      ],
      [
        "ä",
        "½"
      ],
      [
        "æ",
        "ºĲ"
      ],
      [
        "é",
        "ĺ"
      ],
      [
        "æ±",
        "Ł"
      ],
      [
        "æ£",
        "®"
      ],
      [
        "æ¹",
        "ĸ"
      ],
      [
        "è",
        "ī"
      ],
      [
        "æ´",
        "ĭ"
      ],
      [
        "æĹ",
        "ı"
      ],
      [
        "æ",
        "¡"
      ],
      [
        "æ",
        "ĥ"
      ],
      [
        "åİ",
        "Ĩ"
      ],
      [
        "ç",
        "Ľ"
      ],
      [
        "å",
        "¸"
      ],
      [
        "æ",
        "Ħ"
      ],
      [
        "æ",
        "Ļ"
      ],
      [
        "æ²³",
        "æ¹ĸ"
      ],
      [
        "æĿ",
        "Ĳ"
      ],
      [
        "æ±Ł",
        "æ²³æ¹ĸ"
      ],
      [
        "æ±Łæ²³æ¹ĸ",
        "æµ·"
      ],
      [
        "å",
        "Ģ"
      ],
      [
        "æ",
        "·"
      ],
      [
        "çĶ",
        "¨"
      ],
      [
        "å",
        "¾"
      ],
      [
        "ĸ",
        "ç"
      ],
      [
        "çļĦ",
        "åŁ"
      ],
      [
        "æĺ¯",
        "äºº"
      ],
      [
        "åı",
        "²"
      ],
      [
        "è¯",
        "Ń"
      ],
      [
        "éĥ½",
        "ä¸İ"
      ],
      [
        "æĶ",
        "¯"
      ],
      [
        "æĬ",
        "Ģ"
      ],
      [
        "åİĨ",
        "åı²"
      ],
      [
        "¡",
        "å½¢"
      ],
      [
        "±",
        "¡å½¢"
      ],
      [
        "è",
        "±¡å½¢"
      ],
      [
        "ģ",
        "çļĦ"
      ],
      [
        "æĺ¯",
        "çĶŁ"
      ],
      [
        "åħ",
        "·"
      ],
      [
        "åħ",
        "»"
      ],
      [
        "äº",
        "ĭ"
      ],
      [
        "å¤",
        "©"
      ],
      [
        "ç»",
        "ı"
      ],
      [
        "åĬ",
        "Ľ"
      ],
      [
        "ä¸Ģ",
        "ä¸ª"
      ],
      [
        "è±¡å½¢",
        "åŃĹ"
      ],
      [
        "è",
        "°"
      ],
      [
        "é",
        "Ģ"
      ],
      [
        "ä¸",
        "į"
      ],
      [
        "æ°",
        "Ķ"
      ],
      [
        "éĥ¨",
        "åĪĨ"
      ],
      [
        "éĿ",
        "¢"
      ],
      [
        "è¿",
        "ĩ"
      ],
      [
        "å",
        "ĩ"
      ],
      [
        "ç",
        "ĩĥçĥ§"
      ],
      [
        "è",
        "§"
      ],
      [
        "åŃĹ",
        "ä»İ"
      ],
      [
        "åħ",
        "ī"
      ],
      [
        "ç§",
        "¯"
      ],
      [
        "ç§",
        "į"
      ],
      [
        "ä¾",
        "Ľ"
      ],
      [
        "æĮ",
        "ĩ"
      ],
      [
        "èī",
        "²"
      ],
      [
        "æıĲç¤º",
        "è¯»éŁ³"
      ],
      [
        "åŃĹ",
        "æĹģ"
      ],
      [
        "æ±",
        "¸"
      ],
      [
        "çĬ",
        "´"
      ],
      [
        "çł",
        "¯"
      ],
      [
        "ç",
        "İ"
      ],
      [
        "å½¢",
        "æĹģ"
      ],
      [
        "²",
        "©"
      ],
      [
        "å",
        "²©"
      ],
      [
        "æ",
        "¢"
      ],
      [
        "ħ",
        "¤"
      ],
      [
        "æµ",
        "¯"
      ],
      [
        "æ±",
        "Ń"
      ],
      [
        "æ³",
        "ī"
      ],
      [
        "çĤ",
        "ĩ"
      ],
      [
        "çĤ",
        "Ń"
      ],
      [
        "æ£",
        "»"
      ],
      [
        "æ²³",
        "æµģ"
      ],
      [
        "æ¹",
        "¾"
      ],
      [
        "å±",
        "±"
      ],
      [
        "åĪ",
        "«"
      ],
      [
        "ç±»",
        "åĪ«"
      ],
      [
        "ä¹ī",
        "ç±»åĪ«"
      ],
      [
        "è¡¨",
        "ç¤º"
      ],
      [
        "æ",
        "¯"
      ],
      [
        "æ",
        "Ģ"
      ],
      [
        "ç",
        "´"
      ],
      [
        "è",
        "ĩ"
      ],
      [
        "éĥ¨é¦ĸ",
        "æĺ¯"
      ],
      [
        "¾",
        "åĪĨ"
      ],
      [
        "æ",
        "¶"
      ],
      [
        "Ļ",
        "¾åĪĨ"
      ],
      [
        "åı",
        "¯"
      ],
      [
        "æľ¨",
        "æĿĲ"
      ],
      [
        "åĬ",
        "¨"
      ],
      [
        "åĲ",
        "Į"
      ],
      [
        "åį",
        "ł"
      ],
      [
        "æŀ",
        "Ħ"
      ],
      [
        "æŀ",
        "Ĺ"
      ],
      [
        "æŀ",
        "ĦæĪĲ"
      ],
      [
        "çĥŃ",
        "éĩı"
      ],
      [
        "çĦ",
        "°ç"
      ],
      [
        "æ£®",
        "æŀĹ"
      ],
      [
        "æĦ",
        "ı"
      ],
      [
        "å²©",
        "çŁ³"
      ],
      [
        "Ļ¾åĪĨ",
        "ä¹ĭ"
      ],
      [
        "è",
        "Ĭ"
      ],
      [
        "æľ",
        "¸"
      ],
      [
        "åĬ",
        "ł"
      ],
      [
        "æŁ",
        "ľ"
      ],
      [
        "æ¤",
        "ħ"
      ],
      [
        "æ´ĭ",
        "æ³ī"
      ],
      [
        "æ¡",
        "Į"
      ],
      [
        "æ±Łæ²³æ¹ĸæµ·",
        "æ´ĭæ³ī"
      ],
      [
        "æ±Łæ²³æ¹ĸæµ·æ´ĭæ³ī",
        "æºĲ"
      ],
      [
        "n",
        "g"
      ],
      [
        "ç",
        "ĭ"
      ],
      [
        "¡",
        "Ģ"
      ],
      [
        "¢",
        "å¯Į"
      ],
      [
        "¤",
        "èĢ"
      ],
      [
        "¥",
        "ŀ"
      ],
      [
        "¨",
        "Ģ"
      ],
      [
        "²",
        "¾"
      ],
      [
        "¹",
        "åħ»"
      ],
      [
        "¼",
        "ļ"
      ],
      [
        "ä",
        "¼ļ"
      ],
      [
        "å",
        "Ľ"
      ],
      [
        "æ",
        "Ĥ"
      ],
      [
        "æ",
        "Ń"
      ],
      [
        "ç",
        "¥ŀ"
      ],
      [
        "è",
        "¨Ģ"
      ],
      [
        "Ĩ",
        "åĪ"
      ],
      [
        "ĩ",
        "åħ³"
      ],
      [
        "Į",
        "ĸ"
      ],
      [
        "ĳ",
        "ä»"
      ],
      [
        "ł",
        "ä¹"
      ],
      [
        "ä¸",
        "¤"
      ],
      [
        "çļĦ",
        "è´"
      ],
      [
        "æľ",
        "¯"
      ],
      [
        "åŃĹ",
        "çļĦ"
      ],
      [
        "æĺ¯",
        "æľĢ"
      ],
      [
        "æ°",
        "ĳ"
      ],
      [
        "åħ",
        "¬"
      ],
      [
        "åı",
        "¤èĢ"
      ],
      [
        "æĪ",
        "ĳä»"
      ],
      [
        "ä¹",
        "ł"
      ],
      [
        "æľī",
        "å¯"
      ],
      [
        "æĸ",
        "ĩ"
      ],
      [
        "æĸ",
        "ĩå"
      ],
      [
        "æł",
        "ĩå"
      ],
      [
        "ç§",
        "ĳ"
      ],
      [
        "äºº",
        "æīį"
      ],
      [
        "åŁ",
        "¹åħ»"
      ],
      [
        "åİ",
        "»"
      ],
      [
        "å±",
        "ķ"
      ],
      [
        "æķ",
        "Ļ"
      ],
      [
        "åıĳ",
        "å±ķ"
      ],
      [
        "ºç",
        "¡Ģ"
      ],
      [
        "æıĲç¤º",
        "åŃĹçļĦ"
      ],
      [
        "åĳ",
        "½"
      ],
      [
        "çļĦç",
        "²¾"
      ],
      [
        "åŃ¦",
        "ä¹ł"
      ],
      [
        "æĥ",
        "³"
      ],
      [
        "è¯Ń",
        "è¨Ģ"
      ],
      [
        "æĬĢ",
        "æľ¯"
      ],
      [
        "æĺ¯çĶŁ",
        "åĳ½"
      ],
      [
        "åŃĹæĹģ",
        "æľīå¯"
      ],
      [
        "èĩ",
        "ª"
      ],
      [
        "¢å¯Į",
        "åĴĮ"
      ],
      [
        "æĤ",
        "łä¹"
      ],
      [
        "æŃ",
        "¥"
      ],
      [
        "ĨåĪ",
        "ĩåħ³"
      ],
      [
        "åı¤èĢ",
        "ģçļĦ"
      ],
      [
        "æĪĳä»",
        "¬"
      ],
      [
        "æĸĩå",
        "Įĸ"
      ],
      [
        "çļĦç²¾",
        "ç¥ŀ"
      ],
      [
        "åŃĹæĹģæľīå¯",
        "ĨåĪĩåħ³"
      ],
      [
        "æĤłä¹",
        "ħ"
      ],
      [
        "°",
        "å¯Į"
      ],
      [
        "å",
        "ŀ"
      ],
      [
        "æ",
        "®"
      ],
      [
        "ç",
        "Ĳ"
      ],
      [
        "è",
        "Ĥ"
      ],
      [
        "è",
        "Į"
      ],
      [
        "é",
        "¢"
      ],
      [
        "ı",
        "æĹģ"
      ],
      [
        "ä¸",
        "°å¯Į"
      ],
      [
        "æĺ¯",
        "ä¸Ģä¸ª"
      ],
      [
        "ç±»",
        "åŀ"
      ],
      [
        "åĲ",
        "Ī"
      ],
      [
        "åģ",
        "ıæĹģ"
      ],
      [
        "æŁ",
        "±"
      ],
      [
        "å®",
        "Ŀ"
      ],
      [
        "çļĦç",
        "Ļ¾åĪĨä¹ĭ"
      ],
      [
        "æīį",
        "èĥ½"
      ],
      [
        "éĢ",
        "Ķ"
      ],
      [
        "çĲ",
        "Ĩ"
      ],
      [
        "èĮ",
        "ĥ"
      ],
      [
        "ç±»åŀ",
        "ĭ"
      ],
      [
        "¦",
        "åı"
      ],
      [
        "®",
        "çļĦ"
      ],
      [
        "¸",
        "è§"
      ],
      [
        "¾",
        "İ"
      ],
      [
        "ç",
        "ĸ"
      ],
      [
        "Ĭ",
        "çļĦ"
      ],
      [
        "Ĳ",
        "ĥ"
      ],
      [
        "ä¸",
        "º"
      ],
      [
        "çļĦ",
        "å"
      ],
      [
        "æĺ¯",
        "åľ"
      ],
      [
        "åĪ",
        "¶"
      ],
      [
        "æĹ",
        "¶"
      ],
      [
        "äº",
        "§"
      ],
      [
        "æ³",
        "Ľ"
      ],
      [
        "æıĲ",
        "ä¾Ľ"
      ],
      [
        "°ç",
        "Ĳĥ"
      ],
      [
        "åıĳ",
        "åĩ"
      ],
      [
        "åįģ",
        "åĪĨ"
      ],
      [
        "å¤§",
        "å¤ļ"
      ],
      [
        "éĥ¨çļĦåŃĹ",
        "å¤§å¤ļ"
      ],
      [
        "å¸",
        "¸è§"
      ],
      [
        "åĢ",
        "Ļ"
      ],
      [
        "éĿ¢",
        "ç§¯"
      ],
      [
        "ç§į",
        "ç±»"
      ],
      [
        "ħ¤",
        "çĤŃ"
      ],
      [
        "èĬ",
        "Ĥ"
      ],
      [
        "æ¡Į",
        "æ¤ħ"
      ],
      [
        "åıĳåĩ",
        "º"
      ],
      [
        "éĥ¨çļĦåŃĹå¤§å¤ļ",
        "ä¸İ"
      ],
      [
        "å",
        "Į"
      ],
      [
        "ç",
        "Ł"
      ],
      [
        "æĸ",
        "¹"
      ],
      [
        "çŁ",
        "¿"
      ],
      [
        "å¹",
        "³"
      ],
      [
        "Ã",
        "ł"
      ],
      [
        "ª",
        "Į"
      ],
      [
        "å",
        "Ĩ"
      ],
      [
        "é",
        "ªĮ"
      ],
      [
        "æľ",
        "¬"
      ],
      [
        "å®",
        "ŀ"
      ],
      [
        "åĨ",
        "ħ"
      ],
      [
        "å",
        "°"
      ],
      [
        "çģ",
        "¼"
      ],
      [
        "æ³",
        "«"
      ],
      [
        "æ³",
        "¶"
      ],
      [
        "æ´",
        "Ń"
      ],
      [
        "åĲ",
        "į"
      ],
      [
        "æ¹",
        "¸"
      ],
      [
        "æ¸",
        "ħ"
      ],
      [
        "æ¤",
        "į"
      ],
      [
        "çļĦåŃĹ",
        "ä¹īç±»åĪ«"
      ],
      [
        "æľīåħ³",
        "çļĦåŃĹä¹īç±»åĪ«"
      ],
      [
        "è¡¨ç¤º",
        "ä¸İ"
      ],
      [
        "¢",
        "åĴĮ"
      ],
      [
        "¥",
        "ä¸Ĭ"
      ],
      [
        "«",
        "åįģ"
      ],
      [
        "´",
        "å²©çŁ³"
      ],
      [
        "»",
        "æķ"
      ],
      [
        "å",
        "¥"
      ],
      [
        "æ",
        "į"
      ],
      [
        "Ģ",
        "ç´"
      ],
      [
        "Ŀ",
        "æį"
      ],
      [
        "åħ",
        "«åįģ"
      ],
      [
        "åĴĮ",
        "å£°æĹģ"
      ],
      [
        "å¤",
        "´å²©çŁ³"
      ],
      [
        "ä»",
        "¥ä¸Ĭ"
      ],
      [
        "åĪĨ",
        "ç±»"
      ],
      [
        "çģ«",
        "çĦ°ç"
      ],
      [
        "çĤ",
        "¹"
      ],
      [
        "çŁ³",
        "å¤´å²©çŁ³"
      ],
      [
        "æ£",
        "Ģç´"
      ],
      [
        "æ±īåŃĹ",
        "æĢ"
      ],
      [
        "æ±īåŃĹ",
        "æ£Ģç´"
      ],
      [
        "ä¾",
        "Ŀæį"
      ],
      [
        "çļĦéĩįè¦ģ",
        "ä¾Ŀæį"
      ],
      [
        "ĩĥçĥ§",
        "çĥŃéĩı"
      ],
      [
        "å½¢å£°åŃĹ",
        "çĶ±"
      ],
      [
        "å½¢å£°åŃĹ",
        "åįł"
      ],
      [
        "æĥ",
        "ħ"
      ],
      [
        "å½¢æĹģ",
        "åĴĮå£°æĹģ"
      ],
      [
        "æ¯",
        "ı"
      ],
      [
        "éĥ¨é¦ĸæĺ¯",
        "æ±īåŃĹæ£Ģç´"
      ],
      [
        "çŁ¿",
        "çī©"
      ],
      [
        "¢åĴĮ",
        "åĪĨç±»"
      ],
      [
        "åħ«åįģ",
        "ä»¥ä¸Ĭ"
      ],
      [
        "çģ«çĦ°ç",
        "ĩĥçĥ§çĥŃéĩı"
      ],
      [
        "çŁ³å¤´å²©çŁ³",
        "çŁ¿çī©"
      ],
      [
        "æ±īåŃĹæĢ",
        "»æķ"
      ],
      [
        "çļĦéĩįè¦ģä¾Ŀæį",
        "®"
      ],
      [
        "å½¢å£°åŃĹçĶ±",
        "å½¢æĹģåĴĮå£°æĹģ"
      ],
      [
        "å½¢å£°åŃĹåįł",
        "æ±īåŃĹæĢ»æķ"
      ],
      [
        "éĥ¨é¦ĸæĺ¯æ±īåŃĹæ£Ģç´",
        "¢åĴĮåĪĨç±»"
      ],
      [
        "éĥ¨é¦ĸæĺ¯æ±īåŃĹæ£Ģç´¢åĴĮåĪĨç±»",
        "çļĦéĩįè¦ģä¾Ŀæį®"
      ],
      [
        "¡",
        "æµ"
      ],
      [
        "¥",
        "æ¸"
      ],
      [
        "¦",
        "æ¸"
      ],
      [
        "¯",
        "æ¹¾"
      ],
      [
        "²",
        "ä½"
      ],
      [
        "¶",
        "éĩį"
      ],
      [
        "¸",
        "åĲĮ"
      ],
      [
        "»",
        "å½¢å£°åŃĹ"
      ],
      [
        "¼",
        "æ£®"
      ],
      [
        "å",
        "ĥ"
      ],
      [
        "æ",
        "©"
      ],
      [
        "ç",
        "£"
      ],
      [
        "é",
        "Ľ"
      ],
      [
        "é",
        "±»"
      ],
      [
        "ĩ",
        "é±»"
      ],
      [
        "Ļ",
        "æľ¨"
      ],
      [
        "ł",
        "åĬł"
      ],
      [
        "ä¸",
        "ī"
      ],
      [
        "æĺ¯",
        "åı"
      ],
      [
        "å¤",
        "į"
      ],
      [
        "éĥ¨",
        "ä»"
      ],
      [
        "æ°´",
        "æ¹¾"
      ],
      [
        "æ°´",
        "æ¶"
      ],
      [
        "æ°´",
        "åĲį"
      ],
      [
        "æ£",
        "į"
      ],
      [
        "æ´",
        "¥æ¸"
      ],
      [
        "çĬ",
        "ĩé±»"
      ],
      [
        "æĿ",
        "¿"
      ],
      [
        "åİ",
        "Ł"
      ],
      [
        "é¦",
        "Ļæľ¨"
      ],
      [
        "æµģ",
        "æ´¥æ¸"
      ],
      [
        "çĥ§",
        "çģ¼"
      ],
      [
        "çł",
        "¾"
      ],
      [
        "çł",
        "Ĥ"
      ],
      [
        "å¹",
        "¿"
      ],
      [
        "çĤİ",
        "çĬĩé±»"
      ],
      [
        "çĤİ",
        "çĥ§çģ¼"
      ],
      [
        "çĶ±",
        "çĽ"
      ],
      [
        "éĺ",
        "²"
      ],
      [
        "æ·",
        "¼æ£®"
      ],
      [
        "æ±¸",
        "æ£»"
      ],
      [
        "çĬ´",
        "æµ¯"
      ],
      [
        "çł¯",
        "çĬ´æµ¯"
      ],
      [
        "æ¢",
        "ģ"
      ],
      [
        "æ±Ń",
        "æ´Ń"
      ],
      [
        "çĤĩ",
        "çł¯çĬ´æµ¯"
      ],
      [
        "æŀĦ",
        "åŃĹ"
      ],
      [
        "æľ¸",
        "æ±Ńæ´Ń"
      ],
      [
        "æ±Łæ²³æ¹ĸæµ·æ´ĭæ³īæºĲ",
        "æµģæ´¥æ¸"
      ],
      [
        "æ³¶",
        "æ¹¸"
      ],
      [
        "æ¤į",
        "çī©"
      ],
      [
        "¡æµ",
        "¦æ¸"
      ],
      [
        "²ä½",
        "ĵ"
      ],
      [
        "¶éĩį",
        "å¤į"
      ],
      [
        "¸åĲĮ",
        "éĥ¨ä»"
      ],
      [
        "åĥ",
        "»å½¢å£°åŃĹ"
      ],
      [
        "éĽ",
        "Ĩ"
      ],
      [
        "łåĬł",
        "æŀĦåŃĹ"
      ],
      [
        "æĺ¯åı",
        "łåĬłæŀĦåŃĹ"
      ],
      [
        "æ°´æ¶",
        "²ä½ĵ"
      ],
      [
        "çĤİçĬĩé±»",
        "æĺ¯åıłåĬłæŀĦåŃĹ"
      ],
      [
        "çĤİçĥ§çģ¼",
        "çĥŃ"
      ],
      [
        "çĶ±çĽ",
        "¸åĲĮéĥ¨ä»"
      ],
      [
        "æ·¼æ£®",
        "çĤİçĬĩé±»æĺ¯åıłåĬłæŀĦåŃĹ"
      ],
      [
        "æ±¸æ£»",
        "çĤĩçł¯çĬ´æµ¯"
      ],
      [
        "æľ¸æ±Ńæ´Ń",
        "æ³¶æ¹¸"
      ],
      [
        "æ±Łæ²³æ¹ĸæµ·æ´ĭæ³īæºĲæµģæ´¥æ¸",
        "¡æµ¦æ¸"
      ],
      [
        "çĶ±çĽ¸åĲĮéĥ¨ä»",
        "¶éĩįå¤į"
      ],
      [
        "æ±¸æ£»çĤĩçł¯çĬ´æµ¯",
        "æľ¸æ±Ńæ´Ńæ³¶æ¹¸"
      ],
      [
        "æ±Łæ²³æ¹ĸæµ·æ´ĭæ³īæºĲæµģæ´¥æ¸¡æµ¦æ¸",
        "¯æ¹¾"
      ],
      [
        "æ±¸æ£»çĤĩçł¯çĬ´æµ¯æľ¸æ±Ńæ´Ńæ³¶æ¹¸",
        "æ³«"
      ],
      [
        "f",
        "Ä"
      ],
      [
        "x",
        "u"
      ],
      [
        "ģ",
        "ng"
      ],
      [
        "ä»İ",
        "æ°´"
      ],
      [
        "Ãł",
        "n"
      ],
      [
        "¡",
        "æī"
      ],
      [
        "¢",
        "ĥ"
      ],
      [
        "£",
        "ä»"
      ],
      [
        "£",
        "æŃ¥"
      ],
      [
        "¤",
        "æĺ¯"
      ],
      [
        "¤",
        "æµģ"
      ],
      [
        "¤",
        "åĲĮ"
      ],
      [
        "¥",
        "è¯"
      ],
      [
        "¥",
        "æı"
      ],
      [
        "¥",
        "åº"
      ],
      [
        "¦",
        "ı"
      ],
      [
        "¦",
        "æĥ³"
      ],
      [
        "¨",
        "ĭ"
      ],
      [
        "¨",
        "åĬ¨"
      ],
      [
        "¨",
        "åŃ¦ä¹ł"
      ],
      [
        "ª",
        "Ĵ"
      ],
      [
        "ª",
        "åĬĽ"
      ],
      [
        "¬",
        "æĺ¯"
      ],
      [
        "¬",
        "çī¹"
      ],
      [
        "®",
        "æł"
      ],
      [
        "¯",
        "å"
      ],
      [
        "°",
        "åĴĮ"
      ],
      [
        "°",
        "èĩª"
      ],
      [
        "°",
        "çļĦçĻ¾åĪĨä¹ĭ"
      ],
      [
        "±",
        "çļĦ"
      ],
      [
        "²",
        "æĺ¯"
      ],
      [
        "³",
        "»"
      ],
      [
        "´",
        "æİ"
      ],
      [
        "´",
        "çĭ"
      ],
      [
        "µ",
        "çļĦè´"
      ],
      [
        "¶",
        "è¯Ńè¨Ģ"
      ],
      [
        "·",
        "åı"
      ],
      [
        "·",
        "æĺ¯äºº"
      ],
      [
        "¸",
        "ç"
      ],
      [
        "º",
        "å"
      ],
      [
        "º",
        "èĥ½"
      ],
      [
        "º",
        "çļĦç²¾ç¥ŀ"
      ],
      [
        "º",
        "æľ¬"
      ],
      [
        "»",
        "åĴĮ"
      ],
      [
        "¼",
        "ºçļĦç²¾ç¥ŀ"
      ],
      [
        "½",
        "çļĦ"
      ],
      [
        "¾",
        "ä¼ļ"
      ],
      [
        "¿",
        "Ĺ"
      ],
      [
        "¿",
        "Ŀ"
      ],
      [
        "ä",
        "¿Ŀ"
      ],
      [
        "å",
        "ªĴ"
      ],
      [
        "æ",
        "Ĵ"
      ],
      [
        "ç",
        "ķ"
      ],
      [
        "ç",
        "¨ĭ"
      ],
      [
        "ç",
        "³»"
      ],
      [
        "è",
        "ģ"
      ],
      [
        "è",
        "İ"
      ],
      [
        "Ģ",
        "åľ¨"
      ],
      [
        "ĥ",
        "ç´"
      ],
      [
        "Ħ",
        "åĴĮ"
      ],
      [
        "Ħ",
        "åĲĪ"
      ],
      [
        "Ħ",
        "çĲĨ"
      ],
      [
        "ħ",
        "è¯»"
      ],
      [
        "Ĩ",
        "ç¤"
      ],
      [
        "Ĩ",
        "åŁ"
      ],
      [
        "Ĩ",
        "çļĦéĩįè¦ģ"
      ],
      [
        "ĩ",
        "Ĩ"
      ],
      [
        "ĩ",
        "æ¢"
      ],
      [
        "Ī",
        "æĸ¹"
      ],
      [
        "Ī",
        "å¥"
      ],
      [
        "ī",
        "æĪĳä»¬"
      ],
      [
        "Ĭ",
        "è¯"
      ],
      [
        "Ĭ",
        "å¤©"
      ],
      [
        "Ĭ",
        "æĺ¯çĶŁåĳ½"
      ],
      [
        "ĭ",
        "è°"
      ],
      [
        "ĭ",
        "æ®"
      ],
      [
        "Į",
        "æĪĲ"
      ],
      [
        "Į",
        "ä¸Ĭ"
      ],
      [
        "į",
        "åħ"
      ],
      [
        "İ",
        "çŁ³"
      ],
      [
        "İ",
        "å¸"
      ],
      [
        "İ",
        "åıĳå±ķ"
      ],
      [
        "ı",
        "ç»"
      ],
      [
        "ĳ",
        "æĪ"
      ],
      [
        "ĵ",
        "æŀĦ"
      ],
      [
        "Ķ",
        "ä¾"
      ],
      [
        "ķ",
        "ä½"
      ],
      [
        "ķ",
        "Įä¸Ĭ"
      ],
      [
        "ĸ",
        "å¤ļ"
      ],
      [
        "Ĺ",
        "äº"
      ],
      [
        "ĺ",
        "éĿ"
      ],
      [
        "ĺ",
        "äºĭ"
      ],
      [
        "Ļ",
        "¨åŃ¦ä¹ł"
      ],
      [
        "Ľ",
        "æĸ"
      ],
      [
        "Ľ",
        "æŃ¥"
      ],
      [
        "Ŀ",
        "æĥ³"
      ],
      [
        "ŀ",
        "äº"
      ],
      [
        "Ł",
        "¥è¯"
      ],
      [
        "Ń",
        "æķ"
      ],
      [
        "ä¸",
        "ĸç"
      ],
      [
        "ä¸",
        "´çĭ"
      ],
      [
        "çļĦ",
        "è¿"
      ],
      [
        "çļĦ",
        "åİĨåı²"
      ],
      [
        "çļĦ",
        "äºĭ"
      ],
      [
        "çļĦ",
        "ä¸Ģä¸ª"
      ],
      [
        "çļĦ",
        "åıĳå±ķ"
      ],
      [
        "çļĦ",
        "æĬĢæľ¯"
      ],
      [
        "çļĦ",
        "æĸĩåĮĸ"
      ],
      [
        "æľ",
        "ºå"
      ],
      [
        "åŃĹ",
        "ä¹ĭ"
      ],
      [
        "åŃĹ",
        "éĥ¨çļĦåŃĹ"
      ],
      [
        "åŃĹ",
        "çĶ±"
      ],
      [
        "æĺ¯",
        "èİ"
      ],
      [
        "æĺ¯",
        "ä¸ĸç"
      ],
      [
        "åı",
        "ĭè°"
      ],
      [
        "åı",
        "ĺéĿ"
      ],
      [
        "åĪ",
        "Ľæĸ"
      ],
      [
        "åĴĮ",
        "éĩįè¦ģ"
      ],
      [
        "åĴĮ",
        "ç»ı"
      ],
      [
        "åĴĮ",
        "æłĩå"
      ],
      [
        "åĴĮ",
        "ä¸°å¯Į"
      ],
      [
        "åĴĮ",
        "åªĴ"
      ],
      [
        "åĴĮ",
        "åıĺéĿ"
      ],
      [
        "äº",
        "¤æµģ"
      ],
      [
        "äº",
        "Ĩç¤"
      ],
      [
        "å¤",
        "ĦçĲĨ"
      ],
      [
        "æµ",
        "İåıĳå±ķ"
      ],
      [
        "æĪ",
        "ĸç"
      ],
      [
        "æĪ",
        "ĸå¤ļ"
      ],
      [
        "æľ¨",
        "åŃĹæĹģæľīå¯ĨåĪĩåħ³"
      ],
      [
        "ä»",
        "ĭ"
      ],
      [
        "ä»",
        "Ĭå¤©"
      ],
      [
        "åĪĨ",
        "æĶ¯"
      ],
      [
        "æ³",
        "ķ"
      ],
      [
        "çģ«",
        "åŃĹæĹģæľīå¯ĨåĪĩåħ³"
      ],
      [
        "æ°´",
        "æľīåħ³"
      ],
      [
        "æ°´",
        "æĺ¯çĶŁåĳ½"
      ],
      [
        "ç»",
        "ĦåĲĪ"
      ],
      [
        "ç»",
        "ĵæŀĦ"
      ],
      [
        "çĶŁ",
        "æľĢ"
      ],
      [
        "çĶŁ",
        "çĽ"
      ],
      [
        "çĶŁ",
        "çļĦäºĭ"
      ],
      [
        "åĬ",
        "¡æī"
      ],
      [
        "åĬ",
        "ªåĬĽ"
      ],
      [
        "æľī",
        "æķ"
      ],
      [
        "æľī",
        "æĤłä¹ħ"
      ],
      [
        "ç±»",
        "äº¤æµģ"
      ],
      [
        "åį",
        "ķä½"
      ],
      [
        "äºº",
        "çĶŁçĽ"
      ],
      [
        "æī",
        "ĭæ®"
      ],
      [
        "éĩįè¦ģ",
        "åĪĨæĶ¯"
      ],
      [
        "åŁ",
        "ºç¡Ģ"
      ],
      [
        "éĥ½",
        "å±"
      ],
      [
        "æ±īåŃĹ",
        "çļĦåŁ"
      ],
      [
        "æ±īåŃĹ",
        "åħ·"
      ],
      [
        "æ±īåŃĹ",
        "ç±»åŀĭ"
      ],
      [
        "æ±īåŃĹ",
        "æĺ¯ä¸ĸç"
      ],
      [
        "å·",
        "±çļĦ"
      ],
      [
        "ä¸ª",
        "è±¡å½¢åŃĹ"
      ],
      [
        "ä¸ª",
        "åħ¬"
      ],
      [
        "ä¸ª",
        "æĪĸå¤ļ"
      ],
      [
        "æµ·",
        "æĺ¯æľĢ"
      ],
      [
        "å£°æĹģ",
        "æıĲç¤ºåŃĹçļĦ"
      ],
      [
        "èĢ",
        "ĮæĪĲ"
      ],
      [
        "è´",
        "¢å¯ĮåĴĮ"
      ],
      [
        "è´",
        "µçļĦè´"
      ],
      [
        "ä¸Ń",
        "ä¸į"
      ],
      [
        "ä¸Ń",
        "åĽ"
      ],
      [
        "ä¸Ń",
        "æĸĩ"
      ],
      [
        "åıĳ",
        "çĶŁçļĦäºĭ"
      ],
      [
        "åģ",
        "¥åº"
      ],
      [
        "å¹",
        "¸ç"
      ],
      [
        "é¦ĸ",
        "éĥ½"
      ],
      [
        "ä¹ī",
        "åĬ¡æī"
      ],
      [
        "ä¸Ĭ",
        "æµ·æĺ¯æľĢ"
      ],
      [
        "çļĦéĩįè¦ģ",
        "å·¥"
      ],
      [
        "ä¹ĭ",
        "æºĲ"
      ],
      [
        "å·¥",
        "æĻ"
      ],
      [
        "å·¥",
        "ç¨ĭ"
      ],
      [
        "ç»ĦæĪĲ",
        "ç»ĵæŀĦ"
      ],
      [
        "ç»ĦæĪĲ",
        "åįķä½"
      ],
      [
        "æłĳæľ¨",
        "æ£®æŀĹ"
      ],
      [
        "æĬ",
        "¤æĺ¯"
      ],
      [
        "æľĢ",
        "åı¤èĢģçļĦ"
      ],
      [
        "åĳ",
        "Ĭè¯"
      ],
      [
        "çī¹",
        "å¾"
      ],
      [
        "çī¹",
        "çĤ¹"
      ],
      [
        "æİ",
        "¨åĬ¨"
      ],
      [
        "æĮ",
        "ĳæĪ"
      ],
      [
        "å¤§",
        "çļĦåŁ"
      ],
      [
        "éľĢè¦ģ",
        "ç§ĳ"
      ],
      [
        "çĦ",
        "¶è¯Ńè¨Ģ"
      ],
      [
        "è®",
        "Ń"
      ],
      [
        "è®",
        "¤åĲĮ"
      ],
      [
        "åŃ¦",
        "æĬĢæľ¯"
      ],
      [
        "éĺ",
        "ħè¯»"
      ],
      [
        "æĹı",
        "çļĦç²¾ç¥ŀ"
      ],
      [
        "æĹı",
        "èĮĥ"
      ],
      [
        "çĽ",
        "´æİ"
      ],
      [
        "æ±Łæ²³æ¹ĸæµ·",
        "éĥ½ä¸İ"
      ],
      [
        "å¾",
        "ĦåĴĮ"
      ],
      [
        "å¾",
        "Īå¥"
      ],
      [
        "ĸç",
        "Ł¥è¯"
      ],
      [
        "çļĦåŁ",
        "ºç¡Ģ"
      ],
      [
        "æĺ¯äºº",
        "ç±»äº¤æµģ"
      ],
      [
        "æĺ¯äºº",
        "å·¥æĻ"
      ],
      [
        "è¯Ń",
        "ä¹īç±»åĪ«"
      ],
      [
        "éĥ½ä¸İ",
        "æľ¨åŃĹæĹģæľīå¯ĨåĪĩåħ³"
      ],
      [
        "éĥ½ä¸İ",
        "çģ«åŃĹæĹģæľīå¯ĨåĪĩåħ³"
      ],
      [
        "æĶ¯",
        "æŁ±"
      ],
      [
        "æĶ¯",
        "æĴ"
      ],
      [
        "æĬĢ",
        "åĪĽæĸ"
      ],
      [
        "åİĨåı²",
        "æĤłä¹ħ"
      ],
      [
        "åİĨåı²",
        "åĳĬè¯"
      ],
      [
        "åħ·",
        "åĴĮåªĴ"
      ],
      [
        "å¤©",
        "æ°Ķ"
      ],
      [
        "ç»ı",
        "æµİåıĳå±ķ"
      ],
      [
        "åĬĽ",
        "éĩı"
      ],
      [
        "è±¡å½¢åŃĹ",
        "æĺ¯æľĢ"
      ],
      [
        "éĥ¨åĪĨ",
        "ç»ĦæĪĲç»ĵæŀĦ"
      ],
      [
        "éĿ¢",
        "ä¸´çĭ"
      ],
      [
        "è¿ĩ",
        "åİ»"
      ],
      [
        "çİ",
        "¯å"
      ],
      [
        "çİ",
        "°èĩª"
      ],
      [
        "å½¢æĹģ",
        "æıĲç¤ºåŃĹçļĦ"
      ],
      [
        "æ¯",
        "Ķä¾"
      ],
      [
        "æĢ",
        "Ŀæĥ³"
      ],
      [
        "éĥ¨é¦ĸæĺ¯",
        "æŀĦæĪĲ"
      ],
      [
        "æ¶",
        "µ"
      ],
      [
        "åı¯",
        "æĪĸç"
      ],
      [
        "æľ¨æĿĲ",
        "æłĳæľ¨æ£®æŀĹ"
      ],
      [
        "æĦı",
        "åŃĹçĶ±"
      ],
      [
        "ä¼ļ",
        "æĦıåŃĹçĶ±"
      ],
      [
        "åĽ",
        "Ńæķ"
      ],
      [
        "ä¸¤",
        "ä¸ªæĪĸå¤ļ"
      ],
      [
        "ä¸¤",
        "éĥ¨åĪĨç»ĦæĪĲç»ĵæŀĦ"
      ],
      [
        "çļĦè´",
        "£ä»"
      ],
      [
        "æ°ĳ",
        "æĹıçļĦç²¾ç¥ŀ"
      ],
      [
        "æ°ĳ",
        "çļĦè´£ä»"
      ],
      [
        "åħ¬",
        "åĽŃæķ"
      ],
      [
        "æĸĩ",
        "åŃĹä¹ĭ"
      ],
      [
        "æłĩå",
        "¿Ĺ"
      ],
      [
        "ç§ĳ",
        "åŃ¦æĬĢæľ¯"
      ],
      [
        "äººæīį",
        "åŁ¹åħ»"
      ],
      [
        "äººæīį",
        "çļĦåŁºç¡Ģ"
      ],
      [
        "åŁ¹åħ»",
        "äººæīįçļĦåŁºç¡Ģ"
      ],
      [
        "åİ»",
        "åħ¬åĽŃæķ"
      ],
      [
        "æķĻ",
        "èĤ"
      ],
      [
        "æķĻ",
        "è®Ń"
      ],
      [
        "åŃ¦ä¹ł",
        "æīįèĥ½"
      ],
      [
        "è¯Ńè¨Ģ",
        "æĺ¯äººç±»äº¤æµģ"
      ],
      [
        "èĩª",
        "çĦ¶è¯Ńè¨Ģ"
      ],
      [
        "¢å¯ĮåĴĮ",
        "å¹¸ç"
      ],
      [
        "åı¤èĢģçļĦ",
        "æ±īåŃĹç±»åŀĭ"
      ],
      [
        "æĪĳä»¬",
        "åİ»åħ¬åĽŃæķ"
      ],
      [
        "æĸĩåĮĸ",
        "æĺ¯ä¸Ģä¸ª"
      ],
      [
        "é¢",
        "ĨåŁ"
      ],
      [
        "åģıæĹģ",
        "éĥ¨é¦ĸæĺ¯æŀĦæĪĲ"
      ],
      [
        "å®Ŀ",
        "è´µçļĦè´"
      ],
      [
        "éĢĶ",
        "å¾ĦåĴĮ"
      ],
      [
        "åĮ",
        "Ĺäº"
      ],
      [
        "éªĮ",
        "æķĻè®Ń"
      ],
      [
        "å®ŀ",
        "çİ°èĩª"
      ],
      [
        "åĨħ",
        "æ¶µ"
      ],
      [
        "æĥħ",
        "åĴĮç»ı"
      ],
      [
        "æ¯ı",
        "ä¸ªåħ¬"
      ],
      [
        "åħ«åįģä»¥ä¸Ĭ",
        "æ¯Ķä¾"
      ],
      [
        "çģ«çĦ°çĩĥçĥ§çĥŃéĩı",
        "éĥ½ä¸İçģ«åŃĹæĹģæľīå¯ĨåĪĩåħ³"
      ],
      [
        "çŁ³å¤´å²©çŁ³çŁ¿çī©",
        "éĥ½å±"
      ],
      [
        "å½¢å£°åŃĹçĶ±å½¢æĹģåĴĮå£°æĹģ",
        "ä¸¤éĥ¨åĪĨç»ĦæĪĲç»ĵæŀĦ"
      ],
      [
        "å½¢å£°åŃĹåįłæ±īåŃĹæĢ»æķ",
        "°çļĦçĻ¾åĪĨä¹ĭ"
      ],
      [
        "éĥ¨é¦ĸæĺ¯æ±īåŃĹæ£Ģç´¢åĴĮåĪĨç±»çļĦéĩįè¦ģä¾Ŀæį®",
        "åĴĮæłĩå"
      ],
      [
        "¢ĥ",
        "ä¿Ŀ"
      ],
      [
        "¥æı",
        "ıç»"
      ],
      [
        "¦ı",
        "åŁºç¡Ģ"
      ],
      [
        "¬æĺ¯",
        "ä¸ŃåĽ"
      ],
      [
        "¬çī¹",
        "çļĦæĬĢæľ¯"
      ],
      [
        "®æł",
        "ĩæ¢"
      ],
      [
        "°åĴĮ",
        "äººæīįåŁ¹åħ»"
      ],
      [
        "²æĺ¯",
        "åŁ¹åħ»äººæīįçļĦåŁºç¡Ģ"
      ],
      [
        "·åı",
        "ĸçŁ¥è¯"
      ],
      [
        "·æĺ¯äºº",
        "çĶŁæľĢ"
      ],
      [
        "ºèĥ½",
        "çļĦä¸Ģä¸ª"
      ],
      [
        "ºæľ¬",
        "ç»ĦæĪĲåįķä½"
      ],
      [
        "»åĴĮ",
        "ä¹īåĬ¡æī"
      ],
      [
        "¼ºçļĦç²¾ç¥ŀ",
        "æĶ¯æŁ±"
      ],
      [
        "½çļĦ",
        "é¦ĸéĥ½"
      ],
      [
        "¾ä¼ļ",
        "çļĦè¿"
      ],
      [
        "çķ",
        "´"
      ],
      [
        "èģ",
        "Ķ"
      ],
      [
        "ĥç´",
        "ł"
      ],
      [
        "ĨçļĦéĩįè¦ģ",
        "éĢĶå¾ĦåĴĮ"
      ],
      [
        "Īæĸ¹",
        "æ³ķ"
      ],
      [
        "īæĪĳä»¬",
        "è¿ĩåİ»"
      ],
      [
        "Ĭæĺ¯çĶŁåĳ½",
        "ä¸Ńä¸į"
      ],
      [
        "įåħ",
        "ĥç´ł"
      ],
      [
        "İçŁ³",
        "åŃĹéĥ¨çļĦåŃĹ"
      ],
      [
        "İå¸",
        "Ĥ"
      ],
      [
        "ķĮä¸Ĭ",
        "æľĢåı¤èĢģçļĦ"
      ],
      [
        "ĺäºĭ",
        "çī©"
      ],
      [
        "Ļ¨åŃ¦ä¹ł",
        "æĺ¯äººå·¥æĻ"
      ],
      [
        "ĽæŃ¥",
        "åĴĮåıĺéĿ"
      ],
      [
        "ŀäº",
        "İçŁ³åŃĹéĥ¨çļĦåŃĹ"
      ],
      [
        "çļĦåİĨåı²",
        "åĴĮä¸°å¯Į"
      ],
      [
        "çļĦåıĳå±ķ",
        "æİ¨åĬ¨"
      ],
      [
        "çļĦæĸĩåĮĸ",
        "åĨħæ¶µ"
      ],
      [
        "æľºå",
        "Ļ¨åŃ¦ä¹łæĺ¯äººå·¥æĻ"
      ],
      [
        "æĺ¯èİ",
        "·åıĸçŁ¥è¯"
      ],
      [
        "åıĭè°",
        "Ĭæĺ¯çĶŁåĳ½ä¸Ńä¸į"
      ],
      [
        "åĴĮéĩįè¦ģ",
        "æīĭæ®"
      ],
      [
        "äºĨç¤",
        "¾ä¼ļçļĦè¿"
      ],
      [
        "å¤ĦçĲĨ",
        "éĿ¢ä¸´çĭ"
      ],
      [
        "ä»Ĭå¤©",
        "å¤©æ°Ķ"
      ],
      [
        "æ°´æĺ¯çĶŁåĳ½",
        "ä¹ĭæºĲ"
      ],
      [
        "ç»ĦåĲĪ",
        "èĢĮæĪĲ"
      ],
      [
        "åĬªåĬĽ",
        "åŃ¦ä¹łæīįèĥ½"
      ],
      [
        "æľīæķ",
        "Īæĸ¹æ³ķ"
      ],
      [
        "æľīæĤłä¹ħ",
        "çļĦåİĨåı²åĴĮä¸°å¯Į"
      ],
      [
        "äººçĶŁçĽ",
        "®æłĩæ¢"
      ],
      [
        "éĩįè¦ģåĪĨæĶ¯",
        "é¢ĨåŁ"
      ],
      [
        "æ±īåŃĹçļĦåŁ",
        "ºæľ¬ç»ĦæĪĲåįķä½"
      ],
      [
        "æ±īåŃĹåħ·",
        "æľīæĤłä¹ħçļĦåİĨåı²åĴĮä¸°å¯Į"
      ],
      [
        "æ±īåŃĹæĺ¯ä¸ĸç",
        "ķĮä¸ĬæľĢåı¤èĢģçļĦ"
      ],
      [
        "å·±çļĦ",
        "äººçĶŁçĽ®æłĩæ¢"
      ],
      [
        "ä¸ªè±¡å½¢åŃĹ",
        "ç»ĦåĲĪèĢĮæĪĲ"
      ],
      [
        "å£°æĹģæıĲç¤ºåŃĹçļĦ",
        "è¯»éŁ³"
      ],
      [
        "è´¢å¯ĮåĴĮ",
        "è®¤åĲĮ"
      ],
      [
        "ä¸Ńæĸĩ",
        "èĩªçĦ¶è¯Ńè¨Ģ"
      ],
      [
        "åıĳçĶŁçļĦäºĭ",
        "æĥħåĴĮç»ı"
      ],
      [
        "åģ¥åº",
        "·æĺ¯äººçĶŁæľĢ"
      ],
      [
        "ä¸Ĭæµ·æĺ¯æľĢ",
        "å¤§çļĦåŁ"
      ],
      [
        "çļĦéĩįè¦ģå·¥",
        "åħ·åĴĮåªĴ"
      ],
      [
        "å·¥ç¨ĭ",
        "åĴĮéĩįè¦ģæīĭæ®"
      ],
      [
        "æĬ¤æĺ¯",
        "æ¯ıä¸ªåħ¬"
      ],
      [
        "çī¹å¾",
        "ģ"
      ],
      [
        "æĮĳæĪ",
        "ĺ"
      ],
      [
        "éľĢè¦ģç§ĳ",
        "æĬĢåĪĽæĸ"
      ],
      [
        "éĺħè¯»",
        "æĺ¯èİ·åıĸçŁ¥è¯"
      ],
      [
        "æĹıèĮĥ",
        "çķ´"
      ],
      [
        "çĽ´æİ",
        "¥æııç»"
      ],
      [
        "æ±Łæ²³æ¹ĸæµ·éĥ½ä¸İ",
        "æ°´æľīåħ³"
      ],
      [
        "å¾Īå¥",
        "½"
      ],
      [
        "éĥ½ä¸İæľ¨åŃĹæĹģæľīå¯ĨåĪĩåħ³",
        "èģĶ"
      ],
      [
        "æĶ¯æĴ",
        "ĳ"
      ],
      [
        "åİĨåı²åĳĬè¯",
        "īæĪĳä»¬è¿ĩåİ»"
      ],
      [
        "ç»ıæµİåıĳå±ķ",
        "éľĢè¦ģç§ĳæĬĢåĪĽæĸ"
      ],
      [
        "è±¡å½¢åŃĹæĺ¯æľĢ",
        "åı¤èĢģçļĦæ±īåŃĹç±»åŀĭ"
      ],
      [
        "çİ¯å",
        "¢ĥä¿Ŀ"
      ],
      [
        "å½¢æĹģæıĲç¤ºåŃĹçļĦ",
        "è¯Ńä¹īç±»åĪ«"
      ],
      [
        "æĢĿæĥ³",
        "çļĦéĩįè¦ģå·¥åħ·åĴĮåªĴ"
      ],
      [
        "åı¯æĪĸç",
        "¼ºçļĦç²¾ç¥ŀæĶ¯æŁ±"
      ],
      [
        "æľ¨æĿĲæłĳæľ¨æ£®æŀĹ",
        "éĥ½ä¸İæľ¨åŃĹæĹģæľīå¯ĨåĪĩåħ³èģĶ"
      ],
      [
        "ä¼ļæĦıåŃĹçĶ±",
        "ä¸¤ä¸ªæĪĸå¤ļ"
      ],
      [
        "æ°ĳæĹıçļĦç²¾ç¥ŀ",
        "è´¢å¯ĮåĴĮè®¤åĲĮ"
      ],
      [
        "æ°ĳçļĦè´£ä»",
        "»åĴĮä¹īåĬ¡æī"
      ],
      [
        "æĸĩåŃĹä¹ĭ",
        "ä¸Ģ"
      ],
      [
        "ç§ĳåŃ¦æĬĢæľ¯",
        "çļĦåıĳå±ķæİ¨åĬ¨"
      ],
      [
        "æķĻèĤ",
        "²æĺ¯åŁ¹åħ»äººæīįçļĦåŁºç¡Ģ"
      ],
      [
        "è¯Ńè¨Ģæĺ¯äººç±»äº¤æµģ",
        "æĢĿæĥ³çļĦéĩįè¦ģå·¥åħ·åĴĮåªĴ"
      ],
      [
        "¢å¯ĮåĴĮå¹¸ç",
        "¦ıåŁºç¡Ģ"
      ],
      [
        "æĪĳä»¬åİ»åħ¬åĽŃæķ",
        "£æŃ¥"
      ],
      [
        "æĸĩåĮĸæĺ¯ä¸Ģä¸ª",
        "æ°ĳæĹıçļĦç²¾ç¥ŀè´¢å¯ĮåĴĮè®¤åĲĮ"
      ],
      [
        "åģıæĹģéĥ¨é¦ĸæĺ¯æŀĦæĪĲ",
        "æ±īåŃĹçļĦåŁºæľ¬ç»ĦæĪĲåįķä½"
      ],
      [
        "å®Ŀè´µçļĦè´",
        "¢å¯ĮåĴĮå¹¸ç¦ıåŁºç¡Ģ"
      ],
      [
        "åĮĹäº",
        "¬æĺ¯ä¸ŃåĽ"
      ],
      [
        "å®ŀçİ°èĩª",
        "å·±çļĦäººçĶŁçĽ®æłĩæ¢"
      ],
      [
        "åħ«åįģä»¥ä¸Ĭæ¯Ķä¾",
        "ĭ"
      ],
      [
        "çģ«çĦ°çĩĥçĥ§çĥŃéĩıéĥ½ä¸İçģ«åŃĹæĹģæľīå¯ĨåĪĩåħ³",
        "ç³»"
      ],
      [
        "çŁ³å¤´å²©çŁ³çŁ¿çī©éĥ½å±",
        "ŀäºİçŁ³åŃĹéĥ¨çļĦåŃĹ"
      ],
      [
        "å½¢å£°åŃĹçĶ±å½¢æĹģåĴĮå£°æĹģä¸¤éĥ¨åĪĨç»ĦæĪĲç»ĵæŀĦ",
        "çī¹çĤ¹"
      ],
      [
        "å½¢å£°åŃĹåįłæ±īåŃĹæĢ»æķ°çļĦçĻ¾åĪĨä¹ĭ",
        "åħ«åįģä»¥ä¸Ĭæ¯Ķä¾ĭ"
      ],
      [
        "éĥ¨é¦ĸæĺ¯æ±īåŃĹæ£Ģç´¢åĴĮåĪĨç±»çļĦéĩįè¦ģä¾Ŀæį®åĴĮæłĩå",
        "ĩĨ"
      ],
      [
        "¬çī¹çļĦæĬĢæľ¯",
        "æĮĳæĪĺ"
      ],
      [
        "°åĴĮäººæīįåŁ¹åħ»",
        "æĶ¯æĴĳ"
      ],
      [
        "ºèĥ½çļĦä¸Ģä¸ª",
        "éĩįè¦ģåĪĨæĶ¯é¢ĨåŁ"
      ],
      [
        "ĨçļĦéĩįè¦ģéĢĶå¾ĦåĴĮ",
        "æľīæķĪæĸ¹æ³ķ"
      ],
      [
        "ĽæŃ¥åĴĮåıĺéĿ",
        "©"
      ],
      [
        "æľºåĻ¨åŃ¦ä¹łæĺ¯äººå·¥æĻ",
        "ºèĥ½çļĦä¸Ģä¸ªéĩįè¦ģåĪĨæĶ¯é¢ĨåŁ"
      ],
      [
        "åıĭè°Ĭæĺ¯çĶŁåĳ½ä¸Ńä¸į",
        "åı¯æĪĸç¼ºçļĦç²¾ç¥ŀæĶ¯æŁ±"
      ],
      [
        "äºĨç¤¾ä¼ļçļĦè¿",
        "ĽæŃ¥åĴĮåıĺéĿ©"
      ],
      [
        "å¤ĦçĲĨéĿ¢ä¸´çĭ",
        "¬çī¹çļĦæĬĢæľ¯æĮĳæĪĺ"
      ],
      [
        "ä»Ĭå¤©å¤©æ°Ķ",
        "å¾Īå¥½"
      ],
      [
        "åĬªåĬĽåŃ¦ä¹łæīįèĥ½",
        "å®ŀçİ°èĩªå·±çļĦäººçĶŁçĽ®æłĩæ¢"
      ],
      [
        "æ±īåŃĹåħ·æľīæĤłä¹ħçļĦåİĨåı²åĴĮä¸°å¯Į",
        "çļĦæĸĩåĮĸåĨħæ¶µ"
      ],
      [
        "æ±īåŃĹæĺ¯ä¸ĸçķĮä¸ĬæľĢåı¤èĢģçļĦ",
        "æĸĩåŃĹä¹ĭä¸Ģ"
      ],
      [
        "ä¸ªè±¡å½¢åŃĹç»ĦåĲĪèĢĮæĪĲ",
        "çī¹å¾ģ"
      ],
      [
        "ä¸ŃæĸĩèĩªçĦ¶è¯Ńè¨Ģ",
        "å¤ĦçĲĨéĿ¢ä¸´çĭ¬çī¹çļĦæĬĢæľ¯æĮĳæĪĺ"
      ],
      [
        "åıĳçĶŁçļĦäºĭæĥħåĴĮç»ı",
        "éªĮæķĻè®Ń"
      ],
      [
        "åģ¥åº·æĺ¯äººçĶŁæľĢ",
        "å®Ŀè´µçļĦè´¢å¯ĮåĴĮå¹¸ç¦ıåŁºç¡Ģ"
      ],
      [
        "ä¸Ĭæµ·æĺ¯æľĢå¤§çļĦåŁ",
        "İå¸Ĥ"
      ],
      [
        "å·¥ç¨ĭåĴĮéĩįè¦ģæīĭæ®",
        "µ"
      ],
      [
        "æĬ¤æĺ¯æ¯ıä¸ªåħ¬",
        "æ°ĳçļĦè´£ä»»åĴĮä¹īåĬ¡æī"
      ],
      [
        "éĺħè¯»æĺ¯èİ·åıĸçŁ¥è¯",
        "ĨçļĦéĩįè¦ģéĢĶå¾ĦåĴĮæľīæķĪæĸ¹æ³ķ"
      ],
      [
        "çĽ´æİ¥æııç»",
        "ĺäºĭçī©"
      ],
      [
        "åİĨåı²åĳĬè¯īæĪĳä»¬è¿ĩåİ»",
        "åıĳçĶŁçļĦäºĭæĥħåĴĮç»ıéªĮæķĻè®Ń"
      ],
      [
        "ç»ıæµİåıĳå±ķéľĢè¦ģç§ĳæĬĢåĪĽæĸ",
        "°åĴĮäººæīįåŁ¹åħ»æĶ¯æĴĳ"
      ],
      [
        "çİ¯å¢ĥä¿Ŀ",
        "æĬ¤æĺ¯æ¯ıä¸ªåħ¬æ°ĳçļĦè´£ä»»åĴĮä¹īåĬ¡æī"
      ],
      [
        "ä¼ļæĦıåŃĹçĶ±ä¸¤ä¸ªæĪĸå¤ļ",
        "ä¸ªè±¡å½¢åŃĹç»ĦåĲĪèĢĮæĪĲçī¹å¾ģ"
      ],
      [
        "ç§ĳåŃ¦æĬĢæľ¯çļĦåıĳå±ķæİ¨åĬ¨",
        "äºĨç¤¾ä¼ļçļĦè¿ĽæŃ¥åĴĮåıĺéĿ©"
      ],
      [
        "æķĻèĤ²æĺ¯åŁ¹åħ»äººæīįçļĦåŁºç¡Ģ",
        "å·¥ç¨ĭåĴĮéĩįè¦ģæīĭæ®µ"
      ],
      [
        "è¯Ńè¨Ģæĺ¯äººç±»äº¤æµģæĢĿæĥ³çļĦéĩįè¦ģå·¥åħ·åĴĮåªĴ",
        "ä»ĭ"
      ],
      [
        "æĸĩåĮĸæĺ¯ä¸Ģä¸ªæ°ĳæĹıçļĦç²¾ç¥ŀè´¢å¯ĮåĴĮè®¤åĲĮ",
        "æłĩå¿Ĺ"
      ],
      [
        "åģıæĹģéĥ¨é¦ĸæĺ¯æŀĦæĪĲæ±īåŃĹçļĦåŁºæľ¬ç»ĦæĪĲåįķä½",
        "įåħĥç´ł"
      ],
      [
        "åĮĹäº¬æĺ¯ä¸ŃåĽ",
        "½çļĦé¦ĸéĥ½"
      ],
      [
        "çŁ³å¤´å²©çŁ³çŁ¿çī©éĥ½å±ŀäºİçŁ³åŃĹéĥ¨çļĦåŃĹ",
        "æĹıèĮĥçķ´"
      ],
      [
        "æľºåĻ¨åŃ¦ä¹łæĺ¯äººå·¥æĻºèĥ½çļĦä¸Ģä¸ªéĩįè¦ģåĪĨæĶ¯é¢ĨåŁ",
        "Ł"
      ],
      [
        "åıĭè°Ĭæĺ¯çĶŁåĳ½ä¸Ńä¸įåı¯æĪĸç¼ºçļĦç²¾ç¥ŀæĶ¯æŁ±",
        "åĬĽéĩı"
      ],
      [
        "åĬªåĬĽåŃ¦ä¹łæīįèĥ½å®ŀçİ°èĩªå·±çļĦäººçĶŁçĽ®æłĩæ¢",
        "¦æĥ³"
      ],
      [
        "çİ¯å¢ĥä¿ĿæĬ¤æĺ¯æ¯ıä¸ªåħ¬æ°ĳçļĦè´£ä»»åĴĮä¹īåĬ¡æī",
        "Ģåľ¨"
      ],
      [
        "¡",
        "¬"
      ],
      [
        "¡",
        "æ²³æµģ"
      ],
      [
        "£",
        "Ł"
      ],
      [
        "£",
        "çļĦ"
      ],
      [
        "¤",
        "éĥ¨åĪĨ"
      ],
      [
        "¥",
        "ª"
      ],
      [
        "¥",
        "æ²"
      ],
      [
        "¥",
        "çĥŃ"
      ],
      [
        "¥",
        "è¡¨ç¤º"
      ],
      [
        "¥",
        "æĹ¶"
      ],
      [
        "¦",
        "ä¸Ń"
      ],
      [
        "§",
        "æ°Ķ"
      ],
      [
        "§",
        "åĪ¶"
      ],
      [
        "¨",
        "åŃĹ"
      ],
      [
        "¨",
        "åĲ"
      ],
      [
        "©",
        "æ"
      ],
      [
        "©",
        "äºº"
      ],
      [
        "ª",
        "æ°´"
      ],
      [
        "ª",
        "æĸ"
      ],
      [
        "«",
        "ĺ"
      ],
      [
        "«",
        "æ°µ"
      ],
      [
        "¬",
        "æ³"
      ],
      [
        "¬",
        "¦åı"
      ],
      [
        "¯",
        "Ŀ"
      ],
      [
        "¯",
        "èī²"
      ],
      [
        "°",
        "è"
      ],
      [
        "°",
        "å£"
      ],
      [
        "²",
        "Į"
      ],
      [
        "²",
        "Ĵ"
      ],
      [
        "²",
        "åľ"
      ],
      [
        "³",
        "çļĦéĩįè¦ģ"
      ],
      [
        "³",
        "åħī"
      ],
      [
        "³",
        "ä¾Ľ"
      ],
      [
        "³",
        "åı¯"
      ],
      [
        "³",
        "éĿ¢ç§¯"
      ],
      [
        "´",
        "æµģ"
      ],
      [
        "¶",
        "åħ·"
      ],
      [
        "¶",
        "³ä¾Ľ"
      ],
      [
        "·",
        "é"
      ],
      [
        "·",
        "æĿ"
      ],
      [
        "·",
        "åĢ"
      ],
      [
        "¹",
        "é"
      ],
      [
        "¹",
        "ģ"
      ],
      [
        "»",
        "ºç"
      ],
      [
        "»",
        "çĶ¨"
      ],
      [
        "»",
        "åĬł"
      ],
      [
        "»",
        "çĲĨ"
      ],
      [
        "»",
        "¥æĹ¶"
      ],
      [
        "¼",
        "é"
      ],
      [
        "¼",
        "åĴĮ"
      ],
      [
        "¼",
        "å¤"
      ],
      [
        "½",
        "èī²"
      ],
      [
        "½",
        "¬æ³"
      ],
      [
        "¾",
        "ĥ"
      ],
      [
        "¾",
        "Ī"
      ],
      [
        "¾",
        "èĢ"
      ],
      [
        "¿",
        "éľĢè¦ģ"
      ],
      [
        "å",
        "ĵ"
      ],
      [
        "æ",
        "»¥æĹ¶"
      ],
      [
        "æ",
        "¾Ī"
      ],
      [
        "ç",
        "ľ"
      ],
      [
        "ç",
        "¾İ"
      ],
      [
        "ç",
        "ħ¤çĤŃ"
      ],
      [
        "ç",
        "¡¬"
      ],
      [
        "ç",
        "¬¦åı"
      ],
      [
        "ç",
        "¯Ŀ"
      ],
      [
        "ç",
        "²Ĵ"
      ],
      [
        "ç",
        "¹ģ"
      ],
      [
        "è",
        "Ī"
      ],
      [
        "è",
        "¶³ä¾Ľ"
      ],
      [
        "è",
        "½¬æ³"
      ],
      [
        "è",
        "¾ĥ"
      ],
      [
        "é",
        "ķ"
      ],
      [
        "é",
        "ļ"
      ],
      [
        "é",
        "ĢĤ"
      ],
      [
        "é",
        "£Ł"
      ],
      [
        "Ģ",
        "Ł"
      ],
      [
        "Ģ",
        "çľ"
      ],
      [
        "ģ",
        "ç»ĦæĪĲ"
      ],
      [
        "ģ",
        "ç§įç±»"
      ],
      [
        "ĥ",
        "åįģ"
      ],
      [
        "ĥ",
        "èĬĤ"
      ],
      [
        "ħ",
        "è¶³ä¾Ľ"
      ],
      [
        "ĩ",
        "¥çĥŃ"
      ],
      [
        "ī",
        "ç§¯"
      ],
      [
        "Ĭ",
        "æŁľ"
      ],
      [
        "Ĭ",
        "æĹ¶"
      ],
      [
        "İ",
        "äº"
      ],
      [
        "İ",
        "èĥ½"
      ],
      [
        "ı",
        "å¯"
      ],
      [
        "ı",
        "å¤©"
      ],
      [
        "ı",
        "ä¸į"
      ],
      [
        "Ĳ",
        "åįģåĪĨ"
      ],
      [
        "ĳ",
        "æĿĲ"
      ],
      [
        "Ĵ",
        "æ´"
      ],
      [
        "Ĵ",
        "æŀ"
      ],
      [
        "Ĵ",
        "éĢĤ"
      ],
      [
        "ĵ",
        "ç£"
      ],
      [
        "ĸ",
        "æĺ"
      ],
      [
        "Ĺ",
        "´æµģ"
      ],
      [
        "Ĺ",
        "ç²Ĵ"
      ],
      [
        "Ļ",
        "åľ¨"
      ],
      [
        "Ļ",
        "èī²"
      ],
      [
        "ļ",
        "çĶŁ"
      ],
      [
        "ļ",
        "è¿ĩ"
      ],
      [
        "ļ",
        "åĩ"
      ],
      [
        "ļ",
        "çĩĥçĥ§"
      ],
      [
        "ļ",
        "ç¡¬"
      ],
      [
        "ļ",
        "ĸæĺ"
      ],
      [
        "Ľ",
        "®çļĦ"
      ],
      [
        "ľ",
        "çļĦ"
      ],
      [
        "ľ",
        "æĻ"
      ],
      [
        "ľ",
        "çĶ¨"
      ],
      [
        "Ŀ",
        "ļç¡¬"
      ],
      [
        "Ł",
        "åĪ"
      ],
      [
        "Ń",
        "ä¹"
      ],
      [
        "Ń",
        "ĳæĿĲ"
      ],
      [
        "ä¸",
        "½"
      ],
      [
        "ä¸",
        "ĥåįģ"
      ],
      [
        "ä¸",
        "ļçĶŁ"
      ],
      [
        "ä¸",
        "ľçļĦ"
      ],
      [
        "çļĦ",
        "åħ"
      ],
      [
        "çļĦ",
        "å¤"
      ],
      [
        "çļĦ",
        "æ²³"
      ],
      [
        "çļĦ",
        "èĤ"
      ],
      [
        "åŃĹ",
        "æĺ¯"
      ],
      [
        "åŃĹ",
        "éĢ"
      ],
      [
        "æĺ¯",
        "æ²³"
      ],
      [
        "æĺ¯",
        "ä¸Ģ"
      ],
      [
        "æĺ¯",
        "éĩįè¦ģ"
      ],
      [
        "æĺ¯",
        "å±±"
      ],
      [
        "æĺ¯",
        "å¸¸è§"
      ],
      [
        "æ°",
        "§æ°Ķ"
      ],
      [
        "åħ",
        "Ńä¹"
      ],
      [
        "åı",
        "£çļĦ"
      ],
      [
        "åı",
        "ĬæĹ¶"
      ],
      [
        "åĴĮ",
        "åģ"
      ],
      [
        "åĴĮ",
        "åħ»"
      ],
      [
        "åĴĮ",
        "è°"
      ],
      [
        "åĴĮ",
        "ä¸ī"
      ],
      [
        "å¤",
        "ľæĻ"
      ],
      [
        "éĥ¨",
        "åģıæĹģ"
      ],
      [
        "çĥ",
        "¹é"
      ],
      [
        "æľ¨",
        "éĥ¨çļĦåŃĹ"
      ],
      [
        "æľ¨",
        "åĪ¶"
      ],
      [
        "ä»",
        "·åĢ"
      ],
      [
        "åĪĨ",
        "çļĦåħ"
      ],
      [
        "åĪĨ",
        "åĴĮåħ»"
      ],
      [
        "å½",
        "©"
      ],
      [
        "æ³",
        "¥æ²"
      ],
      [
        "æ³",
        "½èī²"
      ],
      [
        "æ²",
        "»çĲĨ"
      ],
      [
        "æ²",
        "īç§¯"
      ],
      [
        "çģ«",
        "éĥ¨"
      ],
      [
        "çģ«",
        "åľ¨"
      ],
      [
        "çģ«",
        "åħī"
      ],
      [
        "çģ«",
        "åĢĻ"
      ],
      [
        "çģ«",
        "éĥ¨çļĦåŃĹå¤§å¤ļä¸İ"
      ],
      [
        "æ°´",
        "åľ¨"
      ],
      [
        "æ°´",
        "åĪĨåĴĮåħ»"
      ],
      [
        "å½¢",
        "æĪĲ"
      ],
      [
        "çĶŁ",
        "æ´"
      ],
      [
        "çĶŁ",
        "çĥŃéĩı"
      ],
      [
        "çĶŁ",
        "éķ"
      ],
      [
        "çŁ³",
        "éĥ¨"
      ],
      [
        "çŁ³",
        "ç»ı"
      ],
      [
        "æ£",
        "Ĵæŀ"
      ],
      [
        "æ´",
        "ªæ°´"
      ],
      [
        "åľ",
        "°çĲĥ"
      ],
      [
        "æĸ",
        "Ļ"
      ],
      [
        "åĲ",
        "«æ°µ"
      ],
      [
        "ä¸Ģ",
        "æĿ"
      ],
      [
        "ä¸Ģ",
        "å·"
      ],
      [
        "ä¸İ",
        "æłĳæľ¨"
      ],
      [
        "æī",
        "ĵç£"
      ],
      [
        "æ°µ",
        "éĥ¨çļĦåŃĹå¤§å¤ļä¸İ"
      ],
      [
        "çĥŃ",
        "æľīåħ³"
      ],
      [
        "çĥŃ",
        "çļĦå¤"
      ],
      [
        "éĥ½",
        "æĺ¯å¸¸è§"
      ],
      [
        "éĥ½",
        "åĲ«æ°µ"
      ],
      [
        "çī©",
        "è´"
      ],
      [
        "æłĳ",
        "æ¡Įæ¤ħ"
      ],
      [
        "æµ·",
        "æ´ĭ"
      ],
      [
        "°ç",
        "ĩ¥çĥŃ"
      ],
      [
        "èĢ",
        "Ģçľ"
      ],
      [
        "æ¸",
        "©æ"
      ],
      [
        "ĩå",
        "ĢŁ"
      ],
      [
        "ä¸Ń",
        "æ²īç§¯"
      ],
      [
        "ºç",
        "¾İ"
      ],
      [
        "ºç",
        "Ľ®çļĦ"
      ],
      [
        "åģ",
        "ļåĩ"
      ],
      [
        "èĥ½",
        "éĩı"
      ],
      [
        "åľ¨",
        "è±¡å½¢åŃĹ"
      ],
      [
        "å®",
        "¶åħ·"
      ],
      [
        "ä¸Ĭ",
        "æ·"
      ],
      [
        "å·¥",
        "ä¸ļçĶŁ"
      ],
      [
        "ç»ĦæĪĲ",
        "éĥ¨åĪĨ"
      ],
      [
        "æłĳæľ¨",
        "çļĦå"
      ],
      [
        "æłĳæľ¨",
        "çĶŁéķ"
      ],
      [
        "åĳ",
        "³åı¯"
      ],
      [
        "çī¹",
        "æ®"
      ],
      [
        "æİ",
        "§åĪ¶"
      ],
      [
        "æİ",
        "ªæĸ"
      ],
      [
        "åº",
        "Ķ"
      ],
      [
        "åº",
        "ĬçļĦ"
      ],
      [
        "åº",
        "ĬæŁľ"
      ],
      [
        "å¤§",
        "å°"
      ],
      [
        "å¤ļ",
        "ä¸°å¯Į"
      ],
      [
        "éľĢè¦ģ",
        "åıĬæĹ¶"
      ],
      [
        "éľĢè¦ģ",
        "æİ§åĪ¶"
      ],
      [
        "çĬŃ",
        "éĥ¨åģıæĹģ"
      ],
      [
        "è¡¨",
        "éĿ¢ç§¯"
      ],
      [
        "è®",
        "©äºº"
      ],
      [
        "çĤİ",
        "çĥŃçļĦå¤"
      ],
      [
        "ä½",
        "ľçĶ¨"
      ],
      [
        "éĺ",
        "³åħī"
      ],
      [
        "æĦ",
        "ŁåĪ"
      ],
      [
        "æĻ",
        "¯èī²"
      ],
      [
        "æ·",
        "Į"
      ],
      [
        "çĶ¨",
        "éĢĶ"
      ],
      [
        "ģçļĦ",
        "æľ¨åĪ¶"
      ],
      [
        "æĺ¯çĶŁ",
        "åĥ»å½¢å£°åŃĹ"
      ],
      [
        "äºĭ",
        "åŃĹéĢ"
      ],
      [
        "è°",
        "·é"
      ],
      [
        "ä¸į",
        "èĪ"
      ],
      [
        "æ°Ķ",
        "åĢĻ"
      ],
      [
        "è¿ĩ",
        "æīĵç£"
      ],
      [
        "çĩĥçĥ§",
        "äº§"
      ],
      [
        "çĩĥçĥ§",
        "çĥŃæľīåħ³"
      ],
      [
        "è§",
        "Ĵæ´"
      ],
      [
        "åŃĹä»İ",
        "çģ«éĥ¨"
      ],
      [
        "åŃĹä»İ",
        "çŁ³éĥ¨"
      ],
      [
        "åŃĹä»İ",
        "çĬŃéĥ¨åģıæĹģ"
      ],
      [
        "åħī",
        "æ³½èī²"
      ],
      [
        "ç§į",
        "é¦Ļæľ¨"
      ],
      [
        "æĮĩ",
        "æ°´æ¹¾"
      ],
      [
        "æĮĩ",
        "æłĳæľ¨çļĦå"
      ],
      [
        "æĮĩ",
        "äºĭåŃĹéĢ"
      ],
      [
        "æ±¸",
        "æĺ¯ä¸Ģä¸ª"
      ],
      [
        "çĬ´",
        "åŃĹä»İçĬŃéĥ¨åģıæĹģ"
      ],
      [
        "çł¯",
        "åŃĹä»İçŁ³éĥ¨"
      ],
      [
        "æµ¯",
        "æĺ¯å±±"
      ],
      [
        "æ±Ń",
        "æĮĩæ°´æ¹¾"
      ],
      [
        "çĤĩ",
        "åŃĹä»İçģ«éĥ¨"
      ],
      [
        "æ£»",
        "æĺ¯ä¸Ģ"
      ],
      [
        "æ²³æµģ",
        "ä¸Ńæ²īç§¯"
      ],
      [
        "å±±",
        "è°·é"
      ],
      [
        "æľ¨æĿĲ",
        "æĺ¯éĩįè¦ģ"
      ],
      [
        "åĬ¨",
        "åĬĽ"
      ],
      [
        "åįł",
        "åľ°çĲĥ"
      ],
      [
        "çĦ°ç",
        "ħ¤çĤŃ"
      ],
      [
        "æ£®æŀĹ",
        "æĺ¯åľ"
      ],
      [
        "æĦı",
        "ä¹ī"
      ],
      [
        "å²©çŁ³",
        "æĺ¯åľ"
      ],
      [
        "æľ¸",
        "æĮĩæłĳæľ¨çļĦå"
      ],
      [
        "æŁľ",
        "æĿ¿"
      ],
      [
        "é¢",
        "Ĺç²Ĵ"
      ],
      [
        "æŁ±",
        "æ£į"
      ],
      [
        "å®Ŀ",
        "çŁ³ç»ı"
      ],
      [
        "çļĦçĻ¾åĪĨä¹ĭ",
        "ä¸ĥåįģ"
      ],
      [
        "æīįèĥ½",
        "åģļåĩ"
      ],
      [
        "èĮĥ",
        "æ²»çĲĨ"
      ],
      [
        "¦åı",
        "³éĿ¢ç§¯"
      ],
      [
        "®çļĦ",
        "æ©"
      ],
      [
        "çĸ",
        "¤éĥ¨åĪĨ"
      ],
      [
        "çĸ",
        "ıå¯"
      ],
      [
        "ĬçļĦ",
        "ç±»åŀĭ"
      ],
      [
        "ä¸º",
        "å·¥ä¸ļçĶŁ"
      ],
      [
        "ä¸º",
        "çī¹æ®"
      ],
      [
        "çļĦå",
        "»ºç"
      ],
      [
        "äº§",
        "æıĲä¾Ľ"
      ],
      [
        "æ³Ľ",
        "æ»¥æĹ¶"
      ],
      [
        "æ³Ľ",
        "ä»·åĢ"
      ],
      [
        "æıĲä¾Ľ",
        "æ°§æ°Ķ"
      ],
      [
        "°çĲĥ",
        "çļĦèĤ"
      ],
      [
        "åįģåĪĨ",
        "ç¾İ"
      ],
      [
        "å¸¸è§",
        "ģç»ĦæĪĲ"
      ],
      [
        "ç§įç±»",
        "ç¹ģ"
      ],
      [
        "èĬĤ",
        "çĸ¤éĥ¨åĪĨ"
      ],
      [
        "æ¡Įæ¤ħ",
        "åºĬæŁľ"
      ],
      [
        "åıĳåĩº",
        "èĢĢçľ"
      ],
      [
        "åıĳåĩº",
        "æ¸©æ"
      ],
      [
        "å¹³",
        "åİŁ"
      ],
      [
        "æ¸ħ",
        "æ¾Ī"
      ],
      [
        "çł¾",
        "æĺ¯æ²³"
      ],
      [
        "çłĤ",
        "çł¾æĺ¯æ²³"
      ],
      [
        "å¹¿",
        "æ³Ľä»·åĢ"
      ],
      [
        "éĺ²",
        "èĮĥæ²»çĲĨ"
      ],
      [
        "æ¢ģ",
        "æŁ±æ£į"
      ],
      [
        "éĽĨ",
        "åĲĪ"
      ],
      [
        "æ°´æ¶²ä½ĵ",
        "æľīåħ³"
      ],
      [
        "çĤİçĥ§çģ¼çĥŃ",
        "çĦ°çħ¤çĤŃ"
      ],
      [
        "çĶ±çĽ¸åĲĮéĥ¨ä»¶éĩįå¤į",
        "æŀĦæĪĲ"
      ],
      [
        "æ±Łæ²³æ¹ĸæµ·æ´ĭæ³īæºĲæµģæ´¥æ¸¡æµ¦æ¸¯æ¹¾",
        "éĥ½åĲ«æ°µ"
      ],
      [
        "æ±¸æ£»çĤĩçł¯çĬ´æµ¯æľ¸æ±Ńæ´Ńæ³¶æ¹¸æ³«",
        "æĺ¯çĶŁåĥ»å½¢å£°åŃĹ"
      ],
      [
        "¥ª",
        "éľĢè¦ģæİ§åĪ¶"
      ],
      [
        "¥è¡¨ç¤º",
        "æĦıä¹ī"
      ],
      [
        "¦ä¸Ń",
        "è¾ĥ"
      ],
      [
        "¨åŃĹ",
        "åĴĮåģ"
      ],
      [
        "¨åĲ",
        "İèĥ½"
      ],
      [
        "°è",
        "²Į"
      ],
      [
        "°å£",
        "³çļĦéĩįè¦ģ"
      ],
      [
        "²åľ",
        "°è²Į"
      ],
      [
        "·æĿ",
        "¥è¡¨ç¤ºæĦıä¹ī"
      ],
      [
        "»çĶ¨",
        "åĵ"
      ],
      [
        "»åĬł",
        "ç¬¦åı"
      ],
      [
        "¼é",
        "«ĺ"
      ],
      [
        "¼åĴĮ",
        "éĺ²èĮĥæ²»çĲĨ"
      ],
      [
        "¼å¤",
        "ºçĽ®çļĦ"
      ],
      [
        "¾èĢ",
        "ĲåįģåĪĨ"
      ],
      [
        "¿éľĢè¦ģ",
        "éĺ³åħī"
      ],
      [
        "çħ¤çĤŃ",
        "çĩĥçĥ§äº§"
      ],
      [
        "ç¯Ŀ",
        "çģ«åľ¨"
      ],
      [
        "è½¬æ³",
        "¨åŃĹåĴĮåģ"
      ],
      [
        "éļ",
        "¾èĢĲåįģåĪĨ"
      ],
      [
        "é£Ł",
        "çī©"
      ],
      [
        "ĥèĬĤ",
        "æ°ĶåĢĻ"
      ],
      [
        "ħè¶³ä¾Ľ",
        "åºĶ"
      ],
      [
        "İäº",
        "®çļĦæ©"
      ],
      [
        "ıå¤©",
        "è®©äºº"
      ],
      [
        "ıä¸į",
        "ä¸Ģ"
      ],
      [
        "Ĺ´æµģ",
        "æ·Į"
      ],
      [
        "Ļåľ¨",
        "æ²³æµģä¸Ńæ²īç§¯"
      ],
      [
        "Ļèī²",
        "çģ«åħī"
      ],
      [
        "ļè¿ĩ",
        "åľ¨è±¡å½¢åŃĹ"
      ],
      [
        "ļçĩĥçĥ§",
        "åıĳåĩºæ¸©æ"
      ],
      [
        "ļĸæĺ",
        "İäº®çļĦæ©"
      ],
      [
        "Ŀļç¡¬",
        "èĬĤçĸ¤éĥ¨åĪĨ"
      ],
      [
        "ŃĳæĿĲ",
        "æĸĻ"
      ],
      [
        "ä¸ľçļĦ",
        "ä¸ĢæĿ"
      ],
      [
        "çļĦæ²³",
        "æ°´åľ¨"
      ],
      [
        "åŃĹæĺ¯",
        "åħŃä¹"
      ],
      [
        "åı£çļĦ",
        "é£Łçī©"
      ],
      [
        "åĴĮè°",
        "ĥèĬĤæ°ĶåĢĻ"
      ],
      [
        "åĴĮä¸ī",
        "è§Ĵæ´"
      ],
      [
        "å¤ľæĻ",
        "ļçĩĥçĥ§åıĳåĩºæ¸©æ"
      ],
      [
        "çĥ¹é",
        "¥ªéľĢè¦ģæİ§åĪ¶"
      ],
      [
        "æľ¨éĥ¨çļĦåŃĹ",
        "ä¸İæłĳæľ¨"
      ],
      [
        "åĪĨçļĦåħ",
        "ħè¶³ä¾ĽåºĶ"
      ],
      [
        "æ³¥æ²",
        "Ļåľ¨æ²³æµģä¸Ńæ²īç§¯"
      ],
      [
        "çģ«åĢĻ",
        "æīįèĥ½åģļåĩ"
      ],
      [
        "çģ«éĥ¨çļĦåŃĹå¤§å¤ļä¸İ",
        "çĩĥçĥ§çĥŃæľīåħ³"
      ],
      [
        "æ°´åĪĨåĴĮåħ»",
        "åĪĨçļĦåħħè¶³ä¾ĽåºĶ"
      ],
      [
        "å½¢æĪĲ",
        "å¹³åİŁ"
      ],
      [
        "çĶŁæ´",
        "»çĶ¨åĵ"
      ],
      [
        "çĶŁçĥŃéĩı",
        "ä¸ºå·¥ä¸ļçĶŁ"
      ],
      [
        "æ£Ĵæŀ",
        "Ŀ"
      ],
      [
        "æ´ªæ°´",
        "æ³Ľæ»¥æĹ¶"
      ],
      [
        "ä¸Ģå·",
        "¦åı³éĿ¢ç§¯"
      ],
      [
        "æ°µéĥ¨çļĦåŃĹå¤§å¤ļä¸İ",
        "æ°´æ¶²ä½ĵæľīåħ³"
      ],
      [
        "éĥ½æĺ¯å¸¸è§",
        "ģçļĦæľ¨åĪ¶"
      ],
      [
        "çī©è´",
        "¨"
      ],
      [
        "æłĳæ¡Įæ¤ħ",
        "æŁľæĿ¿"
      ],
      [
        "æµ·æ´ĭ",
        "åįłåľ°çĲĥ"
      ],
      [
        "°çĩ¥çĥŃ",
        "éļ¾èĢĲåįģåĪĨ"
      ],
      [
        "ĩåĢŁ",
        "åŃĹæĺ¯åħŃä¹"
      ],
      [
        "ºç¾İ",
        "åĳ³åı¯"
      ],
      [
        "èĥ½éĩı",
        "åĬ¨åĬĽ"
      ],
      [
        "å®¶åħ·",
        "çĶŁæ´»çĶ¨åĵ"
      ],
      [
        "ä¸Ĭæ·",
        "»åĬłç¬¦åı"
      ],
      [
        "æłĳæľ¨çĶŁéķ",
        "¿éľĢè¦ģéĺ³åħī"
      ],
      [
        "æİªæĸ",
        "½"
      ],
      [
        "åºĬçļĦ",
        "å¸¸è§ģç»ĦæĪĲ"
      ],
      [
        "å¤§å°",
        "ıä¸įä¸Ģ"
      ],
      [
        "éľĢè¦ģåıĬæĹ¶",
        "çĸıå¯"
      ],
      [
        "è¡¨éĿ¢ç§¯",
        "çļĦçĻ¾åĪĨä¹ĭä¸ĥåįģ"
      ],
      [
        "çĤİçĥŃçļĦå¤",
        "ıå¤©è®©äºº"
      ],
      [
        "æĦŁåĪ",
        "°çĩ¥çĥŃéļ¾èĢĲåįģåĪĨ"
      ],
      [
        "æĻ¯èī²",
        "åįģåĪĨç¾İ"
      ],
      [
        "çĶ¨éĢĶ",
        "å¹¿æ³Ľä»·åĢ"
      ],
      [
        "ä¸įèĪ",
        "ĴéĢĤ"
      ],
      [
        "è¿ĩæīĵç£",
        "¨åĲİèĥ½"
      ],
      [
        "åħīæ³½èī²",
        "å½©"
      ],
      [
        "ç§įé¦Ļæľ¨",
        "æ¤įçī©"
      ],
      [
        "æĮĩäºĭåŃĹéĢ",
        "ļè¿ĩåľ¨è±¡å½¢åŃĹ"
      ],
      [
        "æ±¸æĺ¯ä¸Ģä¸ª",
        "æ°´åĲį"
      ],
      [
        "æµ¯æĺ¯å±±",
        "ä¸ľçļĦä¸ĢæĿ"
      ],
      [
        "æ£»æĺ¯ä¸Ģ",
        "ç§įé¦Ļæľ¨æ¤įçī©"
      ],
      [
        "å±±è°·é",
        "Ĺ´æµģæ·Į"
      ],
      [
        "æľ¨æĿĲæĺ¯éĩįè¦ģ",
        "çļĦå»ºç"
      ],
      [
        "æ£®æŀĹæĺ¯åľ",
        "°çĲĥçļĦèĤ"
      ],
      [
        "å²©çŁ³æĺ¯åľ",
        "°å£³çļĦéĩįè¦ģ"
      ],
      [
        "æľ¸æĮĩæłĳæľ¨çļĦå",
        "Ŀļç¡¬èĬĤçĸ¤éĥ¨åĪĨ"
      ],
      [
        "é¢Ĺç²Ĵ",
        "å¤§å°ıä¸įä¸Ģ"
      ],
      [
        "å®ĿçŁ³ç»ı",
        "è¿ĩæīĵç£¨åĲİèĥ½"
      ],
      [
        "ä¸ºçī¹æ®",
        "ĬçļĦç±»åŀĭ"
      ],
      [
        "äº§æıĲä¾Ľ",
        "èĥ½éĩıåĬ¨åĬĽ"
      ],
      [
        "æıĲä¾Ľæ°§æ°Ķ",
        "åĴĮè°ĥèĬĤæ°ĶåĢĻ"
      ],
      [
        "ç§įç±»ç¹ģ",
        "å¤ļä¸°å¯Į"
      ],
      [
        "æ¡Įæ¤ħåºĬæŁľ",
        "éĥ½æĺ¯å¸¸è§ģçļĦæľ¨åĪ¶"
      ],
      [
        "åıĳåĩºèĢĢçľ",
        "¼å¤ºçĽ®çļĦ"
      ],
      [
        "æ¸ħæ¾Ī",
        "çļĦæ²³æ°´åľ¨"
      ],
      [
        "çłĤçł¾æĺ¯æ²³",
        "åºĬçļĦå¸¸è§ģç»ĦæĪĲ"
      ],
      [
        "æ¢ģæŁ±æ£į",
        "æ£ĴæŀĿ"
      ],
      [
        "æ±Łæ²³æ¹ĸæµ·æ´ĭæ³īæºĲæµģæ´¥æ¸¡æµ¦æ¸¯æ¹¾éĥ½åĲ«æ°µ",
        "éĥ¨é¦ĸ"
      ],
      [
        "æ±¸æ£»çĤĩçł¯çĬ´æµ¯æľ¸æ±Ńæ´Ńæ³¶æ¹¸æ³«æĺ¯çĶŁåĥ»å½¢å£°åŃĹ",
        "éĽĨåĲĪ"
      ],
      [
        "¦ä¸Ńè¾ĥ",
        "ä¸ºçī¹æ®ĬçļĦç±»åŀĭ"
      ],
      [
        "¼åĴĮéĺ²èĮĥæ²»çĲĨ",
        "æİªæĸ½"
      ],
      [
        "çħ¤çĤŃçĩĥçĥ§äº§",
        "çĶŁçĥŃéĩıä¸ºå·¥ä¸ļçĶŁ"
      ],
      [
        "ç¯Ŀçģ«åľ¨",
        "å¤ľæĻļçĩĥçĥ§åıĳåĩºæ¸©æ"
      ],
      [
        "è½¬æ³¨åŃĹåĴĮåģ",
        "ĩåĢŁåŃĹæĺ¯åħŃä¹"
      ],
      [
        "ļĸæĺİäº®çļĦæ©",
        "Ļèī²çģ«åħī"
      ],
      [
        "åĴĮä¸īè§Ĵæ´",
        "²åľ°è²Į"
      ],
      [
        "çĥ¹é¥ªéľĢè¦ģæİ§åĪ¶",
        "çģ«åĢĻæīįèĥ½åģļåĩ"
      ],
      [
        "æľ¨éĥ¨çļĦåŃĹä¸İæłĳæľ¨",
        "æľīåħ³"
      ],
      [
        "æ³¥æ²Ļåľ¨æ²³æµģä¸Ńæ²īç§¯",
        "å½¢æĪĲå¹³åİŁ"
      ],
      [
        "æ´ªæ°´æ³Ľæ»¥æĹ¶",
        "éľĢè¦ģåıĬæĹ¶çĸıå¯"
      ],
      [
        "æłĳæ¡Įæ¤ħæŁľæĿ¿",
        "æ¢ģæŁ±æ£įæ£ĴæŀĿ"
      ],
      [
        "æµ·æ´ĭåįłåľ°çĲĥ",
        "è¡¨éĿ¢ç§¯çļĦçĻ¾åĪĨä¹ĭä¸ĥåįģ"
      ],
      [
        "ºç¾İåĳ³åı¯",
        "åı£çļĦé£Łçī©"
      ],
      [
        "å®¶åħ·çĶŁæ´»çĶ¨åĵ",
        "ģç§įç±»"
      ],
      [
        "ä¸Ĭæ·»åĬłç¬¦åı",
        "·æĿ¥è¡¨ç¤ºæĦıä¹ī"
      ],
      [
        "æłĳæľ¨çĶŁéķ¿éľĢè¦ģéĺ³åħī",
        "æ°´åĪĨåĴĮåħ»åĪĨçļĦåħħè¶³ä¾ĽåºĶ"
      ],
      [
        "çĤİçĥŃçļĦå¤ıå¤©è®©äºº",
        "æĦŁåĪ°çĩ¥çĥŃéļ¾èĢĲåįģåĪĨ"
      ],
      [
        "æĻ¯èī²åįģåĪĨç¾İ",
        "ä¸½"
      ],
      [
        "çĶ¨éĢĶå¹¿æ³Ľä»·åĢ",
        "¼é«ĺ"
      ],
      [
        "æĮĩäºĭåŃĹéĢļè¿ĩåľ¨è±¡å½¢åŃĹ",
        "ä¸Ĭæ·»åĬłç¬¦åı·æĿ¥è¡¨ç¤ºæĦıä¹ī"
      ],
      [
        "æµ¯æĺ¯å±±ä¸ľçļĦä¸ĢæĿ",
        "¡æ²³æµģ"
      ],
      [
        "æľ¨æĿĲæĺ¯éĩįè¦ģçļĦå»ºç",
        "ŃĳæĿĲæĸĻ"
      ],
      [
        "æ£®æŀĹæĺ¯åľ°çĲĥçļĦèĤ",
        "º"
      ],
      [
        "å²©çŁ³æĺ¯åľ°å£³çļĦéĩįè¦ģ",
        "ç»ĦæĪĲéĥ¨åĪĨ"
      ],
      [
        "å®ĿçŁ³ç»ıè¿ĩæīĵç£¨åĲİèĥ½",
        "åıĳåĩºèĢĢçľ¼å¤ºçĽ®çļĦ"
      ],
      [
        "æıĲä¾Ľæ°§æ°ĶåĴĮè°ĥèĬĤæ°ĶåĢĻ",
        "ä½ľçĶ¨"
      ],
      [
        "æ¡Įæ¤ħåºĬæŁľéĥ½æĺ¯å¸¸è§ģçļĦæľ¨åĪ¶",
        "å®¶åħ·çĶŁæ´»çĶ¨åĵģç§įç±»"
      ],
      [
        "æ¸ħæ¾ĪçļĦæ²³æ°´åľ¨",
        "å±±è°·éĹ´æµģæ·Į"
      ],
      [
        "çłĤçł¾æĺ¯æ²³åºĬçļĦå¸¸è§ģç»ĦæĪĲ",
        "çī©è´¨"
      ],
      [
        "çħ¤çĤŃçĩĥçĥ§äº§çĶŁçĥŃéĩıä¸ºå·¥ä¸ļçĶŁ",
        "äº§æıĲä¾Ľèĥ½éĩıåĬ¨åĬĽ"
      ],
      [
        "ç¯Ŀçģ«åľ¨å¤ľæĻļçĩĥçĥ§åıĳåĩºæ¸©æ",
        "ļĸæĺİäº®çļĦæ©Ļèī²çģ«åħī"
      ],
      [
        "è½¬æ³¨åŃĹåĴĮåģĩåĢŁåŃĹæĺ¯åħŃä¹",
        "¦ä¸Ńè¾ĥä¸ºçī¹æ®ĬçļĦç±»åŀĭ"
      ],
      [
        "çĥ¹é¥ªéľĢè¦ģæİ§åĪ¶çģ«åĢĻæīįèĥ½åģļåĩ",
        "ºç¾İåĳ³åı¯åı£çļĦé£Łçī©"
      ],
      [
        "æ³¥æ²Ļåľ¨æ²³æµģä¸Ńæ²īç§¯å½¢æĪĲå¹³åİŁ",
        "åĴĮä¸īè§Ĵæ´²åľ°è²Į"
      ],
      [
        "æ´ªæ°´æ³Ľæ»¥æĹ¶éľĢè¦ģåıĬæĹ¶çĸıå¯",
        "¼åĴĮéĺ²èĮĥæ²»çĲĨæİªæĸ½"
      ],
      [
        "æµ·æ´ĭåįłåľ°çĲĥè¡¨éĿ¢ç§¯çļĦçĻ¾åĪĨä¹ĭä¸ĥåįģ",
        "ä¸Ģå·¦åı³éĿ¢ç§¯"
      ],
      [
        "çĤİçĥŃçļĦå¤ıå¤©è®©äººæĦŁåĪ°çĩ¥çĥŃéļ¾èĢĲåįģåĪĨ",
        "ä¸įèĪĴéĢĤ"
      ],
      [
        "å®ĿçŁ³ç»ıè¿ĩæīĵç£¨åĲİèĥ½åıĳåĩºèĢĢçľ¼å¤ºçĽ®çļĦ",
        "åħīæ³½èī²å½©"
      ],
      [
        "å¹",
        "²"
      ],
      [
        "æĶ",
        "µ"
      ],
      [
        "åŃĹæĹģ",
        "è¡¨ç¤ºä¸İ"
      ],
      [
        "f",
        "Å"
      ],
      [
        "i",
        "Ãł"
      ],
      [
        "k",
        "u"
      ],
      [
        "l",
        "iÃł"
      ],
      [
        "p",
        "Ä"
      ],
      [
        "w",
        "Ã"
      ],
      [
        "«",
        "ng"
      ],
      [
        "Ã",
        "©"
      ],
      [
        "Ä",
        "ģng"
      ],
      [
        "ç",
        "Į"
      ],
      [
        "ç",
        "ħ¤"
      ],
      [
        "ĵ",
        "n"
      ],
      [
        "æĺ¯",
        "æľ¬"
      ],
      [
        "åħ",
        "½"
      ],
      [
        "åı",
        "į"
      ],
      [
        "äº",
        "®"
      ],
      [
        "çŁ³",
        "å¹³"
      ],
      [
        "çĬ",
        "¬"
      ],
      [
        "åĲ",
        "¾"
      ],
      [
        "éĿ",
        "Ĵ"
      ],
      [
        "çĬŃ",
        "å¹²"
      ],
      [
        "çĦ",
        "°"
      ],
      [
        "è®",
        "ł"
      ],
      [
        "æıĲç¤ºè¯»éŁ³",
        "fÄ"
      ],
      [
        "æıĲç¤ºè¯»éŁ³",
        "xu"
      ],
      [
        "çİ",
        "Ħ"
      ],
      [
        "åĮ",
        "¡"
      ],
      [
        "å®ŀ",
        "éªĮ"
      ],
      [
        "fÅ",
        "«"
      ],
      [
        "ku",
        "Äģng"
      ],
      [
        "liÃł",
        "ng"
      ],
      [
        "pÄ",
        "«ng"
      ],
      [
        "wÃ",
        "º"
      ],
      [
        "æĺ¯æľ¬",
        "å®ŀéªĮ"
      ],
      [
        "r",
        "u"
      ],
      [
        "¡",
        "æŀ"
      ],
      [
        "¢",
        "ĳ"
      ],
      [
        "£",
        "æµ"
      ],
      [
        "¤",
        "çĤ"
      ],
      [
        "¦",
        "æ¡"
      ],
      [
        "«",
        "ĭ"
      ],
      [
        "«",
        "æ¡"
      ],
      [
        "»",
        "è¦ģ"
      ],
      [
        "½",
        "æ°´"
      ],
      [
        "¾",
        "Ĭ"
      ],
      [
        "¾",
        "æŁ"
      ],
      [
        "¿",
        "Ħ"
      ],
      [
        "¿",
        "çĶ¨"
      ],
      [
        "Ã",
        "¬"
      ],
      [
        "å",
        "ĭ"
      ],
      [
        "å",
        "Ŀ"
      ],
      [
        "å",
        "¿Ħ"
      ],
      [
        "æ",
        "Ł³"
      ],
      [
        "ç",
        "Ĩ"
      ],
      [
        "ç",
        "ĵ"
      ],
      [
        "ç",
        "Ļ"
      ],
      [
        "ç",
        "¢ĳ"
      ],
      [
        "ç",
        "«ĭ"
      ],
      [
        "ç",
        "¾Ĭ"
      ],
      [
        "è",
        "ĭ"
      ],
      [
        "ĥ",
        "æ¢"
      ],
      [
        "ħ",
        "æĿ"
      ],
      [
        "ĭ",
        "è¯"
      ],
      [
        "ı",
        "æŁ³"
      ],
      [
        "Ķ",
        "çĤ"
      ],
      [
        "Ķ",
        "æ¡"
      ],
      [
        "ķ",
        "éĽĨ"
      ],
      [
        "ķ",
        "æĺ¯æľ¬å®ŀéªĮ"
      ],
      [
        "Ļ",
        "çĨ"
      ],
      [
        "ä¸",
        "»è¦ģ"
      ],
      [
        "çļĦ",
        "çĶŁ"
      ],
      [
        "çļĦ",
        "ä¸»è¦ģ"
      ],
      [
        "æĺ",
        "Ĩ"
      ],
      [
        "æĺ¯",
        "æ²³æµģ"
      ],
      [
        "æĺ¯",
        "æ°´æ¹¾"
      ],
      [
        "æĺ¯",
        "æ°´åĲį"
      ],
      [
        "æĺ¯",
        "é¦Ļæľ¨"
      ],
      [
        "åħ",
        "¹"
      ],
      [
        "åı",
        "¥"
      ],
      [
        "æĹ",
        "¥"
      ],
      [
        "äº",
        "ī"
      ],
      [
        "æµ",
        "ĭè¯"
      ],
      [
        "çĥ",
        "¤çĤ"
      ],
      [
        "æĪ",
        "·"
      ],
      [
        "æĪ",
        "¿"
      ],
      [
        "æľ¨",
        "åĪĨ"
      ],
      [
        "æľ¨",
        "çŁ³"
      ],
      [
        "æľ¨",
        "åį"
      ],
      [
        "æľ¨",
        "å¯"
      ],
      [
        "æľ¨",
        "éĩı"
      ],
      [
        "æľ¨",
        "æĹı"
      ],
      [
        "æľ¨",
        "åĮ"
      ],
      [
        "æľ¨",
        "æ¤į"
      ],
      [
        "æľ¨",
        "å¥"
      ],
      [
        "æľ¨",
        "åŃĹæĹģè¡¨ç¤ºä¸İ"
      ],
      [
        "æľ¨",
        "åıį"
      ],
      [
        "æľ¨",
        "æĺĨ"
      ],
      [
        "æĹģ",
        "è¡¨ç¤ºä¸İ"
      ],
      [
        "åĪĨ",
        "æıĲç¤ºè¯»éŁ³fÄ"
      ],
      [
        "å½",
        "³"
      ],
      [
        "å½",
        "·"
      ],
      [
        "çģ«",
        "çģ«"
      ],
      [
        "çģ«",
        "æī"
      ],
      [
        "çģ«",
        "çĥŃ"
      ],
      [
        "çģ«",
        "æŁ"
      ],
      [
        "çģ«",
        "æĹı"
      ],
      [
        "çģ«",
        "èĩ"
      ],
      [
        "çģ«",
        "å°"
      ],
      [
        "çģ«",
        "æĶµ"
      ],
      [
        "çģ«",
        "åŃĹæĹģè¡¨ç¤ºä¸İ"
      ],
      [
        "çģ«",
        "åĭ"
      ],
      [
        "çģ«",
        "æľ¨çŁ³"
      ],
      [
        "æ°´",
        "æĹı"
      ],
      [
        "æ°´",
        "è¡¨ç¤ºä¸İ"
      ],
      [
        "è¯",
        "·"
      ],
      [
        "çŁ³",
        "åį"
      ],
      [
        "çŁ³",
        "åİĨ"
      ],
      [
        "çŁ³",
        "çŁ¿"
      ],
      [
        "çŁ³",
        "å°"
      ],
      [
        "çŁ³",
        "å¹¿"
      ],
      [
        "çŁ³",
        "åŃĹæĹģè¡¨ç¤ºä¸İ"
      ],
      [
        "çŁ³",
        "åħ¹"
      ],
      [
        "æ´",
        "£æµ"
      ],
      [
        "åľ",
        "Ł"
      ],
      [
        "ç±»",
        "æľīåħ³çļĦåŃĹä¹īç±»åĪ«"
      ],
      [
        "æ°µ",
        "æ°´"
      ],
      [
        "æ°µ",
        "èĥ"
      ],
      [
        "æ°µ",
        "å·¥"
      ],
      [
        "æ°µ",
        "åŃ¦"
      ],
      [
        "æ°µ",
        "åı¯"
      ],
      [
        "æ°µ",
        "æĸ¹"
      ],
      [
        "æ°µ",
        "åĨħ"
      ],
      [
        "æ°µ",
        "æ¯ı"
      ],
      [
        "æ°µ",
        "ä¸ī"
      ],
      [
        "æ°µ",
        "åİŁ"
      ],
      [
        "æ°µ",
        "äº®"
      ],
      [
        "æ°µ",
        "åĲ¾"
      ],
      [
        "æ°µ",
        "éĿĴ"
      ],
      [
        "æ°µ",
        "çİĦ"
      ],
      [
        "æ°µ",
        "åĮ¡"
      ],
      [
        "æ°µ",
        "ç¾Ĭ"
      ],
      [
        "æ°µ",
        "çģ«æľ¨çŁ³"
      ],
      [
        "çī©",
        "åħ½"
      ],
      [
        "æłĳ",
        "æ£®æŀĹ"
      ],
      [
        "°ç",
        "Ļ¾åĪĨä¹ĭ"
      ],
      [
        "å£°æĹģ",
        "è¡¨"
      ],
      [
        "å£°æĹģ",
        "åŃ¦"
      ],
      [
        "å£°æĹģ",
        "æĸ¹"
      ],
      [
        "å£°æĹģ",
        "å¹³"
      ],
      [
        "å£°æĹģ",
        "åĨħ"
      ],
      [
        "å£°æĹģ",
        "å¹²"
      ],
      [
        "å£°æĹģ",
        "æĶµ"
      ],
      [
        "å£°æĹģ",
        "äº®"
      ],
      [
        "å£°æĹģ",
        "åĲ¾"
      ],
      [
        "å£°æĹģ",
        "çİĦ"
      ],
      [
        "å£°æĹģ",
        "åĮ¡"
      ],
      [
        "å£°æĹģ",
        "åĪĨæıĲç¤ºè¯»éŁ³fÄ"
      ],
      [
        "èĢ",
        "ħ"
      ],
      [
        "éĿ",
        "ĸ"
      ],
      [
        "éĿ",
        "Ļ"
      ],
      [
        "ä»İ",
        "çģ«"
      ],
      [
        "ä»İ",
        "çŁ³"
      ],
      [
        "ä»İ",
        "çĬ¬"
      ],
      [
        "æłĳæľ¨",
        "æ¤įçī©"
      ],
      [
        "æĶ",
        "¾"
      ],
      [
        "çĬŃ",
        "èī"
      ],
      [
        "çĬŃ",
        "å¸"
      ],
      [
        "çĬŃ",
        "åħ½"
      ],
      [
        "çĬŃ",
        "åıį"
      ],
      [
        "çĬŃ",
        "æĺ¯æľ¬å®ŀéªĮ"
      ],
      [
        "çĬŃ",
        "çĵ"
      ],
      [
        "çĬŃ",
        "èĭ"
      ],
      [
        "çĬŃ",
        "åı¥"
      ],
      [
        "çĬŃ",
        "èĢħ"
      ],
      [
        "è¡¨",
        "æĦı"
      ],
      [
        "è®",
        "¿"
      ],
      [
        "ä½",
        "¿çĶ¨"
      ],
      [
        "éĺ",
        "Ŀ"
      ],
      [
        "èī",
        "¹"
      ],
      [
        "æ¡",
        "¦æ¡"
      ],
      [
        "æĻ",
        "´"
      ],
      [
        "åĢ",
        "©"
      ],
      [
        "æıĲç¤ºè¯»éŁ³",
        "Ãłn"
      ],
      [
        "æıĲç¤ºè¯»éŁ³",
        "fÅ«"
      ],
      [
        "æıĲç¤ºè¯»éŁ³",
        "kuÄģng"
      ],
      [
        "æıĲç¤ºè¯»éŁ³",
        "liÃłng"
      ],
      [
        "æıĲç¤ºè¯»éŁ³",
        "pÄ«ng"
      ],
      [
        "æıĲç¤ºè¯»éŁ³",
        "wÃº"
      ],
      [
        "å½¢æĹģ",
        "è¡¨æĦı"
      ],
      [
        "çĤŃ",
        "çħ¤"
      ],
      [
        "æ²³æµģ",
        "æľīåħ³çļĦåŃĹä¹īç±»åĪ«"
      ],
      [
        "å±±",
        "çģ«"
      ],
      [
        "å±±",
        "çŁ³"
      ],
      [
        "æľ¨æĿĲ",
        "æľīåħ³çļĦåŃĹä¹īç±»åĪ«"
      ],
      [
        "åĬ¨",
        "çī©åħ½"
      ],
      [
        "èĬ",
        "³"
      ],
      [
        "çĭ",
        "®"
      ],
      [
        "çĭ",
        "¼"
      ],
      [
        "çĭ",
        "Ĳ"
      ],
      [
        "çĭ",
        "Ĺ"
      ],
      [
        "æĸ¹",
        "æĹı"
      ],
      [
        "çĤ¹",
        "æ°´è¡¨ç¤ºä¸İ"
      ],
      [
        "çģ«çĦ°çĩĥçĥ§çĥŃéĩı",
        "æľīåħ³çļĦåŃĹä¹īç±»åĪ«"
      ],
      [
        "çŁ³å¤´å²©çŁ³çŁ¿çī©",
        "æľīåħ³çļĦåŃĹä¹īç±»åĪ«"
      ],
      [
        "å½¢å£°åŃĹçĶ±å½¢æĹģåĴĮå£°æĹģ",
        "æŀĦæĪĲ"
      ],
      [
        "å½¢å£°åŃĹåįłæ±īåŃĹæĢ»æķ",
        "°çĻ¾åĪĨä¹ĭ"
      ],
      [
        "æ©",
        "¡æŀ"
      ],
      [
        "ç£",
        "ģ"
      ],
      [
        "åĥ»å½¢å£°åŃĹ",
        "æµĭè¯"
      ],
      [
        "æ°´æ¶²ä½ĵ",
        "æ²³æµģæľīåħ³çļĦåŃĹä¹īç±»åĪ«"
      ],
      [
        "çĤİçĥ§çģ¼çĥŃ",
        "çĦ°"
      ],
      [
        "çĶ±çĽ¸åĲĮéĥ¨ä»¶éĩįå¤į",
        "ç»ĦæĪĲ"
      ],
      [
        "æ±¸æ£»çĤĩçł¯çĬ´æµ¯æľ¸æ±Ńæ´Ńæ³¶æ¹¸æ³«",
        "æ´£æµ"
      ],
      [
        "fÄ",
        "ģng"
      ],
      [
        "fÄ",
        "ĵn"
      ],
      [
        "xu",
        "Ãłn"
      ],
      [
        "xu",
        "Ã©"
      ],
      [
        "çĮ",
        "ª"
      ],
      [
        "çĮ",
        "«"
      ],
      [
        "çĬ¬",
        "æĹģè¡¨ç¤ºä¸İ"
      ],
      [
        "éĿĴ",
        "æĹı"
      ],
      [
        "æıĲç¤ºè¯»éŁ³fÄ",
        "ģng"
      ],
      [
        "æıĲç¤ºè¯»éŁ³xu",
        "Ãłn"
      ],
      [
        "æıĲç¤ºè¯»éŁ³xu",
        "Ã©"
      ],
      [
        "ru",
        "Ã¬"
      ],
      [
        "«æ¡",
        "ĳ"
      ],
      [
        "¾æŁ",
        "ıæŁ³"
      ],
      [
        "åĿ",
        "Ĭ"
      ],
      [
        "çĻ",
        "½æ°´"
      ],
      [
        "ĥæ¢",
        "ħæĿ"
      ],
      [
        "ĶçĤ",
        "¼"
      ],
      [
        "Ķæ¡",
        "ĥæ¢ħæĿ"
      ],
      [
        "ķæĺ¯æľ¬å®ŀéªĮ",
        "çļĦçĶŁ"
      ],
      [
        "ĻçĨ",
        "ĶçĤ¼"
      ],
      [
        "çļĦä¸»è¦ģ",
        "éĥ¨é¦ĸ"
      ],
      [
        "æĺ¯æ²³æµģ",
        "åĲį"
      ],
      [
        "çĥ¤çĤ",
        "ĻçĨĶçĤ¼"
      ],
      [
        "æľ¨åį",
        "ĵ"
      ],
      [
        "æľ¨å¯",
        "¹"
      ],
      [
        "æľ¨åĮ",
        "®"
      ],
      [
        "æľ¨å¥",
        "ĩ"
      ],
      [
        "æľ¨åŃĹæĹģè¡¨ç¤ºä¸İ",
        "æłĳæľ¨æ¤įçī©"
      ],
      [
        "çģ«æī",
        "§"
      ],
      [
        "çģ«æŁ",
        "Ĳ"
      ],
      [
        "çģ«èĩ",
        "½"
      ],
      [
        "çģ«å°",
        "§"
      ],
      [
        "çģ«åŃĹæĹģè¡¨ç¤ºä¸İ",
        "çģ«çĦ°çĩĥçĥ§çĥŃéĩıæľīåħ³çļĦåŃĹä¹īç±»åĪ«"
      ],
      [
        "çģ«åĭ",
        "º"
      ],
      [
        "çŁ³åį",
        "ĳ"
      ],
      [
        "çŁ³å°",
        "ĳ"
      ],
      [
        "çŁ³åŃĹæĹģè¡¨ç¤ºä¸İ",
        "çŁ³å¤´å²©çŁ³çŁ¿çī©æľīåħ³çļĦåŃĹä¹īç±»åĪ«"
      ],
      [
        "æ°µèĥ",
        "¡"
      ],
      [
        "æ°µä¸ī",
        "çĤ¹æ°´è¡¨ç¤ºä¸İ"
      ],
      [
        "æ°µçģ«æľ¨çŁ³",
        "çĬŃæĺ¯æľ¬å®ŀéªĮ"
      ],
      [
        "æłĳæ£®æŀĹ",
        "æ¡¦æ¡"
      ],
      [
        "å£°æĹģè¡¨",
        "éŁ³"
      ],
      [
        "å£°æĹģåŃ¦",
        "æıĲç¤ºè¯»éŁ³xuÃ©"
      ],
      [
        "å£°æĹģæĸ¹",
        "æıĲç¤ºè¯»éŁ³fÄģng"
      ],
      [
        "å£°æĹģå¹³",
        "æıĲç¤ºè¯»éŁ³pÄ«ng"
      ],
      [
        "å£°æĹģåĨħ",
        "æıĲç¤ºè¯»éŁ³"
      ],
      [
        "å£°æĹģå¹²",
        "æıĲç¤ºè¯»éŁ³Ãłn"
      ],
      [
        "å£°æĹģæĶµ",
        "æıĲç¤ºè¯»éŁ³fÅ«"
      ],
      [
        "å£°æĹģäº®",
        "æıĲç¤ºè¯»éŁ³liÃłng"
      ],
      [
        "å£°æĹģåĲ¾",
        "æıĲç¤ºè¯»éŁ³wÃº"
      ],
      [
        "å£°æĹģçİĦ",
        "æıĲç¤ºè¯»éŁ³xuÃłn"
      ],
      [
        "å£°æĹģåĮ¡",
        "æıĲç¤ºè¯»éŁ³kuÄģng"
      ],
      [
        "å£°æĹģåĪĨæıĲç¤ºè¯»éŁ³fÄ",
        "ĵn"
      ],
      [
        "çĬŃèī",
        "¯"
      ],
      [
        "çĬŃå¸",
        "Ī"
      ],
      [
        "çĬŃåıį",
        "çĬ¬æĹģè¡¨ç¤ºä¸İ"
      ],
      [
        "çĬŃçĵ",
        "ľ"
      ],
      [
        "çĬŃèĭ",
        "Ĺ"
      ],
      [
        "ä½¿çĶ¨",
        "çļĦä¸»è¦ģéĥ¨é¦ĸ"
      ],
      [
        "å½¢æĹģè¡¨æĦı",
        "å£°æĹģè¡¨éŁ³"
      ],
      [
        "çĤŃçħ¤",
        "çĥ¤çĤĻçĨĶçĤ¼"
      ],
      [
        "åĬ¨çī©åħ½",
        "ç±»æľīåħ³çļĦåŃĹä¹īç±»åĪ«"
      ],
      [
        "å½¢å£°åŃĹåįłæ±īåŃĹæĢ»æķ°çĻ¾åĪĨä¹ĭ",
        "åħ«åįģä»¥ä¸Ĭ"
      ],
      [
        "æ©¡æŀ",
        "«æ¡ĳ"
      ],
      [
        "åĥ»å½¢å£°åŃĹæµĭè¯",
        "ķéĽĨ"
      ],
      [
        "çĤİçĥ§çģ¼çĥŃçĦ°",
        "çĤŃçħ¤çĥ¤çĤĻçĨĶçĤ¼"
      ],
      [
        "æ±¸æ£»çĤĩçł¯çĬ´æµ¯æľ¸æ±Ńæ´Ńæ³¶æ¹¸æ³«æ´£æµ",
        "ķæĺ¯æľ¬å®ŀéªĮçļĦçĶŁ"
      ],
      [
        "¾æŁıæŁ³",
        "æ©¡æŀ«æ¡ĳ"
      ],
      [
        "Ķæ¡ĥæ¢ħæĿ",
        "¾æŁıæŁ³æ©¡æŀ«æ¡ĳ"
      ],
      [
        "æľ¨åŃĹæĹģè¡¨ç¤ºä¸İæłĳæľ¨æ¤įçī©",
        "æľ¨æĿĲæľīåħ³çļĦåŃĹä¹īç±»åĪ«"
      ],
      [
        "æ°µä¸īçĤ¹æ°´è¡¨ç¤ºä¸İ",
        "æ°´æ¶²ä½ĵæ²³æµģæľīåħ³çļĦåŃĹä¹īç±»åĪ«"
      ],
      [
        "æ°µçģ«æľ¨çŁ³çĬŃæĺ¯æľ¬å®ŀéªĮ",
        "ä½¿çĶ¨çļĦä¸»è¦ģéĥ¨é¦ĸ"
      ],
      [
        "æłĳæ£®æŀĹæ¡¦æ¡",
        "Ķæ¡ĥæ¢ħæĿ¾æŁıæŁ³æ©¡æŀ«æ¡ĳ"
      ],
      [
        "çĬŃåıįçĬ¬æĹģè¡¨ç¤ºä¸İ",
        "åĬ¨çī©åħ½ç±»æľīåħ³çļĦåŃĹä¹īç±»åĪ«"
      ],
      [
        "æ±¸æ£»çĤĩçł¯çĬ´æµ¯æľ¸æ±Ńæ´Ńæ³¶æ¹¸æ³«æ´£æµķæĺ¯æľ¬å®ŀéªĮçļĦçĶŁ",
        "åĥ»å½¢å£°åŃĹæµĭè¯ķéĽĨ"
      ]
    ]
  }
}