{
  "version": "1.0",
  "truncation": null,
  "padding": null,
  "added_tokens": [
    {
      "id": 0,
      "content": "[UNK]",
      "single_word": false,
      "lstrip": false,
      "rstrip": false,
      "normalized": false,
      "special": true
    },
    {
      "id": 1,
      "content": "[PAD]",
      "single_word": false,
      "lstrip": false,
      "rstrip": false,
      "normalized": false,
      "special": true
    },
    {
      "id": 2,
      "content": "[BOS]",
      "single_word": false,
      "lstrip": false,
      "rstrip": false,
      "normalized": false,
      "special": true
    },
    {
      "id": 3,
      "content": "[EOS]",
      "single_word": false,
      "lstrip": false,
      "rstrip": false,
      "normalized": false,
      "special": true
    }
  ],
  "normalizer": null,
  "pre_tokenizer": {
    "type": "ByteLevel",
    "add_prefix_space": false,
    "trim_offsets": true,
    "use_regex": true
  },
  "post_processor": null,
  "decoder": {
    "type": "ByteLevel",
    "add_prefix_space": true,
    "trim_offsets": true,
    "use_regex": true
  },
  "model": {
    "type": "BPE",
    "dropout": null,
    "unk_token": "[UNK]",
    "continuing_subword_prefix": null,
    "end_of_word_suffix": null,
    "fuse_unk": false,
    "byte_fallback": false,
    "ignore_merges": false,
    "vocab": {
      "[UNK]": 0,
      "[PAD]": 1,
      "[BOS]": 2,
      "[EOS]": 3,
      "¡": 4,
      "¢": 5,
      "£": 6,
      "¤": 7,
      "¥": 8,
      "¦": 9,
      "§": 10,
      "¨": 11,
      "©": 12,
      "ª": 13,
      "«": 14,
      "¬": 15,
      "®": 16,
      "¯": 17,
      "°": 18,
      "±": 19,
      "²": 20,
      "³": 21,
      "´": 22,
      "µ": 23,
      "¶": 24,
      "·": 25,
      "¸": 26,
      "¹": 27,
      "º": 28,
      "»": 29,
      "¼": 30,
      "½": 31,
      "¾": 32,
      "¿": 33,
      "ã": 34,
      "ä": 35,
      "å": 36,
      "æ": 37,
      "ç": 38,
      "è": 39,
      "é": 40,
      "ï": 41,
      "Ċ": 42,
      "Ģ": 43,
      "ģ": 44,
      "Ĥ": 45,
      "ĥ": 46,
      "Ħ": 47,
      "ħ": 48,
      "Ĩ": 49,
      "ĩ": 50,
      "Ī": 51,
      "ī": 52,
      "Ĭ": 53,
      "ĭ": 54,
      "Į": 55,
      "į": 56,
      "İ": 57,
      "ı": 58,
      "Ĳ": 59,
      "ĳ": 60,
      "Ĵ": 61,
      "ĵ": 62,
      "Ķ": 63,
      "ķ": 64,
      "ĸ": 65,
      "Ĺ": 66,
      "ĺ": 67,
      "Ļ": 68,
      "ļ": 69,
      "Ľ": 70,
      "ľ": 71,
      "Ŀ": 72,
      "ŀ": 73,
      "Ł": 74,
      "ł": 75,
      "Ń": 76,
      "ãĢ": 77,
      "æľ": 78,
      "ä¸": 79,
      "ãĢĤ": 80,
      "ï¼": 81,
      "åŃ": 82,
      "éĥ": 83,
      "åŃĹ": 84,
      "çļ": 85,
      "ï¼Į": 86,
      "çļĦ": 87,
      "åħ": 88,
      "æ°": 89,
      "æľī": 90,
      "æľ¨": 91,
      "ä¸İ": 92,
      "éĥ½": 93,
      "åħ³": 94,
      "å¤": 95,
      "æ±": 96,
      "æľīåħ³": 97,
      "æĹ": 98,
      "æĺ": 99,
      "æ°´": 100,
      "æĺ¯": 101,
      "ä¹": 102,
      "ä»": 103,
      "æµ": 104,
      "Ł³": 105,
      "ãĢģ": 106,
      "éĥ¨": 107,
      "æĹģ": 108,
      "£°": 109,
      "²³": 110,
      "åĪ": 111,
      "åĲ": 112,
      "å£°": 113,
      "æ£": 114,
      "æĿ": 115,
      "æł": 116,
      "æ²³": 117,
      "çģ": 118,
      "çĥ": 119,
      "è¯": 120,
      "çļĦåŃĹ": 121,
      "éĥ½ä¸İ": 122,
      "æłĳ": 123,
      "½¢": 124,
      "å½¢": 125,
      "æ¹": 126,
      "æĪ": 127,
      "æŀ": 128,
      "çĤ": 129,
      "çŁ³": 130,
      "ä¸Ģ": 131,
      "æ°µ": 132,
      "éĥ¨çļĦåŃĹ": 133,
      "çģ«": 134,
      "¤º": 135,
      "æĮ": 136,
      "çĦ": 137,
      "çī": 138,
      "ç¤º": 139,
      "éĩ": 140,
      "éĿ": 141,
      "ħæ": 142,
      "īåŃĹ": 143,
      "ĸæµ": 144,
      "Łæ²³": 145,
      "ä¸ª": 146,
      "ï¼ļ": 147,
      "åŃĹä»": 148,
      "éĥ½åĲ": 149,
      "æ±īåŃĹ": 150,
      "æ±Łæ²³": 151,
      "åĪĨ": 152,
      "å£°æĹģ": 153,
      "çĥ§": 154,
      "æłĳæľ¨": 155,
      "æ¹ĸæµ": 156,
      "åŃĹä»İ": 157,
      "éĥ½åĲ«": 158,
      "æ±Łæ²³æ¹ĸæµ": 159,
      "æ±Łæ²³æ¹ĸæµ·": 160,
      "¦ģ": 161,
      "§å¤": 162,
      "¬å": 163,
      "´ĭ": 164,
      "ºå": 165,
      "ºĲ": 166,
      "»é": 167,
      "»æĺ¯": 168,
      "äº": 169,
      "å¯": 170,
      "å±": 171,
      "åį": 172,
      "åĴ": 173,
      "æ¤": 174,
      "æı": 175,
      "æķ": 176,
      "æĸ": 177,
      "æ´ĭ": 178,
      "æºĲ": 179,
      "ç§": 180,
      "çĩ": 181,
      "çĬ": 182,
      "çĶ": 183,
      "è¿": 184,
      "è¦ģ": 185,
      "é¦": 186,
      "ĥçĥ§": 187,
      "ĦæĪ": 188,
      "įè¦ģ": 189,
      "Ĳç¤º": 190,
      "ļä¸İ": 191,
      "çļĦä¸Ģ": 192,
      "æľ¨æĿ": 193,
      "å¤©": 194,
      "å¤§å¤": 195,
      "æ°´æľīåħ³": 196,
      "ä¹ī": 197,
      "ä¹ĭ": 198,
      "æµģ": 199,
      "åĲį": 200,
      "å£°åŃĹ": 201,
      "æ£®": 202,
      "çĥŃ": 203,
      "è¯Ń": 204,
      "è¯»é": 205,
      "å½¢æĹģ": 206,
      "å½¢å£°åŃĹ": 207,
      "æŀĹ": 208,
      "éĥ¨çļĦåŃĹå¤§å¤": 209,
      "æĮĩ": 210,
      "çĦ°": 211,
      "çī©": 212,
      "éĩįè¦ģ": 213,
      "éĿĴ": 214,
      "æ±Łæ²³æ¹ĸæµ·æ´ĭ": 215,
      "åĴĮ": 216,
      "æıĲç¤º": 217,
      "æĸĩ": 218,
      "çĩĥçĥ§": 219,
      "ĦæĪĲ": 220,
      "æľ¨æĿĲ": 221,
      "è¯»éŁ³": 222,
      "éĥ¨çļĦåŃĹå¤§å¤ļä¸İ": 223,
      "¡¨": 224,
      "¡Į": 225,
      "¡æ²³": 226,
      "¢ģ": 227,
      "¢ä¸": 228,
      "£æ": 229,
      "¤çĤ": 230,
      "¥½": 231,
      "¥æ": 232,
      "¥ä¸": 233,
      "¦ä¹": 234,
      "¨Ģ": 235,
      "¨åŃ": 236,
      "©çŁ³": 237,
      "ªçĦ": 238,
      "«åį": 239,
      "¬çī": 240,
      "¯æĺ¯": 241,
      "¯åŃĹä»İ": 242,
      "°çļĦ": 243,
      "°å¯": 244,
      "±»": 245,
      "±ä¸": 246,
      "±æ£": 247,
      "±å½¢æĹģ": 248,
      "²ä": 249,
      "²åĴĮ": 250,
      "²©çŁ³": 251,
      "³»": 252,
      "³ī": 253,
      "´æ": 254,
      "´ç": 255,
      "´åŃĹä»İ": 256,
      "¶µ": 257,
      "¶è¯Ń": 258,
      "¶²ä": 259,
      "·æľī": 260,
      "·éĿĴ": 261,
      "·¥æ": 262,
      "¸æĺ¯": 263,
      "¸ħæ": 264,
      "¸è¿": 265,
      "¸æĮĩ": 266,
      "¹çļĦ": 267,
      "¹æ°´": 268,
      "ºè": 269,
      "»åħ": 270,
      "»æķ": 271,
      "»ĦæĪĲ": 272,
      "¼çĥŃ": 273,
      "½ĵ": 274,
      "½çļĦä¸Ģ": 275,
      "½ä¹ĭ": 276,
      "¾Ī": 277,
      "¾åĪĨ": 278,
      "¿æ": 279,
      "¿çī©": 280,
      "åĨ": 281,
      "åĮ": 282,
      "åİ": 283,
      "åı": 284,
      "åĳ": 285,
      "å¥½": 286,
      "å²©çŁ³": 287,
      "å¾Ī": 288,
      "æĢ": 289,
      "æĤ": 290,
      "æĶ": 291,
      "æŁ": 292,
      "æ¡Į": 293,
      "æ³ī": 294,
      "æ¶²ä": 295,
      "æ¸ħæ": 296,
      "çħ": 297,
      "çĲ": 298,
      "çĻ": 299,
      "çĽ": 300,
      "çŁ": 301,
      "çł": 302,
      "ç±»": 303,
      "ç³»": 304,
      "ç»ĦæĪĲ": 305,
      "èģ": 306,
      "èĩ": 307,
      "èĬ": 308,
      "è¡¨": 309,
      "è¨Ģ": 310,
      "ģä»": 311,
      "ĥħ": 312,
      "ĥ½çļĦä¸Ģ": 313,
      "ĦçĲ": 314,
      "ħçļĦ": 315,
      "ĨåĪ": 316,
      "ĨéĿ": 317,
      "Ĩåı": 318,
      "ĩåħ³": 319,
      "ĩåŃĹä»İ": 320,
      "īçĤ": 321,
      "Ĭå¤©": 322,
      "ĭ¬çī": 323,
      "ĮçļĦ": 324,
      "įæ£": 325,
      "įé¦": 326,
      "įçī©": 327,
      "İçŁ³": 328,
      "İçĥ§": 329,
      "İ»åħ": 330,
      "ıéĥ½ä¸İ": 331,
      "ĳä»": 332,
      "ĳæĪ": 333,
      "Ķå¾Ī": 334,
      "ĸæĺ¯": 335,
      "ĸåĨ": 336,
      "Ļæľ¨": 337,
      "Ļä¸ª": 338,
      "Ļ¨åŃ": 339,
      "Ļ´æ": 340,
      "Ļºè": 341,
      "ĽŃ": 342,
      "ľæĿ": 343,
      "ľçļĦä¸Ģ": 344,
      "Ŀéĥ½åĲ«": 345,
      "ŀäº": 346,
      "Łåĳ": 347,
      "ŁľæĿ": 348,
      "łæĺ¯": 349,
      "łä¹": 350,
      "łæ±īåŃĹ": 351,
      "Ń¥": 352,
      "ŃæĮĩ": 353,
      "Ńæĸĩ": 354,
      "æľºå": 355,
      "æľ¸æĮĩ": 356,
      "ä¸°å¯": 357,
      "ä¸īçĤ": 358,
      "ä¸Ńæĸĩ": 359,
      "åŃĹæĹģ": 360,
      "çļĦåĲį": 361,
      "çļĦéĩįè¦ģ": 362,
      "åħ«åį": 363,
      "åħ·æľī": 364,
      "æ°Ķå¾Ī": 365,
      "æľīå¯": 366,
      "æľīéĿĴ": 367,
      "æľ¨éĥ¨çļĦåŃĹ": 368,
      "æľ¨èĬ": 369,
      "æľ¨åŃĹæĹģ": 370,
      "ä¸İæ°´": 371,
      "ä¸İæłĳæľ¨": 372,
      "éĥ½å±": 373,
      "å¤´": 374,
      "å¤ĦçĲ": 375,
      "æ±¸æĺ¯": 376,
      "æ±ŃæĮĩ": 377,
      "æľīåħ³çļĦåŃĹ": 378,
      "æľīåħ³èģ": 379,
      "æĹı": 380,
      "æ°´æĺ¯": 381,
      "æ°´æ¹": 382,
      "æ°´åĲį": 383,
      "ä»Ĭå¤©": 384,
      "æµ¯æĺ¯": 385,
      "éĥ¨åĪĨ": 386,
      "éĥ¨é¦": 387,
      "åĪ«": 388,
      "æ£»æĺ¯": 389,
      "æĿ»æĺ¯": 390,
      "æĿ¡æ²³": 391,
      "æ²³æµģ": 392,
      "çģ¼çĥŃ": 393,
      "è¯·éĿĴ": 394,
      "éĥ½ä¸İæ°µ": 395,
      "éĥ½ä¸İæ¤": 396,
      "éĥ½ä¸İæ°´æľīåħ³": 397,
      "éĥ½ä¸İæľ¨åŃĹæĹģ": 398,
      "æłĳæŀ": 399,
      "æłĳæ¡Į": 400,
      "æĪĳä»": 401,
      "æŀĦæĪĲ": 402,
      "çĤĩåŃĹä»İ": 403,
      "çĤİçĥ§": 404,
      "çŁ³å¤´": 405,
      "ä¸Ģä¸ª": 406,
      "ä¸Ģç§": 407,
      "æ°µéĥ¨çļĦåŃĹå¤§å¤ļä¸İ": 408,
      "æ°µä¸īçĤ": 409,
      "éĥ¨çļĦåŃĹæĹı": 410,
      "çģ«çĦ°": 411,
      "çģ«éĥ¨çļĦåŃĹå¤§å¤ļä¸İ": 412,
      "çģ«æľīå¯": 413,
      "æĮĳæĪ": 414,
      "ç¤ºä¸İæ°´": 415,
      "éĩıéĥ½ä¸İ": 416,
      "ħæ¶µ": 417,
      "ħæŁľæĿ": 418,
      "ä¸ªéĩįè¦ģ": 419,
      "æ±īåŃĹçļĦéĩįè¦ģ": 420,
      "æ±īåŃĹåħ·æľī": 421,
      "åĪĨæĶ": 422,
      "å£°æĹģæıĲç¤º": 423,
      "å£°æĹģæŀĦæĪĲ": 424,
      "æłĳæľ¨çļĦåĲį": 425,
      "éĥ½åĲ«æ°µ": 426,
      "éĥ½åĲ«æľīéĿĴ": 427,
      "æ±Łæ²³æ¹ĸæµ·éĥ½ä¸İæ°µ": 428,
      "¬åİ»åħ": 429,
      "¬åĽŃ": 430,
      "ºå·¥æ": 431,
      "äººå·¥æ": 432,
      "å±±ä¸": 433,
      "åįłæ±īåŃĹ": 434,
      "æ¤ħæŁľæĿ": 435,
      "æķ£æ": 436,
      "æºĲæµģ": 437,
      "ç§°": 438,
      "çĬ¬": 439,
      "çĬ´åŃĹä»İ": 440,
      "çĶ±å½¢æĹģ": 441,
      "çĶŁåĳ": 442,
      "è¿Ļä¸ª": 443,
      "å¤©æ°Ķå¾Ī": 444,
      "ä¹īç±»": 445,
      "ä¹ĭåħ«åį": 446,
      "æ£®æŀĹ": 447,
      "æ£®æľ¨æĿĲ": 448,
      "çĥŃéĩıéĥ½ä¸İ": 449,
      "è¯Ńä¹īç±»": 450,
      "å½¢æĹģæıĲç¤º": 451,
      "å½¢å£°åŃĹåįłæ±īåŃĹ": 452,
      "å½¢å£°åŃĹçĶ±å½¢æĹģ": 453,
      "æŀĹæ£®æľ¨æĿĲ": 454,
      "çĦ°çħ": 455,
      "æ±Łæ²³æ¹ĸæµ·æ´ĭæ³ī": 456,
      "æ±Łæ²³æ¹ĸæµ·æ´ĭéĥ½åĲ«æ°µ": 457,
      "åĴĮå£°æĹģæŀĦæĪĲ": 458,
      "æĸĩåĮ": 459,
      "çĩĥçĥ§æľīåħ³": 460,
      "è¯»éŁ³çĽ": 461,
      "¢ģæŁ": 462,
      "¢ä¸´ç": 463,
      "¤çĤŃ": 464,
      "¥ä¸Ĭ": 465,
      "¦ä¹łæĺ¯": 466,
      "ªçĦ¶è¯Ń": 467,
      "¯åŃĹä»İçŁ³": 468,
      "°çļĦçĻ": 469,
      "±æ£įæ£": 470,
      "²åĴĮä¸°å¯": 471,
      "¸è¿ĳ": 472,
      "¹çļĦæĮĳæĪ": 473,
      "¹æ°´è¡¨": 474,
      "»æķ°çļĦçĻ": 475,
      "½ĵæ²³æµģ": 476,
      "½ä¹ĭæºĲ": 477,
      "¾åĪĨä¹ĭåħ«åį": 478,
      "¿æ¢ģæŁ": 479,
      "¿çī©éĥ½å±": 480,
      "åİĨåı": 481,
      "æĢ»æķ°çļĦçĻ": 482,
      "æĤłä¹": 483,
      "æ¶²ä½ĵæ²³æµģ": 484,
      "æ¸ħæĻ´æ": 485,
      "çŁ¿çī©éĥ½å±": 486,
      "çł¯åŃĹä»İçŁ³": 487,
      "ç»ĦæĪĲéĥ¨åĪĨ": 488,
      "èĩªçĦ¶è¯Ń": 489,
      "è¨Ģå¤ĦçĲ": 490,
      "ģä»¥ä¸Ĭ": 491,
      "ĥħè¯·éĿĴ": 492,
      "ĥ½çļĦä¸Ģä¸ªéĩįè¦ģ": 493,
      "ħçļĦåİĨåı": 494,
      "ĨåĪĩåħ³": 495,
      "ĨéĿ¢ä¸´ç": 496,
      "ĭ¬çī¹çļĦæĮĳæĪ": 497,
      "ĮçļĦæĸĩåĮ": 498,
      "įé¦Ļæľ¨": 499,
      "įçī©æľīåħ³": 500,
      "İçŁ³éĥ¨çļĦåŃĹæĹı": 501,
      "ĸæĺ¯æ±īåŃĹçļĦéĩįè¦ģ": 502,
      "ĸåĨħæ¶µ": 503,
      "Ļ¨åŃ¦ä¹łæĺ¯": 504,
      "Ļºèĥ½çļĦä¸Ģä¸ªéĩįè¦ģ": 505,
      "ľçļĦä¸ĢæĿ¡æ²³": 506,
      "Ŀéĥ½åĲ«æľ¨": 507,
      "ŀäºİçŁ³éĥ¨çļĦåŃĹæĹı": 508,
      "æľºåĻ¨åŃ¦ä¹łæĺ¯": 509,
      "æľ¸æĮĩæľ¨èĬ": 510,
      "ä¸ŃæĸĩèĩªçĦ¶è¯Ń": 511,
      "æľ¨éĥ¨çļĦåŃĹä¸İæłĳæľ¨": 512,
      "æ±¸æĺ¯ä¸Ģä¸ª": 513,
      "æ±ŃæĮĩæ°´æ¹": 514,
      "æľīåħ³çļĦåŃĹä¹ī": 515,
      "æľīåħ³èģĶ": 516,
      "æ°´æĺ¯çĶŁåĳ": 517,
      "ä»Ĭå¤©å¤©æ°Ķå¾Ī": 518,
      "æµ¯æĺ¯å±±ä¸": 519,
      "éĥ¨é¦ĸæĺ¯æ±īåŃĹçļĦéĩįè¦ģ": 520,
      "æ£»æĺ¯ä¸Ģç§": 521,
      "æĿ»æĺ¯æłĳæľ¨çļĦåĲį": 522,
      "çģ¼çĥŃçĦ°çħ": 523,
      "éĥ½ä¸İæ¤įçī©æľīåħ³": 524,
      "éĥ½ä¸İæľ¨åŃĹæĹģæľīåħ³èģĶ": 525,
      "æłĳæŀĿéĥ½åĲ«æľ¨": 526,
      "æłĳæ¡Įæ¤ħæŁľæĿ": 527,
      "æĪĳä»¬åİ»åħ": 528,
      "çĤĩåŃĹä»İçģ«": 529,
      "çĤİçĥ§çģ¼çĥŃçĦ°çħ": 530,
      "æ°µéĥ¨çļĦåŃĹå¤§å¤ļä¸İæ°´æľīåħ³": 531,
      "æ°µä¸īçĤ¹æ°´è¡¨": 532,
      "çģ«éĥ¨çļĦåŃĹå¤§å¤ļä¸İçĩĥçĥ§æľīåħ³": 533,
      "çģ«æľīå¯ĨåĪĩåħ³": 534,
      "ç¤ºä¸İæ°´æ¶²ä½ĵæ²³æµģ": 535,
      "æ±īåŃĹåħ·æľīæĤłä¹": 536,
      "åĪĨæĶ¯": 537,
      "å£°æĹģæıĲç¤ºè¯»éŁ³": 538,
      "éĥ½åĲ«æľīéĿĴè¿Ļä¸ª": 539,
      "æ±Łæ²³æ¹ĸæµ·éĥ½ä¸İæ°µæľīåħ³": 540,
      "¬åĽŃæķ£æ": 541,
      "äººå·¥æĻºèĥ½çļĦä¸Ģä¸ªéĩįè¦ģ": 542,
      "çĬ´åŃĹä»İçĬ¬": 543,
      "æ£®æŀĹéĥ½ä¸İæľ¨åŃĹæĹģæľīåħ³èģĶ": 544,
      "çĥŃéĩıéĥ½ä¸İçģ«æľīå¯ĨåĪĩåħ³": 545,
      "è¯Ńä¹īç±»åĪ«": 546,
      "å½¢æĹģæıĲç¤ºè¯Ńä¹īç±»åĪ«": 547,
      "å½¢å£°åŃĹåįłæ±īåŃĹæĢ»æķ°çļĦçĻ": 548,
      "å½¢å£°åŃĹçĶ±å½¢æĹģåĴĮå£°æĹģæŀĦæĪĲ": 549,
      "æŀĹæ£®æľ¨æĿĲæłĳæŀĿéĥ½åĲ«æľ¨": 550,
      "æ±Łæ²³æ¹ĸæµ·æ´ĭæ³īæºĲæµģ": 551,
      "è¯»éŁ³çĽ¸è¿ĳ": 552,
      "±æ£įæ£Ĵ": 553,
      "²åĴĮä¸°å¯ĮçļĦæĸĩåĮ": 554,
      "¾åĪĨä¹ĭåħ«åįģä»¥ä¸Ĭ": 555,
      "¿æ¢ģæŁ±æ£įæ£Ĵ": 556,
      "æ¸ħæĻ´æĥħè¯·éĿĴ": 557,
      "çŁ¿çī©éĥ½å±ŀäºİçŁ³éĥ¨çļĦåŃĹæĹı": 558,
      "è¨Ģå¤ĦçĲĨéĿ¢ä¸´ç": 559,
      "ħçļĦåİĨåı²åĴĮä¸°å¯ĮçļĦæĸĩåĮ": 560,
      "ĭ¬çī¹çļĦæĮĳæĪĺ": 561,
      "æľºåĻ¨åŃ¦ä¹łæĺ¯äººå·¥æĻºèĥ½çļĦä¸Ģä¸ªéĩįè¦ģ": 562,
      "æľ¸æĮĩæľ¨èĬĤ": 563,
      "ä¸ŃæĸĩèĩªçĦ¶è¯Ńè¨Ģå¤ĦçĲĨéĿ¢ä¸´ç": 564,
      "æľ¨éĥ¨çļĦåŃĹä¸İæłĳæľ¨æľīåħ³": 565,
      "æ±¸æĺ¯ä¸Ģä¸ªæ°´åĲį": 566,
      "æ±ŃæĮĩæ°´æ¹¾": 567,
      "æ°´æĺ¯çĶŁåĳ½ä¹ĭæºĲ": 568,
      "ä»Ĭå¤©å¤©æ°Ķå¾Īå¥½": 569,
      "æµ¯æĺ¯å±±ä¸ľçļĦä¸ĢæĿ¡æ²³": 570,
      "éĥ¨é¦ĸæĺ¯æ±īåŃĹçļĦéĩįè¦ģç»ĦæĪĲéĥ¨åĪĨ": 571,
      "æ£»æĺ¯ä¸Ģç§įé¦Ļæľ¨": 572,
      "æĿ»æĺ¯æłĳæľ¨çļĦåĲįç§°": 573,
      "æłĳæ¡Įæ¤ħæŁľæĿ¿æ¢ģæŁ±æ£įæ£Ĵ": 574,
      "æĪĳä»¬åİ»åħ¬åĽŃæķ£æ": 575,
      "çĤİçĥ§çģ¼çĥŃçĦ°çħ¤çĤŃ": 576,
      "æ°µä¸īçĤ¹æ°´è¡¨ç¤ºä¸İæ°´æ¶²ä½ĵæ²³æµģ": 577,
      "æ±īåŃĹåħ·æľīæĤłä¹ħçļĦåİĨåı²åĴĮä¸°å¯ĮçļĦæĸĩåĮ": 578,
      "éĥ½åĲ«æľīéĿĴè¿Ļä¸ªå£°æĹģ": 579,
      "çĥŃéĩıéĥ½ä¸İçģ«æľīå¯ĨåĪĩåħ³ç³»": 580,
      "å½¢å£°åŃĹåįłæ±īåŃĹæĢ»æķ°çļĦçĻ¾åĪĨä¹ĭåħ«åįģä»¥ä¸Ĭ": 581,
      "æ¸ħæĻ´æĥħè¯·éĿĴéĥ½åĲ«æľīéĿĴè¿Ļä¸ªå£°æĹģ": 582,
      "æľºåĻ¨åŃ¦ä¹łæĺ¯äººå·¥æĻºèĥ½çļĦä¸Ģä¸ªéĩįè¦ģåĪĨæĶ¯": 583,
      "ä¸ŃæĸĩèĩªçĦ¶è¯Ńè¨Ģå¤ĦçĲĨéĿ¢ä¸´çĭ¬çī¹çļĦæĮĳæĪĺ": 584,
      "æĪĳä»¬åİ»åħ¬åĽŃæķ£æŃ¥": 585,
      "æ°µä¸īçĤ¹æ°´è¡¨ç¤ºä¸İæ°´æ¶²ä½ĵæ²³æµģæľīåħ³çļĦåŃĹä¹ī": 586,
      "æ±īåŃĹåħ·æľīæĤłä¹ħçļĦåİĨåı²åĴĮä¸°å¯ĮçļĦæĸĩåĮĸåĨħæ¶µ": 587
    },
    "merges": [
      [
        "ã",
        "Ģ"
      ],
      [
        "æ",
        "ľ"
      ],
      [
        "ä",
        "¸"
      ],
      [
        "ãĢ",
        "Ĥ"
      ],
      [
        "ï",
        "¼"
      ],
      [
        "å",
        "Ń"
      ],
      [
        "é",
        "ĥ"
      ],
      [
        "åŃ",
        "Ĺ"
      ],
      [
        "ç",
        "ļ"
      ],
      [
        "ï¼",
        "Į"
      ],
      [
        "çļ",
        "Ħ"
      ],
      [
        "å",
        "ħ"
      ],
      [
        "æ",
        "°"
      ],
      [
        "æľ",
        "ī"
      ],
      [
        "æľ",
        "¨"
      ],
      [
        "ä¸",
        "İ"
      ],
      [
        "éĥ",
        "½"
      ],
      [
        "åħ",
        "³"
      ],
      [
        "å",
        "¤"
      ],
      [
        "æ",
        "±"
      ],
      [
        "æľī",
        "åħ³"
      ],
      [
        "æ",
        "Ĺ"
      ],
      [
        "æ",
        "ĺ"
      ],
      [
        "æ°",
        "´"
      ],
      [
        "æĺ",
        "¯"
      ],
      [
        "ä",
        "¹"
      ],
      [
        "ä",
        "»"
      ],
      [
        "æ",
        "µ"
      ],
      [
        "Ł",
        "³"
      ],
      [
        "ãĢ",
        "ģ"
      ],
      [
        "éĥ",
        "¨"
      ],
      [
        "æĹ",
        "ģ"
      ],
      [
        "£",
        "°"
      ],
      [
        "²",
        "³"
      ],
      [
        "å",
        "Ī"
      ],
      [
        "å",
        "Ĳ"
      ],
      [
        "å",
        "£°"
      ],
      [
        "æ",
        "£"
      ],
      [
        "æ",
        "Ŀ"
      ],
      [
        "æ",
        "ł"
      ],
      [
        "æ",
        "²³"
      ],
      [
        "ç",
        "ģ"
      ],
      [
        "ç",
        "ĥ"
      ],
      [
        "è",
        "¯"
      ],
      [
        "çļĦ",
        "åŃĹ"
      ],
      [
        "éĥ½",
        "ä¸İ"
      ],
      [
        "æł",
        "ĳ"
      ],
      [
        "½",
        "¢"
      ],
      [
        "å",
        "½¢"
      ],
      [
        "æ",
        "¹"
      ],
      [
        "æ",
        "Ī"
      ],
      [
        "æ",
        "ŀ"
      ],
      [
        "ç",
        "Ĥ"
      ],
      [
        "ç",
        "Ł³"
      ],
      [
        "ä¸",
        "Ģ"
      ],
      [
        "æ°",
        "µ"
      ],
      [
        "éĥ¨",
        "çļĦåŃĹ"
      ],
      [
        "çģ",
        "«"
      ],
      [
        "¤",
        "º"
      ],
      [
        "æ",
        "Į"
      ],
      [
        "ç",
        "Ħ"
      ],
      [
        "ç",
        "ī"
      ],
      [
        "ç",
        "¤º"
      ],
      [
        "é",
        "ĩ"
      ],
      [
        "é",
        "Ŀ"
      ],
      [
        "ħ",
        "æ"
      ],
      [
        "ī",
        "åŃĹ"
      ],
      [
        "ĸ",
        "æµ"
      ],
      [
        "Ł",
        "æ²³"
      ],
      [
        "ä¸",
        "ª"
      ],
      [
        "ï¼",
        "ļ"
      ],
      [
        "åŃĹ",
        "ä»"
      ],
      [
        "éĥ½",
        "åĲ"
      ],
      [
        "æ±",
        "īåŃĹ"
      ],
      [
        "æ±",
        "Łæ²³"
      ],
      [
        "åĪ",
        "Ĩ"
      ],
      [
        "å£°",
        "æĹģ"
      ],
      [
        "çĥ",
        "§"
      ],
      [
        "æłĳ",
        "æľ¨"
      ],
      [
        "æ¹",
        "ĸæµ"
      ],
      [
        "åŃĹä»",
        "İ"
      ],
      [
        "éĥ½åĲ",
        "«"
      ],
      [
        "æ±Łæ²³",
        "æ¹ĸæµ"
      ],
      [
        "æ±Łæ²³æ¹ĸæµ",
        "·"
      ],
      [
        "¦",
        "ģ"
      ],
      [
        "§",
        "å¤"
      ],
      [
        "¬",
        "å"
      ],
      [
        "´",
        "ĭ"
      ],
      [
        "º",
        "å"
      ],
      [
        "º",
        "Ĳ"
      ],
      [
        "»",
        "é"
      ],
      [
        "»",
        "æĺ¯"
      ],
      [
        "ä",
        "º"
      ],
      [
        "å",
        "¯"
      ],
      [
        "å",
        "±"
      ],
      [
        "å",
        "į"
      ],
      [
        "å",
        "Ĵ"
      ],
      [
        "æ",
        "¤"
      ],
      [
        "æ",
        "ı"
      ],
      [
        "æ",
        "ķ"
      ],
      [
        "æ",
        "ĸ"
      ],
      [
        "æ",
        "´ĭ"
      ],
      [
        "æ",
        "ºĲ"
      ],
      [
        "ç",
        "§"
      ],
      [
        "ç",
        "ĩ"
      ],
      [
        "ç",
        "Ĭ"
      ],
      [
        "ç",
        "Ķ"
      ],
      [
        "è",
        "¿"
      ],
      [
        "è",
        "¦ģ"
      ],
      [
        "é",
        "¦"
      ],
      [
        "ĥ",
        "çĥ§"
      ],
      [
        "Ħ",
        "æĪ"
      ],
      [
        "į",
        "è¦ģ"
      ],
      [
        "Ĳ",
        "ç¤º"
      ],
      [
        "ļ",
        "ä¸İ"
      ],
      [
        "çļĦ",
        "ä¸Ģ"
      ],
      [
        "æľ¨",
        "æĿ"
      ],
      [
        "å¤",
        "©"
      ],
      [
        "å¤",
        "§å¤"
      ],
      [
        "æ°´",
        "æľīåħ³"
      ],
      [
        "ä¹",
        "ī"
      ],
      [
        "ä¹",
        "ĭ"
      ],
      [
        "æµ",
        "ģ"
      ],
      [
        "åĲ",
        "į"
      ],
      [
        "å£°",
        "åŃĹ"
      ],
      [
        "æ£",
        "®"
      ],
      [
        "çĥ",
        "Ń"
      ],
      [
        "è¯",
        "Ń"
      ],
      [
        "è¯",
        "»é"
      ],
      [
        "å½¢",
        "æĹģ"
      ],
      [
        "å½¢",
        "å£°åŃĹ"
      ],
      [
        "æŀ",
        "Ĺ"
      ],
      [
        "éĥ¨çļĦåŃĹ",
        "å¤§å¤"
      ],
      [
        "æĮ",
        "ĩ"
      ],
      [
        "çĦ",
        "°"
      ],
      [
        "çī",
        "©"
      ],
      [
        "éĩ",
        "įè¦ģ"
      ],
      [
        "éĿ",
        "Ĵ"
      ],
      [
        "æ±Łæ²³æ¹ĸæµ·",
        "æ´ĭ"
      ],
      [
        "åĴ",
        "Į"
      ],
      [
        "æı",
        "Ĳç¤º"
      ],
      [
        "æĸ",
        "ĩ"
      ],
      [
        "çĩ",
        "ĥçĥ§"
      ],
      [
        "ĦæĪ",
        "Ĳ"
      ],
      [
        "æľ¨æĿ",
        "Ĳ"
      ],
      [
        "è¯»é",
        "Ł³"
      ],
      [
        "éĥ¨çļĦåŃĹå¤§å¤",
        "ļä¸İ"
      ],
      [
        "¡",
        "¨"
      ],
      [
        "¡",
        "Į"
      ],
      [
        "¡",
        "æ²³"
      ],
      [
        "¢",
        "ģ"
      ],
      [
        "¢",
        "ä¸"
      ],
      [
        "£",
        "æ"
      ],
      [
        "¤",
        "çĤ"
      ],
      [
        "¥",
        "½"
      ],
      [
        "¥",
        "æ"
      ],
      [
        "¥",
        "ä¸"
      ],
      [
        "¦",
        "ä¹"
      ],
      [
        "¨",
        "Ģ"
      ],
      [
        "¨",
        "åŃ"
      ],
      [
        "©",
        "çŁ³"
      ],
      [
        "ª",
        "çĦ"
      ],
      [
        "«",
        "åį"
      ],
      [
        "¬",
        "çī"
      ],
      [
        "¯",
        "æĺ¯"
      ],
      [
        "¯",
        "åŃĹä»İ"
      ],
      [
        "°",
        "çļĦ"
      ],
      [
        "°",
        "å¯"
      ],
      [
        "±",
        "»"
      ],
      [
        "±",
        "ä¸"
      ],
      [
        "±",
        "æ£"
      ],
      [
        "±",
        "å½¢æĹģ"
      ],
      [
        "²",
        "ä"
      ],
      [
        "²",
        "åĴĮ"
      ],
      [
        "²",
        "©çŁ³"
      ],
      [
        "³",
        "»"
      ],
      [
        "³",
        "ī"
      ],
      [
        "´",
        "æ"
      ],
      [
        "´",
        "ç"
      ],
      [
        "´",
        "åŃĹä»İ"
      ],
      [
        "¶",
        "µ"
      ],
      [
        "¶",
        "è¯Ń"
      ],
      [
        "¶",
        "²ä"
      ],
      [
        "·",
        "æľī"
      ],
      [
        "·",
        "éĿĴ"
      ],
      [
        "·",
        "¥æ"
      ],
      [
        "¸",
        "æĺ¯"
      ],
      [
        "¸",
        "ħæ"
      ],
      [
        "¸",
        "è¿"
      ],
      [
        "¸",
        "æĮĩ"
      ],
      [
        "¹",
        "çļĦ"
      ],
      [
        "¹",
        "æ°´"
      ],
      [
        "º",
        "è"
      ],
      [
        "»",
        "åħ"
      ],
      [
        "»",
        "æķ"
      ],
      [
        "»",
        "ĦæĪĲ"
      ],
      [
        "¼",
        "çĥŃ"
      ],
      [
        "½",
        "ĵ"
      ],
      [
        "½",
        "çļĦä¸Ģ"
      ],
      [
        "½",
        "ä¹ĭ"
      ],
      [
        "¾",
        "Ī"
      ],
      [
        "¾",
        "åĪĨ"
      ],
      [
        "¿",
        "æ"
      ],
      [
        "¿",
        "çī©"
      ],
      [
        "å",
        "Ĩ"
      ],
      [
        "å",
        "Į"
      ],
      [
        "å",
        "İ"
      ],
      [
        "å",
        "ı"
      ],
      [
        "å",
        "ĳ"
      ],
      [
        "å",
        "¥½"
      ],
      [
        "å",
        "²©çŁ³"
      ],
      [
        "å",
        "¾Ī"
      ],
      [
        "æ",
        "Ģ"
      ],
      [
        "æ",
        "Ĥ"
      ],
      [
        "æ",
        "Ķ"
      ],
      [
        "æ",
        "Ł"
      ],
      [
        "æ",
        "¡Į"
      ],
      [
        "æ",
        "³ī"
      ],
      [
        "æ",
        "¶²ä"
      ],
      [
        "æ",
        "¸ħæ"
      ],
      [
        "ç",
        "ħ"
      ],
      [
        "ç",
        "Ĳ"
      ],
      [
        "ç",
        "Ļ"
      ],
      [
        "ç",
        "Ľ"
      ],
      [
        "ç",
        "Ł"
      ],
      [
        "ç",
        "ł"
      ],
      [
        "ç",
        "±»"
      ],
      [
        "ç",
        "³»"
      ],
      [
        "ç",
        "»ĦæĪĲ"
      ],
      [
        "è",
        "ģ"
      ],
      [
        "è",
        "ĩ"
      ],
      [
        "è",
        "Ĭ"
      ],
      [
        "è",
        "¡¨"
      ],
      [
        "è",
        "¨Ģ"
      ],
      [
        "ģ",
        "ä»"
      ],
      [
        "ĥ",
        "ħ"
      ],
      [
        "ĥ",
        "½çļĦä¸Ģ"
      ],
      [
        "Ħ",
        "çĲ"
      ],
      [
        "ħ",
        "çļĦ"
      ],
      [
        "Ĩ",
        "åĪ"
      ],
      [
        "Ĩ",
        "éĿ"
      ],
      [
        "Ĩ",
        "åı"
      ],
      [
        "ĩ",
        "åħ³"
      ],
      [
        "ĩ",
        "åŃĹä»İ"
      ],
      [
        "ī",
        "çĤ"
      ],
      [
        "Ĭ",
        "å¤©"
      ],
      [
        "ĭ",
        "¬çī"
      ],
      [
        "Į",
        "çļĦ"
      ],
      [
        "į",
        "æ£"
      ],
      [
        "į",
        "é¦"
      ],
      [
        "į",
        "çī©"
      ],
      [
        "İ",
        "çŁ³"
      ],
      [
        "İ",
        "çĥ§"
      ],
      [
        "İ",
        "»åħ"
      ],
      [
        "ı",
        "éĥ½ä¸İ"
      ],
      [
        "ĳ",
        "ä»"
      ],
      [
        "ĳ",
        "æĪ"
      ],
      [
        "Ķ",
        "å¾Ī"
      ],
      [
        "ĸ",
        "æĺ¯"
      ],
      [
        "ĸ",
        "åĨ"
      ],
      [
        "Ļ",
        "æľ¨"
      ],
      [
        "Ļ",
        "ä¸ª"
      ],
      [
        "Ļ",
        "¨åŃ"
      ],
      [
        "Ļ",
        "´æ"
      ],
      [
        "Ļ",
        "ºè"
      ],
      [
        "Ľ",
        "Ń"
      ],
      [
        "ľ",
        "æĿ"
      ],
      [
        "ľ",
        "çļĦä¸Ģ"
      ],
      [
        "Ŀ",
        "éĥ½åĲ«"
      ],
      [
        "ŀ",
        "äº"
      ],
      [
        "Ł",
        "åĳ"
      ],
      [
        "Ł",
        "ľæĿ"
      ],
      [
        "ł",
        "æĺ¯"
      ],
      [
        "ł",
        "ä¹"
      ],
      [
        "ł",
        "æ±īåŃĹ"
      ],
      [
        "Ń",
        "¥"
      ],
      [
        "Ń",
        "æĮĩ"
      ],
      [
        "Ń",
        "æĸĩ"
      ],
      [
        "æľ",
        "ºå"
      ],
      [
        "æľ",
        "¸æĮĩ"
      ],
      [
        "ä¸",
        "°å¯"
      ],
      [
        "ä¸",
        "īçĤ"
      ],
      [
        "ä¸",
        "Ńæĸĩ"
      ],
      [
        "åŃĹ",
        "æĹģ"
      ],
      [
        "çļĦ",
        "åĲį"
      ],
      [
        "çļĦ",
        "éĩįè¦ģ"
      ],
      [
        "åħ",
        "«åį"
      ],
      [
        "åħ",
        "·æľī"
      ],
      [
        "æ°",
        "Ķå¾Ī"
      ],
      [
        "æľī",
        "å¯"
      ],
      [
        "æľī",
        "éĿĴ"
      ],
      [
        "æľ¨",
        "éĥ¨çļĦåŃĹ"
      ],
      [
        "æľ¨",
        "èĬ"
      ],
      [
        "æľ¨",
        "åŃĹæĹģ"
      ],
      [
        "ä¸İ",
        "æ°´"
      ],
      [
        "ä¸İ",
        "æłĳæľ¨"
      ],
      [
        "éĥ½",
        "å±"
      ],
      [
        "å¤",
        "´"
      ],
      [
        "å¤",
        "ĦçĲ"
      ],
      [
        "æ±",
        "¸æĺ¯"
      ],
      [
        "æ±",
        "ŃæĮĩ"
      ],
      [
        "æľīåħ³",
        "çļĦåŃĹ"
      ],
      [
        "æľīåħ³",
        "èģ"
      ],
      [
        "æĹ",
        "ı"
      ],
      [
        "æ°´",
        "æĺ¯"
      ],
      [
        "æ°´",
        "æ¹"
      ],
      [
        "æ°´",
        "åĲį"
      ],
      [
        "ä»",
        "Ĭå¤©"
      ],
      [
        "æµ",
        "¯æĺ¯"
      ],
      [
        "éĥ¨",
        "åĪĨ"
      ],
      [
        "éĥ¨",
        "é¦"
      ],
      [
        "åĪ",
        "«"
      ],
      [
        "æ£",
        "»æĺ¯"
      ],
      [
        "æĿ",
        "»æĺ¯"
      ],
      [
        "æĿ",
        "¡æ²³"
      ],
      [
        "æ²³",
        "æµģ"
      ],
      [
        "çģ",
        "¼çĥŃ"
      ],
      [
        "è¯",
        "·éĿĴ"
      ],
      [
        "éĥ½ä¸İ",
        "æ°µ"
      ],
      [
        "éĥ½ä¸İ",
        "æ¤"
      ],
      [
        "éĥ½ä¸İ",
        "æ°´æľīåħ³"
      ],
      [
        "éĥ½ä¸İ",
        "æľ¨åŃĹæĹģ"
      ],
      [
        "æłĳ",
        "æŀ"
      ],
      [
        "æłĳ",
        "æ¡Į"
      ],
      [
        "æĪ",
        "ĳä»"
      ],
      [
        "æŀ",
        "ĦæĪĲ"
      ],
      [
        "çĤ",
        "ĩåŃĹä»İ"
      ],
      [
        "çĤ",
        "İçĥ§"
      ],
      [
        "çŁ³",
        "å¤´"
      ],
      [
        "ä¸Ģ",
        "ä¸ª"
      ],
      [
        "ä¸Ģ",
        "ç§"
      ],
      [
        "æ°µ",
        "éĥ¨çļĦåŃĹå¤§å¤ļä¸İ"
      ],
      [
        "æ°µ",
        "ä¸īçĤ"
      ],
      [
        "éĥ¨çļĦåŃĹ",
        "æĹı"
      ],
      [
        "çģ«",
        "çĦ°"
      ],
      [
        "çģ«",
        "éĥ¨çļĦåŃĹå¤§å¤ļä¸İ"
      ],
      [
        "çģ«",
        "æľīå¯"
      ],
      [
        "æĮ",
        "ĳæĪ"
      ],
      [
        "ç¤º",
        "ä¸İæ°´"
      ],
      [
        "éĩ",
        "ıéĥ½ä¸İ"
      ],
      [
        "ħæ",
        "¶µ"
      ],
      [
        "ħæ",
        "ŁľæĿ"
      ],
      [
        "ä¸ª",
        "éĩįè¦ģ"
      ],
      [
        "æ±īåŃĹ",
        "çļĦéĩįè¦ģ"
      ],
      [
        "æ±īåŃĹ",
        "åħ·æľī"
      ],
      [
        "åĪĨ",
        "æĶ"
      ],
      [
        "å£°æĹģ",
        "æıĲç¤º"
      ],
      [
        "å£°æĹģ",
        "æŀĦæĪĲ"
      ],
      [
        "æłĳæľ¨",
        "çļĦåĲį"
      ],
      [
        "éĥ½åĲ«",
        "æ°µ"
      ],
      [
        "éĥ½åĲ«",
        "æľīéĿĴ"
      ],
      [
        "æ±Łæ²³æ¹ĸæµ·",
        "éĥ½ä¸İæ°µ"
      ],
      [
        "¬å",
        "İ»åħ"
      ],
      [
        "¬å",
        "ĽŃ"
      ],
      [
        "ºå",
        "·¥æ"
      ],
      [
        "äº",
        "ºå·¥æ"
      ],
      [
        "å±",
        "±ä¸"
      ],
      [
        "åį",
        "łæ±īåŃĹ"
      ],
      [
        "æ¤",
        "ħæŁľæĿ"
      ],
      [
        "æķ",
        "£æ"
      ],
      [
        "æºĲ",
        "æµģ"
      ],
      [
        "ç§",
        "°"
      ],
      [
        "çĬ",
        "¬"
      ],
      [
        "çĬ",
        "´åŃĹä»İ"
      ],
      [
        "çĶ",
        "±å½¢æĹģ"
      ],
      [
        "çĶ",
        "Łåĳ"
      ],
      [
        "è¿",
        "Ļä¸ª"
      ],
      [
        "å¤©",
        "æ°Ķå¾Ī"
      ],
      [
        "ä¹ī",
        "ç±»"
      ],
      [
        "ä¹ĭ",
        "åħ«åį"
      ],
      [
        "æ£®",
        "æŀĹ"
      ],
      [
        "æ£®",
        "æľ¨æĿĲ"
      ],
      [
        "çĥŃ",
        "éĩıéĥ½ä¸İ"
      ],
      [
        "è¯Ń",
        "ä¹īç±»"
      ],
      [
        "å½¢æĹģ",
        "æıĲç¤º"
      ],
      [
        "å½¢å£°åŃĹ",
        "åįłæ±īåŃĹ"
      ],
      [
        "å½¢å£°åŃĹ",
        "çĶ±å½¢æĹģ"
      ],
      [
        "æŀĹ",
        "æ£®æľ¨æĿĲ"
      ],
      [
        "çĦ°",
        "çħ"
      ],
      [
        "æ±Łæ²³æ¹ĸæµ·æ´ĭ",
        "æ³ī"
      ],
      [
        "æ±Łæ²³æ¹ĸæµ·æ´ĭ",
        "éĥ½åĲ«æ°µ"
      ],
      [
        "åĴĮ",
        "å£°æĹģæŀĦæĪĲ"
      ],
      [
        "æĸĩ",
        "åĮ"
      ],
      [
        "çĩĥçĥ§",
        "æľīåħ³"
      ],
      [
        "è¯»éŁ³",
        "çĽ"
      ],
      [
        "¢ģ",
        "æŁ"
      ],
      [
        "¢ä¸",
        "´ç"
      ],
      [
        "¤çĤ",
        "Ń"
      ],
      [
        "¥ä¸",
        "Ĭ"
      ],
      [
        "¦ä¹",
        "łæĺ¯"
      ],
      [
        "ªçĦ",
        "¶è¯Ń"
      ],
      [
        "¯åŃĹä»İ",
        "çŁ³"
      ],
      [
        "°çļĦ",
        "çĻ"
      ],
      [
        "±æ£",
        "įæ£"
      ],
      [
        "²åĴĮ",
        "ä¸°å¯"
      ],
      [
        "¸è¿",
        "ĳ"
      ],
      [
        "¹çļĦ",
        "æĮĳæĪ"
      ],
      [
        "¹æ°´",
        "è¡¨"
      ],
      [
        "»æķ",
        "°çļĦçĻ"
      ],
      [
        "½ĵ",
        "æ²³æµģ"
      ],
      [
        "½ä¹ĭ",
        "æºĲ"
      ],
      [
        "¾åĪĨ",
        "ä¹ĭåħ«åį"
      ],
      [
        "¿æ",
        "¢ģæŁ"
      ],
      [
        "¿çī©",
        "éĥ½å±"
      ],
      [
        "åİ",
        "Ĩåı"
      ],
      [
        "æĢ",
        "»æķ°çļĦçĻ"
      ],
      [
        "æĤ",
        "łä¹"
      ],
      [
        "æ¶²ä",
        "½ĵæ²³æµģ"
      ],
      [
        "æ¸ħæ",
        "Ļ´æ"
      ],
      [
        "çŁ",
        "¿çī©éĥ½å±"
      ],
      [
        "çł",
        "¯åŃĹä»İçŁ³"
      ],
      [
        "ç»ĦæĪĲ",
        "éĥ¨åĪĨ"
      ],
      [
        "èĩ",
        "ªçĦ¶è¯Ń"
      ],
      [
        "è¨Ģ",
        "å¤ĦçĲ"
      ],
      [
        "ģä»",
        "¥ä¸Ĭ"
      ],
      [
        "ĥħ",
        "è¯·éĿĴ"
      ],
      [
        "ĥ½çļĦä¸Ģ",
        "ä¸ªéĩįè¦ģ"
      ],
      [
        "ħçļĦ",
        "åİĨåı"
      ],
      [
        "ĨåĪ",
        "ĩåħ³"
      ],
      [
        "ĨéĿ",
        "¢ä¸´ç"
      ],
      [
        "ĭ¬çī",
        "¹çļĦæĮĳæĪ"
      ],
      [
        "ĮçļĦ",
        "æĸĩåĮ"
      ],
      [
        "įé¦",
        "Ļæľ¨"
      ],
      [
        "įçī©",
        "æľīåħ³"
      ],
      [
        "İçŁ³",
        "éĥ¨çļĦåŃĹæĹı"
      ],
      [
        "ĸæĺ¯",
        "æ±īåŃĹçļĦéĩįè¦ģ"
      ],
      [
        "ĸåĨ",
        "ħæ¶µ"
      ],
      [
        "Ļ¨åŃ",
        "¦ä¹łæĺ¯"
      ],
      [
        "Ļºè",
        "ĥ½çļĦä¸Ģä¸ªéĩįè¦ģ"
      ],
      [
        "ľçļĦä¸Ģ",
        "æĿ¡æ²³"
      ],
      [
        "Ŀéĥ½åĲ«",
        "æľ¨"
      ],
      [
        "ŀäº",
        "İçŁ³éĥ¨çļĦåŃĹæĹı"
      ],
      [
        "æľºå",
        "Ļ¨åŃ¦ä¹łæĺ¯"
      ],
      [
        "æľ¸æĮĩ",
        "æľ¨èĬ"
      ],
      [
        "ä¸Ńæĸĩ",
        "èĩªçĦ¶è¯Ń"
      ],
      [
        "æľ¨éĥ¨çļĦåŃĹ",
        "ä¸İæłĳæľ¨"
      ],
      [
        "æ±¸æĺ¯",
        "ä¸Ģä¸ª"
      ],
      [
        "æ±ŃæĮĩ",
        "æ°´æ¹"
      ],
      [
        "æľīåħ³çļĦåŃĹ",
        "ä¹ī"
      ],
      [
        "æľīåħ³èģ",
        "Ķ"
      ],
      [
        "æ°´æĺ¯",
        "çĶŁåĳ"
      ],
      [
        "ä»Ĭå¤©",
        "å¤©æ°Ķå¾Ī"
      ],
      [
        "æµ¯æĺ¯",
        "å±±ä¸"
      ],
      [
        "éĥ¨é¦",
        "ĸæĺ¯æ±īåŃĹçļĦéĩįè¦ģ"
      ],
      [
        "æ£»æĺ¯",
        "ä¸Ģç§"
      ],
      [
        "æĿ»æĺ¯",
        "æłĳæľ¨çļĦåĲį"
      ],
      [
        "çģ¼çĥŃ",
        "çĦ°çħ"
      ],
      [
        "éĥ½ä¸İæ¤",
        "įçī©æľīåħ³"
      ],
      [
        "éĥ½ä¸İæľ¨åŃĹæĹģ",
        "æľīåħ³èģĶ"
      ],
      [
        "æłĳæŀ",
        "Ŀéĥ½åĲ«æľ¨"
      ],
      [
        "æłĳæ¡Į",
        "æ¤ħæŁľæĿ"
      ],
      [
        "æĪĳä»",
        "¬åİ»åħ"
      ],
      [
        "çĤĩåŃĹä»İ",
        "çģ«"
      ],
      [
        "çĤİçĥ§",
        "çģ¼çĥŃçĦ°çħ"
      ],
      [
        "æ°µéĥ¨çļĦåŃĹå¤§å¤ļä¸İ",
        "æ°´æľīåħ³"
      ],
      [
        "æ°µä¸īçĤ",
        "¹æ°´è¡¨"
      ],
      [
        "çģ«éĥ¨çļĦåŃĹå¤§å¤ļä¸İ",
        "çĩĥçĥ§æľīåħ³"
      ],
      [
        "çģ«æľīå¯",
        "ĨåĪĩåħ³"
      ],
      [
        "ç¤ºä¸İæ°´",
        "æ¶²ä½ĵæ²³æµģ"
      ],
      [
        "æ±īåŃĹåħ·æľī",
        "æĤłä¹"
      ],
      [
        "åĪĨæĶ",
        "¯"
      ],
      [
        "å£°æĹģæıĲç¤º",
        "è¯»éŁ³"
      ],
      [
        "éĥ½åĲ«æľīéĿĴ",
        "è¿Ļä¸ª"
      ],
      [
        "æ±Łæ²³æ¹ĸæµ·éĥ½ä¸İæ°µ",
        "æľīåħ³"
      ],
      [
        "¬åĽŃ",
        "æķ£æ"
      ],
      [
        "äººå·¥æ",
        "Ļºèĥ½çļĦä¸Ģä¸ªéĩįè¦ģ"
      ],
      [
        "çĬ´åŃĹä»İ",
        "çĬ¬"
      ],
      [
        "æ£®æŀĹ",
        "éĥ½ä¸İæľ¨åŃĹæĹģæľīåħ³èģĶ"
      ],
      [
        "çĥŃéĩıéĥ½ä¸İ",
        "çģ«æľīå¯ĨåĪĩåħ³"
      ],
      [
        "è¯Ńä¹īç±»",
        "åĪ«"
      ],
      [
        "å½¢æĹģæıĲç¤º",
        "è¯Ńä¹īç±»åĪ«"
      ],
      [
        "å½¢å£°åŃĹåįłæ±īåŃĹ",
        "æĢ»æķ°çļĦçĻ"
      ],
      [
        "å½¢å£°åŃĹçĶ±å½¢æĹģ",
        "åĴĮå£°æĹģæŀĦæĪĲ"
      ],
      [
        "æŀĹæ£®æľ¨æĿĲ",
        "æłĳæŀĿéĥ½åĲ«æľ¨"
      ],
      [
        "æ±Łæ²³æ¹ĸæµ·æ´ĭæ³ī",
        "æºĲæµģ"
      ],
      [
        "è¯»éŁ³çĽ",
        "¸è¿ĳ"
      ],
      [
        "±æ£įæ£",
        "Ĵ"
      ],
      [
        "²åĴĮä¸°å¯",
        "ĮçļĦæĸĩåĮ"
      ],
      [
        "¾åĪĨä¹ĭåħ«åį",
        "ģä»¥ä¸Ĭ"
      ],
      [
        "¿æ¢ģæŁ",
        "±æ£įæ£Ĵ"
      ],
      [
        "æ¸ħæĻ´æ",
        "ĥħè¯·éĿĴ"
      ],
      [
        "çŁ¿çī©éĥ½å±",
        "ŀäºİçŁ³éĥ¨çļĦåŃĹæĹı"
      ],
      [
        "è¨Ģå¤ĦçĲ",
        "ĨéĿ¢ä¸´ç"
      ],
      [
        "ħçļĦåİĨåı",
        "²åĴĮä¸°å¯ĮçļĦæĸĩåĮ"
      ],
      [
        "ĭ¬çī¹çļĦæĮĳæĪ",
        "ĺ"
      ],
      [
        "æľºåĻ¨åŃ¦ä¹łæĺ¯",
        "äººå·¥æĻºèĥ½çļĦä¸Ģä¸ªéĩįè¦ģ"
      ],
      [
        "æľ¸æĮĩæľ¨èĬ",
        "Ĥ"
      ],
      [
        "ä¸ŃæĸĩèĩªçĦ¶è¯Ń",
        "è¨Ģå¤ĦçĲĨéĿ¢ä¸´ç"
      ],
      [
        "æľ¨éĥ¨çļĦåŃĹä¸İæłĳæľ¨",
        "æľīåħ³"
      ],
      [
        "æ±¸æĺ¯ä¸Ģä¸ª",
        "æ°´åĲį"
      ],
      [
        "æ±ŃæĮĩæ°´æ¹",
        "¾"
      ],
      [
        "æ°´æĺ¯çĶŁåĳ",
        "½ä¹ĭæºĲ"
      ],
      [
        "ä»Ĭå¤©å¤©æ°Ķå¾Ī",
        "å¥½"
      ],
      [
        "æµ¯æĺ¯å±±ä¸",
        "ľçļĦä¸ĢæĿ¡æ²³"
      ],
      [
        "éĥ¨é¦ĸæĺ¯æ±īåŃĹçļĦéĩįè¦ģ",
        "ç»ĦæĪĲéĥ¨åĪĨ"
      ],
      [
        "æ£»æĺ¯ä¸Ģç§",
        "įé¦Ļæľ¨"
      ],
      [
        "æĿ»æĺ¯æłĳæľ¨çļĦåĲį",
        "ç§°"
      ],
      [
        "æłĳæ¡Įæ¤ħæŁľæĿ",
        "¿æ¢ģæŁ±æ£įæ£Ĵ"
      ],
      [
        "æĪĳä»¬åİ»åħ",
        "¬åĽŃæķ£æ"
      ],
      [
        "çĤİçĥ§çģ¼çĥŃçĦ°çħ",
        "¤çĤŃ"
      ],
      [
        "æ°µä¸īçĤ¹æ°´è¡¨",
        "ç¤ºä¸İæ°´æ¶²ä½ĵæ²³æµģ"
      ],
      [
        "æ±īåŃĹåħ·æľīæĤłä¹",
        "ħçļĦåİĨåı²åĴĮä¸°å¯ĮçļĦæĸĩåĮ"
      ],
      [
        "éĥ½åĲ«æľīéĿĴè¿Ļä¸ª",
        "å£°æĹģ"
      ],
      [
        "çĥŃéĩıéĥ½ä¸İçģ«æľīå¯ĨåĪĩåħ³",
        "ç³»"
      ],
      [
        "å½¢å£°åŃĹåįłæ±īåŃĹæĢ»æķ°çļĦçĻ",
        "¾åĪĨä¹ĭåħ«åįģä»¥ä¸Ĭ"
      ],
      [
        "æ¸ħæĻ´æĥħè¯·éĿĴ",
        "éĥ½åĲ«æľīéĿĴè¿Ļä¸ªå£°æĹģ"
      ],
      [
        "æľºåĻ¨åŃ¦ä¹łæĺ¯äººå·¥æĻºèĥ½çļĦä¸Ģä¸ªéĩįè¦ģ",
        "åĪĨæĶ¯"
      ],
      [
        "ä¸ŃæĸĩèĩªçĦ¶è¯Ńè¨Ģå¤ĦçĲĨéĿ¢ä¸´ç",
        "ĭ¬çī¹çļĦæĮĳæĪĺ"
      ],
      [
        "æĪĳä»¬åİ»åħ¬åĽŃæķ£æ",
        "Ń¥"
      ],
      [
        "æ°µä¸īçĤ¹æ°´è¡¨ç¤ºä¸İæ°´æ¶²ä½ĵæ²³æµģ",
        "æľīåħ³çļĦåŃĹä¹ī"
      ],
      [
        "æ±īåŃĹåħ·æľīæĤłä¹ħçļĦåİĨåı²åĴĮä¸°å¯ĮçļĦæĸĩåĮ",
        "ĸåĨħæ¶µ"
      ]
    ]
  }
}