{
  "version": "1.0",
  "truncation": null,
  "padding": null,
  "added_tokens": [
    {
      "id": 0,
      "content": "[UNK]",
      "single_word": false,
      "lstrip": false,
      "rstrip": false,
      "normalized": false,
      "special": true
    },
    {
      "id": 1,
      "content": "[PAD]",
      "single_word": false,
      "lstrip": false,
      "rstrip": false,
      "normalized": false,
      "special": true
    },
    {
      "id": 2,
      "content": "[BOS]",
      "single_word": false,
      "lstrip": false,
      "rstrip": false,
      "normalized": false,
      "special": true
    },
    {
      "id": 3,
      "content": "[EOS]",
      "single_word": false,
      "lstrip": false,
      "rstrip": false,
      "normalized": false,
      "special": true
    }
  ],
  "normalizer": null,
  "pre_tokenizer": {
    "type": "ByteLevel",
    "add_prefix_space": false,
    "trim_offsets": true,
    "use_regex": true
  },
  "post_processor": null,
  "decoder": {
    "type": "ByteLevel",
    "add_prefix_space": true,
    "trim_offsets": true,
    "use_regex": true
  },
  "model": {
    "type": "BPE",
    "dropout": null,
    "unk_token": "[UNK]",
    "continuing_subword_prefix": null,
    "end_of_word_suffix": null,
    "fuse_unk": false,
    "byte_fallback": false,
    "ignore_merges": false,
    "vocab": {
      "[UNK]": 0,
      "[PAD]": 1,
      "[BOS]": 2,
      "[EOS]": 3,
      "(": 4,
      ")": 5,
      ",": 6,
      "f": 7,
      "g": 8,
      "n": 9,
      "p": 10,
      "w": 11,
      "¡": 12,
      "¢": 13,
      "£": 14,
      "¤": 15,
      "¥": 16,
      "¦": 17,
      "§": 18,
      "¨": 19,
      "©": 20,
      "ª": 21,
      "«": 22,
      "¬": 23,
      "®": 24,
      "¯": 25,
      "°": 26,
      "±": 27,
      "²": 28,
      "³": 29,
      "´": 30,
      "µ": 31,
      "¶": 32,
      "·": 33,
      "¸": 34,
      "¹": 35,
      "º": 36,
      "»": 37,
      "¼": 38,
      "½": 39,
      "¾": 40,
      "¿": 41,
      "Ã": 42,
      "Ä": 43,
      "Å": 44,
      "ã": 45,
      "ä": 46,
      "å": 47,
      "æ": 48,
      "ç": 49,
      "è": 50,
      "é": 51,
      "ï": 52,
      "Ċ": 53,
      "Ģ": 54,
      "ģ": 55,
      "Ĥ": 56,
      "ĥ": 57,
      "Ħ": 58,
      "ħ": 59,
      "Ĩ": 60,
      "ĩ": 61,
      "Ī": 62,
      "ī": 63,
      "Ĭ": 64,
      "ĭ": 65,
      "Į": 66,
      "į": 67,
      "İ": 68,
      "ı": 69,
      "Ĳ": 70,
      "ĳ": 71,
      "Ĵ": 72,
      "ĵ": 73,
      "Ķ": 74,
      "ķ": 75,
      "ĸ": 76,
      "Ĺ": 77,
      "ĺ": 78,
      "Ļ": 79,
      "ļ": 80,
      "Ľ": 81,
      "ľ": 82,
      "Ŀ": 83,
      "ŀ": 84,
      "Ł": 85,
      "ł": 86,
      "Ń": 87,
      "æľ": 88,
      "ãĢ": 89,
      "ï¼": 90,
      "ä¸": 91,
      "æ°": 92,
      "ãĢĤ": 93,
      "ï¼Į": 94,
      "Ł³": 95,
      "æľ¨": 96,
      "éĥ": 97,
      "æĹ": 98,
      "åŃ": 99,
      "åŃĹ": 100,
      "åħ": 101,
      "çļ": 102,
      "çļĦ": 103,
      "çģ": 104,
      "æĹģ": 105,
      "æ°µ": 106,
      "æľī": 107,
      "æ±": 108,
      "è¯": 109,
      "çģ«": 110,
      "£°": 111,
      "å£°": 112,
      "çŁ³": 113,
      "çĬ": 114,
      "æµ": 115,
      "ä¸İ": 116,
      "éĥ½": 117,
      "åħ³": 118,
      "æĺ": 119,
      "æ°´": 120,
      "æĺ¯": 121,
      "ï¼ļ": 122,
      "å¤": 123,
      "æľīåħ³": 124,
      "ä»": 125,
      "åĲ": 126,
      "å£°æĹģ": 127,
      "²³": 128,
      "æ£": 129,
      "æĿ": 130,
      "æ²³": 131,
      "çĥ": 132,
      "¤º": 133,
      "ä¹": 134,
      "ç¤º": 135,
      "éĥ¨": 136,
      "»é": 137,
      "åĪ": 138,
      "æł": 139,
      "è¯»é": 140,
      "æłĳ": 141,
      "è¯»éŁ³": 142,
      "ãĢģ": 143,
      "çĤ": 144,
      "æı": 145,
      "Ĳç¤º": 146,
      "æıĲç¤º": 147,
      "æ¹": 148,
      "æĪ": 149,
      "çļĦåŃĹ": 150,
      "éĥ½ä¸İ": 151,
      "éĿ": 152,
      "çĬŃ": 153,
      "ä»İ": 154,
      "½¢": 155,
      "å½¢": 156,
      "æŀ": 157,
      "æıĲç¤ºè¯»éŁ³": 158,
      "å¹": 159,
      "æ±Ł": 160,
      "æµ·": 161,
      "åĪĨ": 162,
      "æ¹ĸ": 163,
      "ä¸Ģ": 164,
      "éĥ¨çļĦåŃĹ": 165,
      "æ´": 166,
      "æĸ": 167,
      "çĦ": 168,
      "æ²³æ¹ĸ": 169,
      "çĥ§": 170,
      "æ±Łæ²³æ¹ĸ": 171,
      "æ±Łæ²³æ¹ĸæµ·": 172,
      "æ¡": 173,
      "æĶ": 174,
      "çł": 175,
      "æĹı": 176,
      "åį": 177,
      "æ¤": 178,
      "æŁ": 179,
      "é¦": 180,
      "æµģ": 181,
      "åĲį": 182,
      "çĥŃ": 183,
      "éĿĴ": 184,
      "æ´ĭ": 185,
      "æĮ": 186,
      "çī": 187,
      "éĩ": 188,
      "īåŃĹ": 189,
      "ä¸ª": 190,
      "åŃĹä»İ": 191,
      "æ±īåŃĹ": 192,
      "éĥ½åĲ": 193,
      "æłĳæľ¨": 194,
      "éĥ½åĲ«": 195,
      "åı": 196,
      "æ¸": 197,
      "çĭ": 198,
      "çĬ´": 199,
      "çł¯": 200,
      "ºĲ": 201,
      "äº": 202,
      "å¯": 203,
      "åİ": 204,
      "æĻ": 205,
      "æºĲ": 206,
      "è¯Ń": 207,
      "æ£®": 208,
      "ä¹ī": 209,
      "å½¢æĹģ": 210,
      "æŀĹ": 211,
      "çĦ°": 212,
      "æ±Łæ²³æ¹ĸæµ·æ´ĭ": 213,
      "çŁ": 214,
      "æ±¸": 215,
      "æ£»": 216,
      "çĤĩ": 217,
      "æ¸ħ": 218,
      "çŁ¿": 219,
      "¦ģ": 220,
      "§å¤": 221,
      "ºå": 222,
      "å±": 223,
      "åĴ": 224,
      "æ¶": 225,
      "æķ": 226,
      "ç§": 227,
      "çĩ": 228,
      "çĶ": 229,
      "è¿": 230,
      "è¦ģ": 231,
      "ĥçĥ§": 232,
      "ĦæĪ": 233,
      "įè¦ģ": 234,
      "ļä¸İ": 235,
      "æľ¨æĿ": 236,
      "çļĦä¸Ģ": 237,
      "å£°åŃĹ": 238,
      "æ°´æľīåħ³": 239,
      "æĺ¯ä¸Ģ": 240,
      "å¤©": 241,
      "å¤§å¤": 242,
      "ä¹ĭ": 243,
      "å½¢å£°åŃĹ": 244,
      "éĥ¨çļĦåŃĹå¤§å¤": 245,
      "æĸĩ": 246,
      "æĮĩ": 247,
      "çī©": 248,
      "éĩįè¦ģ": 249,
      "åĴĮ": 250,
      "çĩĥçĥ§": 251,
      "ĦæĪĲ": 252,
      "æľ¨æĿĲ": 253,
      "éĥ¨çļĦåŃĹå¤§å¤ļä¸İ": 254,
      "è®": 255,
      "çŁ³å¹": 256,
      "å¹²": 257,
      "æĸ¹": 258,
      "æĶµ": 259,
      "³ī": 260,
      "·¥": 261,
      "å¥": 262,
      "åĮ": 263,
      "æ¢": 264,
      "æĥ": 265,
      "æ³ī": 266,
      "èĥ": 267,
      "èĩ": 268,
      "èĬ": 269,
      "ĸå": 270,
      "Ļæľ¨": 271,
      "æľ¸": 272,
      "çģ¼": 273,
      "è¯·": 274,
      "çĬ¬": 275,
      "æµ¯": 276,
      "æ°´åĲį": 277,
      "æĿ»": 278,
      "æĿ¿": 279,
      "æ²³æµģ": 280,
      "éĥ¨é¦": 281,
      "çĤİ": 282,
      "æ¡Į": 283,
      "æ¤ħ": 284,
      "æ¤į": 285,
      "æŁľ": 286,
      "é¦Ļæľ¨": 287,
      "åİĨ": 288,
      "æĻ´": 289,
      "æºĲæµģ": 290,
      "è¯Ńä¹ī": 291,
      "æ£®æŀĹ": 292,
      "æ±Łæ²³æ¹ĸæµ·æ´ĭæ³ī": 293,
      "æĥħ": 294,
      "æ±Łæ²³æ¹ĸæµ·æ´ĭæ³īæºĲæµģ": 295,
      "fÄ": 296,
      "ng": 297,
      "èī": 298,
      "éĺ": 299,
      "çģ«å": 300,
      "åĲ¾": 301,
      "çĬŃå¹²": 302,
      "è®ł": 303,
      "çŁ³å¹³": 304,
      "¡¨": 305,
      "¡æ²³": 306,
      "¢ä¸": 307,
      "£æ": 308,
      "¤çĤ": 309,
      "¥ä¸": 310,
      "¦ä¹": 311,
      "¨Ģ": 312,
      "¨åŃ": 313,
      "©çŁ³": 314,
      "ªçĦ": 315,
      "«åį": 316,
      "¬å": 317,
      "¬çī": 318,
      "¬åİ": 319,
      "°çļĦ": 320,
      "°å¯": 321,
      "±»": 322,
      "±ä¸": 323,
      "±æ£": 324,
      "±å½¢æĹģ": 325,
      "²ä": 326,
      "²åĴĮ": 327,
      "²©çŁ³": 328,
      "³»": 329,
      "´çĭ": 330,
      "¶è¯Ń": 331,
      "·æľī": 332,
      "¸è¿": 333,
      "¹çļĦ": 334,
      "¹æ°´": 335,
      "ºèĥ": 336,
      "»åħ": 337,
      "»æķ": 338,
      "»ĦæĪĲ": 339,
      "½ĵ": 340,
      "½çļĦä¸Ģ": 341,
      "½ä¹ĭ": 342,
      "¾Ī": 343,
      "¾åĪĨ": 344,
      "åĳ": 345,
      "å²©çŁ³": 346,
      "å¾Ī": 347,
      "æĢ": 348,
      "æĤ": 349,
      "çħ": 350,
      "çĲ": 351,
      "çĻ": 352,
      "çĽ": 353,
      "ç±»": 354,
      "ç³»": 355,
      "ç»ĦæĪĲ": 356,
      "èģ": 357,
      "è¡¨": 358,
      "è¨Ģ": 359,
      "ģä»": 360,
      "ģæŁ": 361,
      "ĦçĲ": 362,
      "ħçļĦ": 363,
      "ħæ¶": 364,
      "ĨåĪ": 365,
      "ĨéĿ": 366,
      "Ĩħæ¶": 367,
      "ĩåħ³": 368,
      "īçĤ": 369,
      "Ĭå¤©": 370,
      "ĮçļĦ": 371,
      "įæ£": 372,
      "įé¦Ļæľ¨": 373,
      "İçŁ³": 374,
      "ıéĥ½ä¸İ": 375,
      "ĳä»": 376,
      "ĳæĪ": 377,
      "Ķå¾Ī": 378,
      "ĸæĺ¯": 379,
      "Ļä¸ª": 380,
      "Ļ¨åŃ": 381,
      "ĽŃ": 382,
      "ľçļĦä¸Ģ": 383,
      "Ŀéĥ½åĲ«": 384,
      "ŀäº": 385,
      "Łåĳ": 386,
      "łæĺ¯": 387,
      "łä¹": 388,
      "łæ±īåŃĹ": 389,
      "Ń¥": 390,
      "Ńæĸĩ": 391,
      "ŃæĮĩ": 392,
      "æľºå": 393,
      "ä¸°å¯": 394,
      "ä¸īçĤ": 395,
      "ä¸Ńæĸĩ": 396,
      "æ°Ķå¾Ī": 397,
      "æľ¨åŃĹ": 398,
      "æľ¨éĥ¨çļĦåŃĹ": 399,
      "æľ¨èĬ": 400,
      "åħ«åį": 401,
      "åħ·æľī": 402,
      "çļĦåĲį": 403,
      "çļĦéĩįè¦ģ": 404,
      "æĹģæľīåħ³": 405,
      "æ°µæľīåħ³": 406,
      "æ°µéĥ¨çļĦåŃĹå¤§å¤ļä¸İ": 407,
      "æ°µä¸īçĤ": 408,
      "æľīéĿĴ": 409,
      "æľīå¯": 410,
      "æ±ŃæĮĩ": 411,
      "çģ«çĦ°": 412,
      "çģ«éĥ¨çļĦåŃĹå¤§å¤ļä¸İ": 413,
      "çģ«æľīå¯": 414,
      "çŁ³å¤": 415,
      "ä¸İæ°´": 416,
      "ä¸İæłĳæľ¨": 417,
      "éĥ½å±": 418,
      "æ°´æĺ¯": 419,
      "æ°´æ¹": 420,
      "æĺ¯æłĳæľ¨": 421,
      "æĺ¯å±": 422,
      "å¤ĦçĲ": 423,
      "æľīåħ³çļĦåŃĹ": 424,
      "ä»Ĭå¤©": 425,
      "å£°æĹģæŀ": 426,
      "å£°æĹģæıĲç¤ºè¯»éŁ³": 427,
      "æĿ¡æ²³": 428,
      "ç¤ºä¸İæ°´": 429,
      "éĥ¨åĪĨ": 430,
      "åĪ«": 431,
      "æłĳæŀ": 432,
      "æłĳæ¡Į": 433,
      "è¯»éŁ³çĽ": 434,
      "æıĲç¤ºè¯Ńä¹ī": 435,
      "æĪĳä»": 436,
      "éĥ½ä¸İæ°´æľīåħ³": 437,
      "éĥ½ä¸İæ¤į": 438,
      "éĥ½ä¸İæľ¨åŃĹ": 439,
      "éĥ½ä¸İæ°µæľīåħ³": 440,
      "åĪĨæĶ": 441,
      "éĥ¨çļĦåŃĹæĹı": 442,
      "çĥ§çģ¼": 443,
      "æ±Łæ²³æ¹ĸæµ·éĥ½ä¸İæ°µæľīåħ³": 444,
      "åįłæ±īåŃĹ": 445,
      "çĥŃéĩ": 446,
      "çĥŃçĦ°": 447,
      "éĿĴéĥ½åĲ«": 448,
      "æĮĳæĪ": 449,
      "ä¸ªéĩįè¦ģ": 450,
      "ä¸ªæ°´åĲį": 451,
      "åŃĹä»İçģ«": 452,
      "åŃĹä»İçŁ³": 453,
      "åŃĹä»İçĬ¬": 454,
      "æ±īåŃĹåħ·æľī": 455,
      "æ±īåŃĹçļĦéĩįè¦ģ": 456,
      "éĥ½åĲ«æ°µ": 457,
      "åı²åĴĮ": 458,
      "çĬ´åŃĹä»İçĬ¬": 459,
      "çł¯åŃĹä»İçŁ³": 460,
      "äººå": 461,
      "æĻºèĥ": 462,
      "æ£®æľ¨æĿĲ": 463,
      "å½¢æĹģæıĲç¤ºè¯Ńä¹ī": 464,
      "æŀĹæ£®æľ¨æĿĲ": 465,
      "æ±Łæ²³æ¹ĸæµ·æ´ĭéĥ½åĲ«æ°µ": 466,
      "æ±¸æĺ¯ä¸Ģ": 467,
      "æ£»æĺ¯ä¸Ģ": 468,
      "çĤĩåŃĹä»İçģ«": 469,
      "æ¸ħæĻ´": 470,
      "çŁ¿çī©": 471,
      "æ¶²ä": 472,
      "æķ£æ": 473,
      "ç§°": 474,
      "ç§įé¦Ļæľ¨": 475,
      "çĶ±å½¢æĹģ": 476,
      "çĶŁåĳ": 477,
      "è¿Ļä¸ª": 478,
      "å¤©æ°Ķå¾Ī": 479,
      "ä¹ĭåħ«åį": 480,
      "å½¢å£°åŃĹåįłæ±īåŃĹ": 481,
      "å½¢å£°åŃĹçĶ±å½¢æĹģ": 482,
      "æĸĩåĮ": 483,
      "æĮĩæľ¨èĬ": 484,
      "çī©æľīåħ³": 485,
      "åĴĮå£°æĹģæŀ": 486,
      "çĩĥçĥ§æľīåħ³": 487,
      "·¥æĻºèĥ": 488,
      "å¥½": 489,
      "æ¢ģæŁ": 490,
      "èĩªçĦ": 491,
      "ĸåĨħæ¶": 492,
      "æľ¸æĮĩæľ¨èĬ": 493,
      "è¯·éĿĴéĥ½åĲ«": 494,
      "æµ¯æĺ¯å±": 495,
      "æĿ»æĺ¯æłĳæľ¨": 496,
      "æĿ¿æ¢ģæŁ": 497,
      "æ²³æµģæľīåħ³çļĦåŃĹ": 498,
      "éĥ¨é¦ĸæĺ¯": 499,
      "çĤİçĥ§çģ¼": 500,
      "æ¤ħæŁľ": 501,
      "åİĨåı²åĴĮ": 502,
      "æ£®æŀĹéĥ½ä¸İæľ¨åŃĹ": 503,
      "æĥħè¯·éĿĴéĥ½åĲ«": 504,
      "¢ä¸´çĭ": 505,
      "¤çĤŃ": 506,
      "¥ä¸Ĭ": 507,
      "¦ä¹łæĺ¯": 508,
      "¬åĽŃ": 509,
      "¬çī¹çļĦ": 510,
      "¬åİ»åħ": 511,
      "°çļĦçĻ": 512,
      "±ä¸ľçļĦä¸Ģ": 513,
      "±æ£įæ£": 514,
      "¶è¯Ńè¨Ģ": 515,
      "¸è¿ĳ": 516,
      "¹æ°´è¡¨": 517,
      "»æķ°çļĦçĻ": 518,
      "½ĵæ²³æµģæľīåħ³çļĦåŃĹ": 519,
      "½çļĦä¸Ģä¸ªéĩįè¦ģ": 520,
      "½ä¹ĭæºĲ": 521,
      "¾åĪĨä¹ĭåħ«åį": 522,
      "æĢ»æķ°çļĦçĻ": 523,
      "æĤłä¹": 524,
      "çħ¤çĤŃ": 525,
      "ç±»åĪ«": 526,
      "ç»ĦæĪĲéĥ¨åĪĨ": 527,
      "èģĶ": 528,
      "ģä»¥ä¸Ĭ": 529,
      "ħçļĦåİĨåı²åĴĮ": 530,
      "ĨåĪĩåħ³": 531,
      "ĨéĿ¢ä¸´çĭ": 532,
      "ĮçļĦæĸĩåĮ": 533,
      "İçŁ³éĥ¨çļĦåŃĹæĹı": 534,
      "ıéĥ½ä¸İçģ«æľīå¯": 535,
      "Ļ¨åŃ¦ä¹łæĺ¯": 536,
      "Ŀéĥ½åĲ«æľ¨": 537,
      "ŀäºİçŁ³éĥ¨çļĦåŃĹæĹı": 538,
      "æľºåĻ¨åŃ¦ä¹łæĺ¯": 539,
      "ä¸°å¯ĮçļĦæĸĩåĮ": 540,
      "ä¸ŃæĸĩèĩªçĦ": 541,
      "æľ¨éĥ¨çļĦåŃĹä¸İæłĳæľ¨": 542,
      "çļĦåĲįç§°": 543,
      "æĹģæľīåħ³èģĶ": 544,
      "æ°µéĥ¨çļĦåŃĹå¤§å¤ļä¸İæ°´æľīåħ³": 545,
      "æ°µä¸īçĤ¹æ°´è¡¨": 546,
      "æľīéĿĴè¿Ļä¸ª": 547,
      "æ±ŃæĮĩæ°´æ¹": 548,
      "çģ«éĥ¨çļĦåŃĹå¤§å¤ļä¸İçĩĥçĥ§æľīåħ³": 549,
      "çŁ³å¤´": 550,
      "éĥ½å±ŀäºİçŁ³éĥ¨çļĦåŃĹæĹı": 551,
      "æ°´æĺ¯çĶŁåĳ": 552,
      "å¤ĦçĲĨéĿ¢ä¸´çĭ": 553,
      "ä»Ĭå¤©å¤©æ°Ķå¾Ī": 554,
      "ç¤ºä¸İæ°´æ¶²ä": 555,
      "æłĳæŀĿéĥ½åĲ«æľ¨": 556,
      "æłĳæ¡Įæ¤ħæŁľ": 557,
      "è¯»éŁ³çĽ¸è¿ĳ": 558,
      "æĪĳä»¬åİ»åħ": 559,
      "éĥ½ä¸İæ¤įçī©æľīåħ³": 560,
      "åĪĨæĶ¯": 561,
      "çĥŃéĩıéĥ½ä¸İçģ«æľīå¯": 562,
      "çĥŃçĦ°çħ¤çĤŃ": 563,
      "æĮĳæĪĺ": 564,
      "æ±īåŃĹåħ·æľīæĤłä¹": 565,
      "æ±īåŃĹçļĦéĩįè¦ģç»ĦæĪĲéĥ¨åĪĨ": 566,
      "äººå·¥æĻºèĥ": 567,
      "å½¢æĹģæıĲç¤ºè¯Ńä¹īç±»åĪ«": 568,
      "æŀĹæ£®æľ¨æĿĲæłĳæŀĿéĥ½åĲ«æľ¨": 569,
      "æ±¸æĺ¯ä¸Ģä¸ªæ°´åĲį": 570,
      "æ£»æĺ¯ä¸Ģç§įé¦Ļæľ¨": 571,
      "æ¸ħæĻ´æĥħè¯·éĿĴéĥ½åĲ«": 572,
      "çŁ¿çī©éĥ½å±ŀäºİçŁ³éĥ¨çļĦåŃĹæĹı": 573,
      "æķ£æŃ¥": 574,
      "å½¢å£°åŃĹåįłæ±īåŃĹæĢ»æķ°çļĦçĻ": 575,
      "å½¢å£°åŃĹçĶ±å½¢æĹģåĴĮå£°æĹģæŀ": 576,
      "ĸåĨħæ¶µ": 577,
      "æľ¸æĮĩæľ¨èĬĤ": 578,
      "æµ¯æĺ¯å±±ä¸ľçļĦä¸Ģ": 579,
      "æĿ»æĺ¯æłĳæľ¨çļĦåĲįç§°": 580,
      "æĿ¿æ¢ģæŁ±æ£įæ£": 581,
      "éĥ¨é¦ĸæĺ¯æ±īåŃĹçļĦéĩįè¦ģç»ĦæĪĲéĥ¨åĪĨ": 582,
      "çĤİçĥ§çģ¼çĥŃçĦ°çħ¤çĤŃ": 583,
      "æ£®æŀĹéĥ½ä¸İæľ¨åŃĹæĹģæľīåħ³èģĶ": 584,
      "¬åĽŃæķ£æŃ¥": 585,
      "¬çī¹çļĦæĮĳæĪĺ": 586,
      "¶è¯Ńè¨Ģå¤ĦçĲĨéĿ¢ä¸´çĭ": 587,
      "½ĵæ²³æµģæľīåħ³çļĦåŃĹä¹ī": 588,
      "½çļĦä¸Ģä¸ªéĩįè¦ģåĪĨæĶ¯": 589,
      "¾åĪĨä¹ĭåħ«åįģä»¥ä¸Ĭ": 590,
      "ħçļĦåİĨåı²åĴĮä¸°å¯ĮçļĦæĸĩåĮ": 591,
      "ĨåĪĩåħ³ç³»": 592,
      "æľºåĻ¨åŃ¦ä¹łæĺ¯äººå·¥æĻºèĥ": 593,
      "ä¸ŃæĸĩèĩªçĦ¶è¯Ńè¨Ģå¤ĦçĲĨéĿ¢ä¸´çĭ": 594,
      "æľ¨éĥ¨çļĦåŃĹä¸İæłĳæľ¨æľīåħ³": 595,
      "æ°µä¸īçĤ¹æ°´è¡¨ç¤ºä¸İæ°´æ¶²ä": 596,
      "æľīéĿĴè¿Ļä¸ªå£°æĹģ": 597,
      "æ±ŃæĮĩæ°´æ¹¾": 598,
      "æ°´æĺ¯çĶŁåĳ½ä¹ĭæºĲ": 599,
      "ä»Ĭå¤©å¤©æ°Ķå¾Īå¥½": 600,
      "æłĳæ¡Įæ¤ħæŁľæĿ¿æ¢ģæŁ±æ£įæ£": 601,
      "æĪĳä»¬åİ»åħ¬åĽŃæķ£æŃ¥": 602,
      "çĥŃéĩıéĥ½ä¸İçģ«æľīå¯ĨåĪĩåħ³ç³»": 603,
      "æ±īåŃĹåħ·æľīæĤłä¹ħçļĦåİĨåı²åĴĮä¸°å¯ĮçļĦæĸĩåĮ": 604,
      "æ¸ħæĻ´æĥħè¯·éĿĴéĥ½åĲ«æľīéĿĴè¿Ļä¸ªå£°æĹģ": 605,
      "å½¢å£°åŃĹåįłæ±īåŃĹæĢ»æķ°çļĦçĻ¾åĪĨä¹ĭåħ«åįģä»¥ä¸Ĭ": 606,
      "å½¢å£°åŃĹçĶ±å½¢æĹģåĴĮå£°æĹģæŀĦæĪĲ": 607,
      "æµ¯æĺ¯å±±ä¸ľçļĦä¸ĢæĿ¡æ²³": 608,
      "æľºåĻ¨åŃ¦ä¹łæĺ¯äººå·¥æĻºèĥ½çļĦä¸Ģä¸ªéĩįè¦ģåĪĨæĶ¯": 609,
      "ä¸ŃæĸĩèĩªçĦ¶è¯Ńè¨Ģå¤ĦçĲĨéĿ¢ä¸´çĭ¬çī¹çļĦæĮĳæĪĺ": 610,
      "æ°µä¸īçĤ¹æ°´è¡¨ç¤ºä¸İæ°´æ¶²ä½ĵæ²³æµģæľīåħ³çļĦåŃĹä¹ī": 611,
      "æłĳæ¡Įæ¤ħæŁľæĿ¿æ¢ģæŁ±æ£įæ£Ĵ": 612,
      "æ±īåŃĹåħ·æľīæĤłä¹ħçļĦåİĨåı²åĴĮä¸°å¯ĮçļĦæĸĩåĮĸåĨħæ¶µ": 613,
      "fÅ": 614,
      "pÄ": 615,
      "wÃ": 616,
      "¢ĳ": 617,
      "£ģ": 618,
      "¥æ¸": 619,
      "¦æ¡": 620,
      "©¡": 621,
      "«ĭ": 622,
      "«ng": 623,
      "¯ı": 624,
      "°§": 625,
      "°ĥ": 626,
      "³æıĲç¤ºè¯»éŁ³": 627,
      "¾Ĭ": 628,
      "¾æŁ": 629,
      "¿Ħ": 630,
      "Ãł": 631,
      "åĢ": 632,
      "åľ": 633,
      "åĿ": 634,
      "å·¥": 635,
      "å¿Ħ": 636,
      "æī": 637,
      "æŁ³": 638,
      "æ©¡": 639,
      "æ¯ı": 640,
      "çĮ": 641,
      "çĵ": 642,
      "ç¢ĳ": 643,
      "ç£ģ": 644,
      "ç«ĭ": 645,
      "ç¾Ĭ": 646,
      "èĭ": 647,
      "è°ĥ": 648,
      "ģı": 649,
      "ģng": 650,
      "ĥæ¢": 651,
      "ħæĿ": 652,
      "ĭº": 653,
      "ıæŁ³": 654,
      "ĵn": 655,
      "Ķæ¡": 656,
      "æľ¨çģ«": 657,
      "æľ¨åĪĨ": 658,
      "æľ¨æĹı": 659,
      "æľ¨åį": 660,
      "æľ¨åı": 661,
      "æľ¨å¯": 662,
      "æľ¨å¥": 663,
      "æľ¨åĮ": 664,
      "æľ¨æ¤į": 665,
      "æĹ¥": 666,
      "åħ¹": 667,
      "åħ½": 668,
      "æĹģå£°": 669,
      "æ°µæ°´": 670,
      "æ°µéĿĴ": 671,
      "æ°µåı": 672,
      "æ°µæĸ¹": 673,
      "æ°µèĥ": 674,
      "æ°µåĲ¾": 675,
      "æ°µå·¥": 676,
      "æ°µæ¯ı": 677,
      "æ°µç¾Ĭ": 678,
      "æ°µæľ¨çģ«": 679,
      "çģ«çģ«": 680,
      "çģ«çĥŃ": 681,
      "çģ«æĶµ": 682,
      "çģ«èĩ": 683,
      "çģ«æī": 684,
      "çŁ³çĬŃ": 685,
      "çŁ³åį": 686,
      "çŁ³çŁ¿": 687,
      "çŁ³åİĨ": 688,
      "çŁ³åħ¹": 689,
      "æ°´æĹı": 690,
      "æĺ¯æ°´åĲį": 691,
      "æĺ¯æ²³æµģ": 692,
      "æĺ¯é¦Ļæľ¨": 693,
      "å£°æĹģå¹": 694,
      "å£°æĹģåĪĨ": 695,
      "å£°æĹģå¹²": 696,
      "å£°æĹģæĸ¹": 697,
      "å£°æĹģæĶµ": 698,
      "å£°æĹģéĥ¨é¦": 699,
      "å£°æĹģåĲ¾": 700,
      "æłĳæ£®æŀĹ": 701,
      "è¯»éŁ³è¯Ńä¹ī": 702,
      "æĪ·": 703,
      "æĪ¿": 704,
      "éĿĸ": 705,
      "çĬŃåı": 706,
      "çĬŃèī": 707,
      "çĬŃçĵ": 708,
      "çĬŃèĭ": 709,
      "çĬŃåħ½": 710,
      "ä»İçģ«": 711,
      "ä»İçŁ³": 712,
      "ä»İçĬ¬": 713,
      "æ´¥æ¸": 714,
      "æ¡¦æ¡": 715,
      "æĶ¾": 716,
      "çł¾": 717,
      "éĿĴæĹı": 718,
      "çĭ¼": 719,
      "çĭĲ": 720,
      "çĭĹ": 721,
      "çĬ´æ°µæľ¨çģ«": 722,
      "çł¯çĬ´æ°µæľ¨çģ«": 723,
      "äºº": 724,
      "å½¢æĹģå£°æĹģéĥ¨é¦": 725,
      "æ£»æľ¸": 726,
      "çĤĩçł¯çĬ´æ°µæľ¨çģ«": 727,
      "è®¿": 728,
      "çŁ³å¹¿": 729,
      "æĸ¹æĹı": 730,
      "èĬ³": 731,
      "ĸåģı": 732,
      "æĿ»çĤĩçł¯çĬ´æ°µæľ¨çģ«": 733,
      "æ±Łæ²³æ¹ĸæµ·æ´ĭæ³īæºĲæµģæ´¥æ¸": 734,
      "fÄģng": 735,
      "fÄĵn": 736,
      "èī¹": 737,
      "éĺ²": 738,
      "éĺĿ": 739,
      "çģ«å°§": 740,
      "çģ«åĭº": 741,
      "fÅ«": 742,
      "pÄ«ng": 743,
      "wÃº": 744,
      "¾æŁıæŁ³": 745,
      "Ãłn": 746,
      "åĢ©": 747,
      "åľŁ": 748,
      "åĿĬ": 749,
      "çĮ«": 750,
      "è°ĥè¯»éŁ³è¯Ńä¹ī": 751,
      "ĥæ¢ħæĿ": 752,
      "Ķæ¡ĥæ¢ħæĿ": 753,
      "æľ¨åįĵ": 754,
      "æľ¨åıį": 755,
      "æľ¨å¯¹": 756,
      "æľ¨å¥ĩ": 757,
      "æľ¨åĮ®": 758,
      "æĹģå£°è°ĥè¯»éŁ³è¯Ńä¹ī": 759,
      "æ°µåı¯": 760,
      "æ°µèĥ¡": 761,
      "çģ«èĩ½": 762,
      "çģ«æī§": 763,
      "çŁ³åįĳ": 764,
      "æĺ¯æ²³æµģåĲį": 765,
      "å£°æĹģå¹³æıĲç¤ºè¯»éŁ³": 766,
      "å£°æĹģåĪĨæıĲç¤ºè¯»éŁ³": 767,
      "å£°æĹģå¹²æıĲç¤ºè¯»éŁ³": 768,
      "å£°æĹģæĸ¹æıĲç¤ºè¯»éŁ³": 769,
      "å£°æĹģæĶµæıĲç¤ºè¯»éŁ³": 770,
      "å£°æĹģåĲ¾æıĲç¤ºè¯»éŁ³": 771,
      "æłĳæ£®æŀĹæ¡¦æ¡": 772,
      "çĬŃåı¥": 773,
      "çĬŃèī¯": 774,
      "çĬŃçĵľ": 775,
      "çĬŃèĭĹ": 776,
      "å½¢æĹģå£°æĹģéĥ¨é¦ĸåģı": 777,
      "æ£»æľ¸æĿ»çĤĩçł¯çĬ´æ°µæľ¨çģ«": 778,
      "æ±Łæ²³æ¹ĸæµ·æ´ĭæ³īæºĲæµģæ´¥æ¸¡": 779,
      "¾æŁıæŁ³æ©¡": 780,
      "Ķæ¡ĥæ¢ħæĿ¾æŁıæŁ³æ©¡": 781,
      "æłĳæ£®æŀĹæ¡¦æ¡Ķæ¡ĥæ¢ħæĿ¾æŁıæŁ³æ©¡": 782,
      "å½¢æĹģå£°æĹģéĥ¨é¦ĸåģıæĹģå£°è°ĥè¯»éŁ³è¯Ńä¹ī": 783,
      "æ£»æľ¸æĿ»çĤĩçł¯çĬ´æ°µæľ¨çģ«çŁ³çĬŃ": 784
    },
    "merges": [
      [
        "æ",
        "ľ"
      ],
      [
        "ã",
        "Ģ"
      ],
      [
        "ï",
        "¼"
      ],
      [
        "ä",
        "¸"
      ],
      [
        "æ",
        "°"
      ],
      [
        "ãĢ",
        "Ĥ"
      ],
      [
        "ï¼",
        "Į"
      ],
      [
        "Ł",
        "³"
      ],
      [
        "æľ",
        "¨"
      ],
      [
        "é",
        "ĥ"
      ],
      [
        "æ",
        "Ĺ"
      ],
      [
        "å",
        "Ń"
      ],
      [
        "åŃ",
        "Ĺ"
      ],
      [
        "å",
        "ħ"
      ],
      [
        "ç",
        "ļ"
      ],
      [
        "çļ",
        "Ħ"
      ],
      [
        "ç",
        "ģ"
      ],
      [
        "æĹ",
        "ģ"
      ],
      [
        "æ°",
        "µ"
      ],
      [
        "æľ",
        "ī"
      ],
      [
        "æ",
        "±"
      ],
      [
        "è",
        "¯"
      ],
      [
        "çģ",
        "«"
      ],
      [
        "£",
        "°"
      ],
      [
        "å",
        "£°"
      ],
      [
        "ç",
        "Ł³"
      ],
      [
        "ç",
        "Ĭ"
      ],
      [
        "æ",
        "µ"
      ],
      [
        "ä¸",
        "İ"
      ],
      [
        "éĥ",
        "½"
      ],
      [
        "åħ",
        "³"
      ],
      [
        "æ",
        "ĺ"
      ],
      [
        "æ°",
        "´"
      ],
      [
        "æĺ",
        "¯"
      ],
      [
        "ï¼",
        "ļ"
      ],
      [
        "å",
        "¤"
      ],
      [
        "æľī",
        "åħ³"
      ],
      [
        "ä",
        "»"
      ],
      [
        "å",
        "Ĳ"
      ],
      [
        "å£°",
        "æĹģ"
      ],
      [
        "²",
        "³"
      ],
      [
        "æ",
        "£"
      ],
      [
        "æ",
        "Ŀ"
      ],
      [
        "æ",
        "²³"
      ],
      [
        "ç",
        "ĥ"
      ],
      [
        "¤",
        "º"
      ],
      [
        "ä",
        "¹"
      ],
      [
        "ç",
        "¤º"
      ],
      [
        "éĥ",
        "¨"
      ],
      [
        "»",
        "é"
      ],
      [
        "å",
        "Ī"
      ],
      [
        "æ",
        "ł"
      ],
      [
        "è¯",
        "»é"
      ],
      [
        "æł",
        "ĳ"
      ],
      [
        "è¯»é",
        "Ł³"
      ],
      [
        "ãĢ",
        "ģ"
      ],
      [
        "ç",
        "Ĥ"
      ],
      [
        "æ",
        "ı"
      ],
      [
        "Ĳ",
        "ç¤º"
      ],
      [
        "æı",
        "Ĳç¤º"
      ],
      [
        "æ",
        "¹"
      ],
      [
        "æ",
        "Ī"
      ],
      [
        "çļĦ",
        "åŃĹ"
      ],
      [
        "éĥ½",
        "ä¸İ"
      ],
      [
        "é",
        "Ŀ"
      ],
      [
        "çĬ",
        "Ń"
      ],
      [
        "ä»",
        "İ"
      ],
      [
        "½",
        "¢"
      ],
      [
        "å",
        "½¢"
      ],
      [
        "æ",
        "ŀ"
      ],
      [
        "æıĲç¤º",
        "è¯»éŁ³"
      ],
      [
        "å",
        "¹"
      ],
      [
        "æ±",
        "Ł"
      ],
      [
        "æµ",
        "·"
      ],
      [
        "åĪ",
        "Ĩ"
      ],
      [
        "æ¹",
        "ĸ"
      ],
      [
        "ä¸",
        "Ģ"
      ],
      [
        "éĥ¨",
        "çļĦåŃĹ"
      ],
      [
        "æ",
        "´"
      ],
      [
        "æ",
        "ĸ"
      ],
      [
        "ç",
        "Ħ"
      ],
      [
        "æ²³",
        "æ¹ĸ"
      ],
      [
        "çĥ",
        "§"
      ],
      [
        "æ±Ł",
        "æ²³æ¹ĸ"
      ],
      [
        "æ±Łæ²³æ¹ĸ",
        "æµ·"
      ],
      [
        "æ",
        "¡"
      ],
      [
        "æ",
        "Ķ"
      ],
      [
        "ç",
        "ł"
      ],
      [
        "æĹ",
        "ı"
      ],
      [
        "å",
        "į"
      ],
      [
        "æ",
        "¤"
      ],
      [
        "æ",
        "Ł"
      ],
      [
        "é",
        "¦"
      ],
      [
        "æµ",
        "ģ"
      ],
      [
        "åĲ",
        "į"
      ],
      [
        "çĥ",
        "Ń"
      ],
      [
        "éĿ",
        "Ĵ"
      ],
      [
        "æ´",
        "ĭ"
      ],
      [
        "æ",
        "Į"
      ],
      [
        "ç",
        "ī"
      ],
      [
        "é",
        "ĩ"
      ],
      [
        "ī",
        "åŃĹ"
      ],
      [
        "ä¸",
        "ª"
      ],
      [
        "åŃĹ",
        "ä»İ"
      ],
      [
        "æ±",
        "īåŃĹ"
      ],
      [
        "éĥ½",
        "åĲ"
      ],
      [
        "æłĳ",
        "æľ¨"
      ],
      [
        "éĥ½åĲ",
        "«"
      ],
      [
        "å",
        "ı"
      ],
      [
        "æ",
        "¸"
      ],
      [
        "ç",
        "ĭ"
      ],
      [
        "çĬ",
        "´"
      ],
      [
        "çł",
        "¯"
      ],
      [
        "º",
        "Ĳ"
      ],
      [
        "ä",
        "º"
      ],
      [
        "å",
        "¯"
      ],
      [
        "å",
        "İ"
      ],
      [
        "æ",
        "Ļ"
      ],
      [
        "æ",
        "ºĲ"
      ],
      [
        "è¯",
        "Ń"
      ],
      [
        "æ£",
        "®"
      ],
      [
        "ä¹",
        "ī"
      ],
      [
        "å½¢",
        "æĹģ"
      ],
      [
        "æŀ",
        "Ĺ"
      ],
      [
        "çĦ",
        "°"
      ],
      [
        "æ±Łæ²³æ¹ĸæµ·",
        "æ´ĭ"
      ],
      [
        "ç",
        "Ł"
      ],
      [
        "æ±",
        "¸"
      ],
      [
        "æ£",
        "»"
      ],
      [
        "çĤ",
        "ĩ"
      ],
      [
        "æ¸",
        "ħ"
      ],
      [
        "çŁ",
        "¿"
      ],
      [
        "¦",
        "ģ"
      ],
      [
        "§",
        "å¤"
      ],
      [
        "º",
        "å"
      ],
      [
        "å",
        "±"
      ],
      [
        "å",
        "Ĵ"
      ],
      [
        "æ",
        "¶"
      ],
      [
        "æ",
        "ķ"
      ],
      [
        "ç",
        "§"
      ],
      [
        "ç",
        "ĩ"
      ],
      [
        "ç",
        "Ķ"
      ],
      [
        "è",
        "¿"
      ],
      [
        "è",
        "¦ģ"
      ],
      [
        "ĥ",
        "çĥ§"
      ],
      [
        "Ħ",
        "æĪ"
      ],
      [
        "į",
        "è¦ģ"
      ],
      [
        "ļ",
        "ä¸İ"
      ],
      [
        "æľ¨",
        "æĿ"
      ],
      [
        "çļĦ",
        "ä¸Ģ"
      ],
      [
        "å£°",
        "åŃĹ"
      ],
      [
        "æ°´",
        "æľīåħ³"
      ],
      [
        "æĺ¯",
        "ä¸Ģ"
      ],
      [
        "å¤",
        "©"
      ],
      [
        "å¤",
        "§å¤"
      ],
      [
        "ä¹",
        "ĭ"
      ],
      [
        "å½¢",
        "å£°åŃĹ"
      ],
      [
        "éĥ¨çļĦåŃĹ",
        "å¤§å¤"
      ],
      [
        "æĸ",
        "ĩ"
      ],
      [
        "æĮ",
        "ĩ"
      ],
      [
        "çī",
        "©"
      ],
      [
        "éĩ",
        "įè¦ģ"
      ],
      [
        "åĴ",
        "Į"
      ],
      [
        "çĩ",
        "ĥçĥ§"
      ],
      [
        "ĦæĪ",
        "Ĳ"
      ],
      [
        "æľ¨æĿ",
        "Ĳ"
      ],
      [
        "éĥ¨çļĦåŃĹå¤§å¤",
        "ļä¸İ"
      ],
      [
        "è",
        "®"
      ],
      [
        "çŁ³",
        "å¹"
      ],
      [
        "å¹",
        "²"
      ],
      [
        "æĸ",
        "¹"
      ],
      [
        "æĶ",
        "µ"
      ],
      [
        "³",
        "ī"
      ],
      [
        "·",
        "¥"
      ],
      [
        "å",
        "¥"
      ],
      [
        "å",
        "Į"
      ],
      [
        "æ",
        "¢"
      ],
      [
        "æ",
        "ĥ"
      ],
      [
        "æ",
        "³ī"
      ],
      [
        "è",
        "ĥ"
      ],
      [
        "è",
        "ĩ"
      ],
      [
        "è",
        "Ĭ"
      ],
      [
        "ĸ",
        "å"
      ],
      [
        "Ļ",
        "æľ¨"
      ],
      [
        "æľ",
        "¸"
      ],
      [
        "çģ",
        "¼"
      ],
      [
        "è¯",
        "·"
      ],
      [
        "çĬ",
        "¬"
      ],
      [
        "æµ",
        "¯"
      ],
      [
        "æ°´",
        "åĲį"
      ],
      [
        "æĿ",
        "»"
      ],
      [
        "æĿ",
        "¿"
      ],
      [
        "æ²³",
        "æµģ"
      ],
      [
        "éĥ¨",
        "é¦"
      ],
      [
        "çĤ",
        "İ"
      ],
      [
        "æ¡",
        "Į"
      ],
      [
        "æ¤",
        "ħ"
      ],
      [
        "æ¤",
        "į"
      ],
      [
        "æŁ",
        "ľ"
      ],
      [
        "é¦",
        "Ļæľ¨"
      ],
      [
        "åİ",
        "Ĩ"
      ],
      [
        "æĻ",
        "´"
      ],
      [
        "æºĲ",
        "æµģ"
      ],
      [
        "è¯Ń",
        "ä¹ī"
      ],
      [
        "æ£®",
        "æŀĹ"
      ],
      [
        "æ±Łæ²³æ¹ĸæµ·æ´ĭ",
        "æ³ī"
      ],
      [
        "æĥ",
        "ħ"
      ],
      [
        "æ±Łæ²³æ¹ĸæµ·æ´ĭæ³ī",
        "æºĲæµģ"
      ],
      [
        "f",
        "Ä"
      ],
      [
        "n",
        "g"
      ],
      [
        "è",
        "ī"
      ],
      [
        "é",
        "ĺ"
      ],
      [
        "çģ«",
        "å"
      ],
      [
        "åĲ",
        "¾"
      ],
      [
        "çĬŃ",
        "å¹²"
      ],
      [
        "è®",
        "ł"
      ],
      [
        "çŁ³å¹",
        "³"
      ],
      [
        "¡",
        "¨"
      ],
      [
        "¡",
        "æ²³"
      ],
      [
        "¢",
        "ä¸"
      ],
      [
        "£",
        "æ"
      ],
      [
        "¤",
        "çĤ"
      ],
      [
        "¥",
        "ä¸"
      ],
      [
        "¦",
        "ä¹"
      ],
      [
        "¨",
        "Ģ"
      ],
      [
        "¨",
        "åŃ"
      ],
      [
        "©",
        "çŁ³"
      ],
      [
        "ª",
        "çĦ"
      ],
      [
        "«",
        "åį"
      ],
      [
        "¬",
        "å"
      ],
      [
        "¬",
        "çī"
      ],
      [
        "¬",
        "åİ"
      ],
      [
        "°",
        "çļĦ"
      ],
      [
        "°",
        "å¯"
      ],
      [
        "±",
        "»"
      ],
      [
        "±",
        "ä¸"
      ],
      [
        "±",
        "æ£"
      ],
      [
        "±",
        "å½¢æĹģ"
      ],
      [
        "²",
        "ä"
      ],
      [
        "²",
        "åĴĮ"
      ],
      [
        "²",
        "©çŁ³"
      ],
      [
        "³",
        "»"
      ],
      [
        "´",
        "çĭ"
      ],
      [
        "¶",
        "è¯Ń"
      ],
      [
        "·",
        "æľī"
      ],
      [
        "¸",
        "è¿"
      ],
      [
        "¹",
        "çļĦ"
      ],
      [
        "¹",
        "æ°´"
      ],
      [
        "º",
        "èĥ"
      ],
      [
        "»",
        "åħ"
      ],
      [
        "»",
        "æķ"
      ],
      [
        "»",
        "ĦæĪĲ"
      ],
      [
        "½",
        "ĵ"
      ],
      [
        "½",
        "çļĦä¸Ģ"
      ],
      [
        "½",
        "ä¹ĭ"
      ],
      [
        "¾",
        "Ī"
      ],
      [
        "¾",
        "åĪĨ"
      ],
      [
        "å",
        "ĳ"
      ],
      [
        "å",
        "²©çŁ³"
      ],
      [
        "å",
        "¾Ī"
      ],
      [
        "æ",
        "Ģ"
      ],
      [
        "æ",
        "Ĥ"
      ],
      [
        "ç",
        "ħ"
      ],
      [
        "ç",
        "Ĳ"
      ],
      [
        "ç",
        "Ļ"
      ],
      [
        "ç",
        "Ľ"
      ],
      [
        "ç",
        "±»"
      ],
      [
        "ç",
        "³»"
      ],
      [
        "ç",
        "»ĦæĪĲ"
      ],
      [
        "è",
        "ģ"
      ],
      [
        "è",
        "¡¨"
      ],
      [
        "è",
        "¨Ģ"
      ],
      [
        "ģ",
        "ä»"
      ],
      [
        "ģ",
        "æŁ"
      ],
      [
        "Ħ",
        "çĲ"
      ],
      [
        "ħ",
        "çļĦ"
      ],
      [
        "ħ",
        "æ¶"
      ],
      [
        "Ĩ",
        "åĪ"
      ],
      [
        "Ĩ",
        "éĿ"
      ],
      [
        "Ĩ",
        "ħæ¶"
      ],
      [
        "ĩ",
        "åħ³"
      ],
      [
        "ī",
        "çĤ"
      ],
      [
        "Ĭ",
        "å¤©"
      ],
      [
        "Į",
        "çļĦ"
      ],
      [
        "į",
        "æ£"
      ],
      [
        "į",
        "é¦Ļæľ¨"
      ],
      [
        "İ",
        "çŁ³"
      ],
      [
        "ı",
        "éĥ½ä¸İ"
      ],
      [
        "ĳ",
        "ä»"
      ],
      [
        "ĳ",
        "æĪ"
      ],
      [
        "Ķ",
        "å¾Ī"
      ],
      [
        "ĸ",
        "æĺ¯"
      ],
      [
        "Ļ",
        "ä¸ª"
      ],
      [
        "Ļ",
        "¨åŃ"
      ],
      [
        "Ľ",
        "Ń"
      ],
      [
        "ľ",
        "çļĦä¸Ģ"
      ],
      [
        "Ŀ",
        "éĥ½åĲ«"
      ],
      [
        "ŀ",
        "äº"
      ],
      [
        "Ł",
        "åĳ"
      ],
      [
        "ł",
        "æĺ¯"
      ],
      [
        "ł",
        "ä¹"
      ],
      [
        "ł",
        "æ±īåŃĹ"
      ],
      [
        "Ń",
        "¥"
      ],
      [
        "Ń",
        "æĸĩ"
      ],
      [
        "Ń",
        "æĮĩ"
      ],
      [
        "æľ",
        "ºå"
      ],
      [
        "ä¸",
        "°å¯"
      ],
      [
        "ä¸",
        "īçĤ"
      ],
      [
        "ä¸",
        "Ńæĸĩ"
      ],
      [
        "æ°",
        "Ķå¾Ī"
      ],
      [
        "æľ¨",
        "åŃĹ"
      ],
      [
        "æľ¨",
        "éĥ¨çļĦåŃĹ"
      ],
      [
        "æľ¨",
        "èĬ"
      ],
      [
        "åħ",
        "«åį"
      ],
      [
        "åħ",
        "·æľī"
      ],
      [
        "çļĦ",
        "åĲį"
      ],
      [
        "çļĦ",
        "éĩįè¦ģ"
      ],
      [
        "æĹģ",
        "æľīåħ³"
      ],
      [
        "æ°µ",
        "æľīåħ³"
      ],
      [
        "æ°µ",
        "éĥ¨çļĦåŃĹå¤§å¤ļä¸İ"
      ],
      [
        "æ°µ",
        "ä¸īçĤ"
      ],
      [
        "æľī",
        "éĿĴ"
      ],
      [
        "æľī",
        "å¯"
      ],
      [
        "æ±",
        "ŃæĮĩ"
      ],
      [
        "çģ«",
        "çĦ°"
      ],
      [
        "çģ«",
        "éĥ¨çļĦåŃĹå¤§å¤ļä¸İ"
      ],
      [
        "çģ«",
        "æľīå¯"
      ],
      [
        "çŁ³",
        "å¤"
      ],
      [
        "ä¸İ",
        "æ°´"
      ],
      [
        "ä¸İ",
        "æłĳæľ¨"
      ],
      [
        "éĥ½",
        "å±"
      ],
      [
        "æ°´",
        "æĺ¯"
      ],
      [
        "æ°´",
        "æ¹"
      ],
      [
        "æĺ¯",
        "æłĳæľ¨"
      ],
      [
        "æĺ¯",
        "å±"
      ],
      [
        "å¤",
        "ĦçĲ"
      ],
      [
        "æľīåħ³",
        "çļĦåŃĹ"
      ],
      [
        "ä»",
        "Ĭå¤©"
      ],
      [
        "å£°æĹģ",
        "æŀ"
      ],
      [
        "å£°æĹģ",
        "æıĲç¤ºè¯»éŁ³"
      ],
      [
        "æĿ",
        "¡æ²³"
      ],
      [
        "ç¤º",
        "ä¸İæ°´"
      ],
      [
        "éĥ¨",
        "åĪĨ"
      ],
      [
        "åĪ",
        "«"
      ],
      [
        "æłĳ",
        "æŀ"
      ],
      [
        "æłĳ",
        "æ¡Į"
      ],
      [
        "è¯»éŁ³",
        "çĽ"
      ],
      [
        "æıĲç¤º",
        "è¯Ńä¹ī"
      ],
      [
        "æĪ",
        "ĳä»"
      ],
      [
        "éĥ½ä¸İ",
        "æ°´æľīåħ³"
      ],
      [
        "éĥ½ä¸İ",
        "æ¤į"
      ],
      [
        "éĥ½ä¸İ",
        "æľ¨åŃĹ"
      ],
      [
        "éĥ½ä¸İ",
        "æ°µæľīåħ³"
      ],
      [
        "åĪĨ",
        "æĶ"
      ],
      [
        "éĥ¨çļĦåŃĹ",
        "æĹı"
      ],
      [
        "çĥ§",
        "çģ¼"
      ],
      [
        "æ±Łæ²³æ¹ĸæµ·",
        "éĥ½ä¸İæ°µæľīåħ³"
      ],
      [
        "åį",
        "łæ±īåŃĹ"
      ],
      [
        "çĥŃ",
        "éĩ"
      ],
      [
        "çĥŃ",
        "çĦ°"
      ],
      [
        "éĿĴ",
        "éĥ½åĲ«"
      ],
      [
        "æĮ",
        "ĳæĪ"
      ],
      [
        "ä¸ª",
        "éĩįè¦ģ"
      ],
      [
        "ä¸ª",
        "æ°´åĲį"
      ],
      [
        "åŃĹä»İ",
        "çģ«"
      ],
      [
        "åŃĹä»İ",
        "çŁ³"
      ],
      [
        "åŃĹä»İ",
        "çĬ¬"
      ],
      [
        "æ±īåŃĹ",
        "åħ·æľī"
      ],
      [
        "æ±īåŃĹ",
        "çļĦéĩįè¦ģ"
      ],
      [
        "éĥ½åĲ«",
        "æ°µ"
      ],
      [
        "åı",
        "²åĴĮ"
      ],
      [
        "çĬ´",
        "åŃĹä»İçĬ¬"
      ],
      [
        "çł¯",
        "åŃĹä»İçŁ³"
      ],
      [
        "äº",
        "ºå"
      ],
      [
        "æĻ",
        "ºèĥ"
      ],
      [
        "æ£®",
        "æľ¨æĿĲ"
      ],
      [
        "å½¢æĹģ",
        "æıĲç¤ºè¯Ńä¹ī"
      ],
      [
        "æŀĹ",
        "æ£®æľ¨æĿĲ"
      ],
      [
        "æ±Łæ²³æ¹ĸæµ·æ´ĭ",
        "éĥ½åĲ«æ°µ"
      ],
      [
        "æ±¸",
        "æĺ¯ä¸Ģ"
      ],
      [
        "æ£»",
        "æĺ¯ä¸Ģ"
      ],
      [
        "çĤĩ",
        "åŃĹä»İçģ«"
      ],
      [
        "æ¸ħ",
        "æĻ´"
      ],
      [
        "çŁ¿",
        "çī©"
      ],
      [
        "æ¶",
        "²ä"
      ],
      [
        "æķ",
        "£æ"
      ],
      [
        "ç§",
        "°"
      ],
      [
        "ç§",
        "įé¦Ļæľ¨"
      ],
      [
        "çĶ",
        "±å½¢æĹģ"
      ],
      [
        "çĶ",
        "Łåĳ"
      ],
      [
        "è¿",
        "Ļä¸ª"
      ],
      [
        "å¤©",
        "æ°Ķå¾Ī"
      ],
      [
        "ä¹ĭ",
        "åħ«åį"
      ],
      [
        "å½¢å£°åŃĹ",
        "åįłæ±īåŃĹ"
      ],
      [
        "å½¢å£°åŃĹ",
        "çĶ±å½¢æĹģ"
      ],
      [
        "æĸĩ",
        "åĮ"
      ],
      [
        "æĮĩ",
        "æľ¨èĬ"
      ],
      [
        "çī©",
        "æľīåħ³"
      ],
      [
        "åĴĮ",
        "å£°æĹģæŀ"
      ],
      [
        "çĩĥçĥ§",
        "æľīåħ³"
      ],
      [
        "·¥",
        "æĻºèĥ"
      ],
      [
        "å¥",
        "½"
      ],
      [
        "æ¢",
        "ģæŁ"
      ],
      [
        "èĩ",
        "ªçĦ"
      ],
      [
        "ĸå",
        "Ĩħæ¶"
      ],
      [
        "æľ¸",
        "æĮĩæľ¨èĬ"
      ],
      [
        "è¯·",
        "éĿĴéĥ½åĲ«"
      ],
      [
        "æµ¯",
        "æĺ¯å±"
      ],
      [
        "æĿ»",
        "æĺ¯æłĳæľ¨"
      ],
      [
        "æĿ¿",
        "æ¢ģæŁ"
      ],
      [
        "æ²³æµģ",
        "æľīåħ³çļĦåŃĹ"
      ],
      [
        "éĥ¨é¦",
        "ĸæĺ¯"
      ],
      [
        "çĤİ",
        "çĥ§çģ¼"
      ],
      [
        "æ¤ħ",
        "æŁľ"
      ],
      [
        "åİĨ",
        "åı²åĴĮ"
      ],
      [
        "æ£®æŀĹ",
        "éĥ½ä¸İæľ¨åŃĹ"
      ],
      [
        "æĥħ",
        "è¯·éĿĴéĥ½åĲ«"
      ],
      [
        "¢ä¸",
        "´çĭ"
      ],
      [
        "¤çĤ",
        "Ń"
      ],
      [
        "¥ä¸",
        "Ĭ"
      ],
      [
        "¦ä¹",
        "łæĺ¯"
      ],
      [
        "¬å",
        "ĽŃ"
      ],
      [
        "¬çī",
        "¹çļĦ"
      ],
      [
        "¬åİ",
        "»åħ"
      ],
      [
        "°çļĦ",
        "çĻ"
      ],
      [
        "±ä¸",
        "ľçļĦä¸Ģ"
      ],
      [
        "±æ£",
        "įæ£"
      ],
      [
        "¶è¯Ń",
        "è¨Ģ"
      ],
      [
        "¸è¿",
        "ĳ"
      ],
      [
        "¹æ°´",
        "è¡¨"
      ],
      [
        "»æķ",
        "°çļĦçĻ"
      ],
      [
        "½ĵ",
        "æ²³æµģæľīåħ³çļĦåŃĹ"
      ],
      [
        "½çļĦä¸Ģ",
        "ä¸ªéĩįè¦ģ"
      ],
      [
        "½ä¹ĭ",
        "æºĲ"
      ],
      [
        "¾åĪĨ",
        "ä¹ĭåħ«åį"
      ],
      [
        "æĢ",
        "»æķ°çļĦçĻ"
      ],
      [
        "æĤ",
        "łä¹"
      ],
      [
        "çħ",
        "¤çĤŃ"
      ],
      [
        "ç±»",
        "åĪ«"
      ],
      [
        "ç»ĦæĪĲ",
        "éĥ¨åĪĨ"
      ],
      [
        "èģ",
        "Ķ"
      ],
      [
        "ģä»",
        "¥ä¸Ĭ"
      ],
      [
        "ħçļĦ",
        "åİĨåı²åĴĮ"
      ],
      [
        "ĨåĪ",
        "ĩåħ³"
      ],
      [
        "ĨéĿ",
        "¢ä¸´çĭ"
      ],
      [
        "ĮçļĦ",
        "æĸĩåĮ"
      ],
      [
        "İçŁ³",
        "éĥ¨çļĦåŃĹæĹı"
      ],
      [
        "ıéĥ½ä¸İ",
        "çģ«æľīå¯"
      ],
      [
        "Ļ¨åŃ",
        "¦ä¹łæĺ¯"
      ],
      [
        "Ŀéĥ½åĲ«",
        "æľ¨"
      ],
      [
        "ŀäº",
        "İçŁ³éĥ¨çļĦåŃĹæĹı"
      ],
      [
        "æľºå",
        "Ļ¨åŃ¦ä¹łæĺ¯"
      ],
      [
        "ä¸°å¯",
        "ĮçļĦæĸĩåĮ"
      ],
      [
        "ä¸Ńæĸĩ",
        "èĩªçĦ"
      ],
      [
        "æľ¨éĥ¨çļĦåŃĹ",
        "ä¸İæłĳæľ¨"
      ],
      [
        "çļĦåĲį",
        "ç§°"
      ],
      [
        "æĹģæľīåħ³",
        "èģĶ"
      ],
      [
        "æ°µéĥ¨çļĦåŃĹå¤§å¤ļä¸İ",
        "æ°´æľīåħ³"
      ],
      [
        "æ°µä¸īçĤ",
        "¹æ°´è¡¨"
      ],
      [
        "æľīéĿĴ",
        "è¿Ļä¸ª"
      ],
      [
        "æ±ŃæĮĩ",
        "æ°´æ¹"
      ],
      [
        "çģ«éĥ¨çļĦåŃĹå¤§å¤ļä¸İ",
        "çĩĥçĥ§æľīåħ³"
      ],
      [
        "çŁ³å¤",
        "´"
      ],
      [
        "éĥ½å±",
        "ŀäºİçŁ³éĥ¨çļĦåŃĹæĹı"
      ],
      [
        "æ°´æĺ¯",
        "çĶŁåĳ"
      ],
      [
        "å¤ĦçĲ",
        "ĨéĿ¢ä¸´çĭ"
      ],
      [
        "ä»Ĭå¤©",
        "å¤©æ°Ķå¾Ī"
      ],
      [
        "ç¤ºä¸İæ°´",
        "æ¶²ä"
      ],
      [
        "æłĳæŀ",
        "Ŀéĥ½åĲ«æľ¨"
      ],
      [
        "æłĳæ¡Į",
        "æ¤ħæŁľ"
      ],
      [
        "è¯»éŁ³çĽ",
        "¸è¿ĳ"
      ],
      [
        "æĪĳä»",
        "¬åİ»åħ"
      ],
      [
        "éĥ½ä¸İæ¤į",
        "çī©æľīåħ³"
      ],
      [
        "åĪĨæĶ",
        "¯"
      ],
      [
        "çĥŃéĩ",
        "ıéĥ½ä¸İçģ«æľīå¯"
      ],
      [
        "çĥŃçĦ°",
        "çħ¤çĤŃ"
      ],
      [
        "æĮĳæĪ",
        "ĺ"
      ],
      [
        "æ±īåŃĹåħ·æľī",
        "æĤłä¹"
      ],
      [
        "æ±īåŃĹçļĦéĩįè¦ģ",
        "ç»ĦæĪĲéĥ¨åĪĨ"
      ],
      [
        "äººå",
        "·¥æĻºèĥ"
      ],
      [
        "å½¢æĹģæıĲç¤ºè¯Ńä¹ī",
        "ç±»åĪ«"
      ],
      [
        "æŀĹæ£®æľ¨æĿĲ",
        "æłĳæŀĿéĥ½åĲ«æľ¨"
      ],
      [
        "æ±¸æĺ¯ä¸Ģ",
        "ä¸ªæ°´åĲį"
      ],
      [
        "æ£»æĺ¯ä¸Ģ",
        "ç§įé¦Ļæľ¨"
      ],
      [
        "æ¸ħæĻ´",
        "æĥħè¯·éĿĴéĥ½åĲ«"
      ],
      [
        "çŁ¿çī©",
        "éĥ½å±ŀäºİçŁ³éĥ¨çļĦåŃĹæĹı"
      ],
      [
        "æķ£æ",
        "Ń¥"
      ],
      [
        "å½¢å£°åŃĹåįłæ±īåŃĹ",
        "æĢ»æķ°çļĦçĻ"
      ],
      [
        "å½¢å£°åŃĹçĶ±å½¢æĹģ",
        "åĴĮå£°æĹģæŀ"
      ],
      [
        "ĸåĨħæ¶",
        "µ"
      ],
      [
        "æľ¸æĮĩæľ¨èĬ",
        "Ĥ"
      ],
      [
        "æµ¯æĺ¯å±",
        "±ä¸ľçļĦä¸Ģ"
      ],
      [
        "æĿ»æĺ¯æłĳæľ¨",
        "çļĦåĲįç§°"
      ],
      [
        "æĿ¿æ¢ģæŁ",
        "±æ£įæ£"
      ],
      [
        "éĥ¨é¦ĸæĺ¯",
        "æ±īåŃĹçļĦéĩįè¦ģç»ĦæĪĲéĥ¨åĪĨ"
      ],
      [
        "çĤİçĥ§çģ¼",
        "çĥŃçĦ°çħ¤çĤŃ"
      ],
      [
        "æ£®æŀĹéĥ½ä¸İæľ¨åŃĹ",
        "æĹģæľīåħ³èģĶ"
      ],
      [
        "¬åĽŃ",
        "æķ£æŃ¥"
      ],
      [
        "¬çī¹çļĦ",
        "æĮĳæĪĺ"
      ],
      [
        "¶è¯Ńè¨Ģ",
        "å¤ĦçĲĨéĿ¢ä¸´çĭ"
      ],
      [
        "½ĵæ²³æµģæľīåħ³çļĦåŃĹ",
        "ä¹ī"
      ],
      [
        "½çļĦä¸Ģä¸ªéĩįè¦ģ",
        "åĪĨæĶ¯"
      ],
      [
        "¾åĪĨä¹ĭåħ«åį",
        "ģä»¥ä¸Ĭ"
      ],
      [
        "ħçļĦåİĨåı²åĴĮ",
        "ä¸°å¯ĮçļĦæĸĩåĮ"
      ],
      [
        "ĨåĪĩåħ³",
        "ç³»"
      ],
      [
        "æľºåĻ¨åŃ¦ä¹łæĺ¯",
        "äººå·¥æĻºèĥ"
      ],
      [
        "ä¸ŃæĸĩèĩªçĦ",
        "¶è¯Ńè¨Ģå¤ĦçĲĨéĿ¢ä¸´çĭ"
      ],
      [
        "æľ¨éĥ¨çļĦåŃĹä¸İæłĳæľ¨",
        "æľīåħ³"
      ],
      [
        "æ°µä¸īçĤ¹æ°´è¡¨",
        "ç¤ºä¸İæ°´æ¶²ä"
      ],
      [
        "æľīéĿĴè¿Ļä¸ª",
        "å£°æĹģ"
      ],
      [
        "æ±ŃæĮĩæ°´æ¹",
        "¾"
      ],
      [
        "æ°´æĺ¯çĶŁåĳ",
        "½ä¹ĭæºĲ"
      ],
      [
        "ä»Ĭå¤©å¤©æ°Ķå¾Ī",
        "å¥½"
      ],
      [
        "æłĳæ¡Įæ¤ħæŁľ",
        "æĿ¿æ¢ģæŁ±æ£įæ£"
      ],
      [
        "æĪĳä»¬åİ»åħ",
        "¬åĽŃæķ£æŃ¥"
      ],
      [
        "çĥŃéĩıéĥ½ä¸İçģ«æľīå¯",
        "ĨåĪĩåħ³ç³»"
      ],
      [
        "æ±īåŃĹåħ·æľīæĤłä¹",
        "ħçļĦåİĨåı²åĴĮä¸°å¯ĮçļĦæĸĩåĮ"
      ],
      [
        "æ¸ħæĻ´æĥħè¯·éĿĴéĥ½åĲ«",
        "æľīéĿĴè¿Ļä¸ªå£°æĹģ"
      ],
      [
        "å½¢å£°åŃĹåįłæ±īåŃĹæĢ»æķ°çļĦçĻ",
        "¾åĪĨä¹ĭåħ«åįģä»¥ä¸Ĭ"
      ],
      [
        "å½¢å£°åŃĹçĶ±å½¢æĹģåĴĮå£°æĹģæŀ",
        "ĦæĪĲ"
      ],
      [
        "æµ¯æĺ¯å±±ä¸ľçļĦä¸Ģ",
        "æĿ¡æ²³"
      ],
      [
        "æľºåĻ¨åŃ¦ä¹łæĺ¯äººå·¥æĻºèĥ",
        "½çļĦä¸Ģä¸ªéĩįè¦ģåĪĨæĶ¯"
      ],
      [
        "ä¸ŃæĸĩèĩªçĦ¶è¯Ńè¨Ģå¤ĦçĲĨéĿ¢ä¸´çĭ",
        "¬çī¹çļĦæĮĳæĪĺ"
      ],
      [
        "æ°µä¸īçĤ¹æ°´è¡¨ç¤ºä¸İæ°´æ¶²ä",
        "½ĵæ²³æµģæľīåħ³çļĦåŃĹä¹ī"
      ],
      [
        "æłĳæ¡Įæ¤ħæŁľæĿ¿æ¢ģæŁ±æ£įæ£",
        "Ĵ"
      ],
      [
        "æ±īåŃĹåħ·æľīæĤłä¹ħçļĦåİĨåı²åĴĮä¸°å¯ĮçļĦæĸĩåĮ",
        "ĸåĨħæ¶µ"
      ],
      [
        "f",
        "Å"
      ],
      [
        "p",
        "Ä"
      ],
      [
        "w",
        "Ã"
      ],
      [
        "¢",
        "ĳ"
      ],
      [
        "£",
        "ģ"
      ],
      [
        "¥",
        "æ¸"
      ],
      [
        "¦",
        "æ¡"
      ],
      [
        "©",
        "¡"
      ],
      [
        "«",
        "ĭ"
      ],
      [
        "«",
        "ng"
      ],
      [
        "¯",
        "ı"
      ],
      [
        "°",
        "§"
      ],
      [
        "°",
        "ĥ"
      ],
      [
        "³",
        "æıĲç¤ºè¯»éŁ³"
      ],
      [
        "¾",
        "Ĭ"
      ],
      [
        "¾",
        "æŁ"
      ],
      [
        "¿",
        "Ħ"
      ],
      [
        "Ã",
        "ł"
      ],
      [
        "å",
        "Ģ"
      ],
      [
        "å",
        "ľ"
      ],
      [
        "å",
        "Ŀ"
      ],
      [
        "å",
        "·¥"
      ],
      [
        "å",
        "¿Ħ"
      ],
      [
        "æ",
        "ī"
      ],
      [
        "æ",
        "Ł³"
      ],
      [
        "æ",
        "©¡"
      ],
      [
        "æ",
        "¯ı"
      ],
      [
        "ç",
        "Į"
      ],
      [
        "ç",
        "ĵ"
      ],
      [
        "ç",
        "¢ĳ"
      ],
      [
        "ç",
        "£ģ"
      ],
      [
        "ç",
        "«ĭ"
      ],
      [
        "ç",
        "¾Ĭ"
      ],
      [
        "è",
        "ĭ"
      ],
      [
        "è",
        "°ĥ"
      ],
      [
        "ģ",
        "ı"
      ],
      [
        "ģ",
        "ng"
      ],
      [
        "ĥ",
        "æ¢"
      ],
      [
        "ħ",
        "æĿ"
      ],
      [
        "ĭ",
        "º"
      ],
      [
        "ı",
        "æŁ³"
      ],
      [
        "ĵ",
        "n"
      ],
      [
        "Ķ",
        "æ¡"
      ],
      [
        "æľ¨",
        "çģ«"
      ],
      [
        "æľ¨",
        "åĪĨ"
      ],
      [
        "æľ¨",
        "æĹı"
      ],
      [
        "æľ¨",
        "åį"
      ],
      [
        "æľ¨",
        "åı"
      ],
      [
        "æľ¨",
        "å¯"
      ],
      [
        "æľ¨",
        "å¥"
      ],
      [
        "æľ¨",
        "åĮ"
      ],
      [
        "æľ¨",
        "æ¤į"
      ],
      [
        "æĹ",
        "¥"
      ],
      [
        "åħ",
        "¹"
      ],
      [
        "åħ",
        "½"
      ],
      [
        "æĹģ",
        "å£°"
      ],
      [
        "æ°µ",
        "æ°´"
      ],
      [
        "æ°µ",
        "éĿĴ"
      ],
      [
        "æ°µ",
        "åı"
      ],
      [
        "æ°µ",
        "æĸ¹"
      ],
      [
        "æ°µ",
        "èĥ"
      ],
      [
        "æ°µ",
        "åĲ¾"
      ],
      [
        "æ°µ",
        "å·¥"
      ],
      [
        "æ°µ",
        "æ¯ı"
      ],
      [
        "æ°µ",
        "ç¾Ĭ"
      ],
      [
        "æ°µ",
        "æľ¨çģ«"
      ],
      [
        "çģ«",
        "çģ«"
      ],
      [
        "çģ«",
        "çĥŃ"
      ],
      [
        "çģ«",
        "æĶµ"
      ],
      [
        "çģ«",
        "èĩ"
      ],
      [
        "çģ«",
        "æī"
      ],
      [
        "çŁ³",
        "çĬŃ"
      ],
      [
        "çŁ³",
        "åį"
      ],
      [
        "çŁ³",
        "çŁ¿"
      ],
      [
        "çŁ³",
        "åİĨ"
      ],
      [
        "çŁ³",
        "åħ¹"
      ],
      [
        "æ°´",
        "æĹı"
      ],
      [
        "æĺ¯",
        "æ°´åĲį"
      ],
      [
        "æĺ¯",
        "æ²³æµģ"
      ],
      [
        "æĺ¯",
        "é¦Ļæľ¨"
      ],
      [
        "å£°æĹģ",
        "å¹"
      ],
      [
        "å£°æĹģ",
        "åĪĨ"
      ],
      [
        "å£°æĹģ",
        "å¹²"
      ],
      [
        "å£°æĹģ",
        "æĸ¹"
      ],
      [
        "å£°æĹģ",
        "æĶµ"
      ],
      [
        "å£°æĹģ",
        "éĥ¨é¦"
      ],
      [
        "å£°æĹģ",
        "åĲ¾"
      ],
      [
        "æłĳ",
        "æ£®æŀĹ"
      ],
      [
        "è¯»éŁ³",
        "è¯Ńä¹ī"
      ],
      [
        "æĪ",
        "·"
      ],
      [
        "æĪ",
        "¿"
      ],
      [
        "éĿ",
        "ĸ"
      ],
      [
        "çĬŃ",
        "åı"
      ],
      [
        "çĬŃ",
        "èī"
      ],
      [
        "çĬŃ",
        "çĵ"
      ],
      [
        "çĬŃ",
        "èĭ"
      ],
      [
        "çĬŃ",
        "åħ½"
      ],
      [
        "ä»İ",
        "çģ«"
      ],
      [
        "ä»İ",
        "çŁ³"
      ],
      [
        "ä»İ",
        "çĬ¬"
      ],
      [
        "æ´",
        "¥æ¸"
      ],
      [
        "æ¡",
        "¦æ¡"
      ],
      [
        "æĶ",
        "¾"
      ],
      [
        "çł",
        "¾"
      ],
      [
        "éĿĴ",
        "æĹı"
      ],
      [
        "çĭ",
        "¼"
      ],
      [
        "çĭ",
        "Ĳ"
      ],
      [
        "çĭ",
        "Ĺ"
      ],
      [
        "çĬ´",
        "æ°µæľ¨çģ«"
      ],
      [
        "çł¯",
        "çĬ´æ°µæľ¨çģ«"
      ],
      [
        "äº",
        "º"
      ],
      [
        "å½¢æĹģ",
        "å£°æĹģéĥ¨é¦"
      ],
      [
        "æ£»",
        "æľ¸"
      ],
      [
        "çĤĩ",
        "çł¯çĬ´æ°µæľ¨çģ«"
      ],
      [
        "è®",
        "¿"
      ],
      [
        "çŁ³å¹",
        "¿"
      ],
      [
        "æĸ¹",
        "æĹı"
      ],
      [
        "èĬ",
        "³"
      ],
      [
        "ĸå",
        "ģı"
      ],
      [
        "æĿ»",
        "çĤĩçł¯çĬ´æ°µæľ¨çģ«"
      ],
      [
        "æ±Łæ²³æ¹ĸæµ·æ´ĭæ³īæºĲæµģ",
        "æ´¥æ¸"
      ],
      [
        "fÄ",
        "ģng"
      ],
      [
        "fÄ",
        "ĵn"
      ],
      [
        "èī",
        "¹"
      ],
      [
        "éĺ",
        "²"
      ],
      [
        "éĺ",
        "Ŀ"
      ],
      [
        "çģ«å",
        "°§"
      ],
      [
        "çģ«å",
        "ĭº"
      ],
      [
        "fÅ",
        "«"
      ],
      [
        "pÄ",
        "«ng"
      ],
      [
        "wÃ",
        "º"
      ],
      [
        "¾æŁ",
        "ıæŁ³"
      ],
      [
        "Ãł",
        "n"
      ],
      [
        "åĢ",
        "©"
      ],
      [
        "åľ",
        "Ł"
      ],
      [
        "åĿ",
        "Ĭ"
      ],
      [
        "çĮ",
        "«"
      ],
      [
        "è°ĥ",
        "è¯»éŁ³è¯Ńä¹ī"
      ],
      [
        "ĥæ¢",
        "ħæĿ"
      ],
      [
        "Ķæ¡",
        "ĥæ¢ħæĿ"
      ],
      [
        "æľ¨åį",
        "ĵ"
      ],
      [
        "æľ¨åı",
        "į"
      ],
      [
        "æľ¨å¯",
        "¹"
      ],
      [
        "æľ¨å¥",
        "ĩ"
      ],
      [
        "æľ¨åĮ",
        "®"
      ],
      [
        "æĹģå£°",
        "è°ĥè¯»éŁ³è¯Ńä¹ī"
      ],
      [
        "æ°µåı",
        "¯"
      ],
      [
        "æ°µèĥ",
        "¡"
      ],
      [
        "çģ«èĩ",
        "½"
      ],
      [
        "çģ«æī",
        "§"
      ],
      [
        "çŁ³åį",
        "ĳ"
      ],
      [
        "æĺ¯æ²³æµģ",
        "åĲį"
      ],
      [
        "å£°æĹģå¹",
        "³æıĲç¤ºè¯»éŁ³"
      ],
      [
        "å£°æĹģåĪĨ",
        "æıĲç¤ºè¯»éŁ³"
      ],
      [
        "å£°æĹģå¹²",
        "æıĲç¤ºè¯»éŁ³"
      ],
      [
        "å£°æĹģæĸ¹",
        "æıĲç¤ºè¯»éŁ³"
      ],
      [
        "å£°æĹģæĶµ",
        "æıĲç¤ºè¯»éŁ³"
      ],
      [
        "å£°æĹģåĲ¾",
        "æıĲç¤ºè¯»éŁ³"
      ],
      [
        "æłĳæ£®æŀĹ",
        "æ¡¦æ¡"
      ],
      [
        "çĬŃåı",
        "¥"
      ],
      [
        "çĬŃèī",
        "¯"
      ],
      [
        "çĬŃçĵ",
        "ľ"
      ],
      [
        "çĬŃèĭ",
        "Ĺ"
      ],
      [
        "å½¢æĹģå£°æĹģéĥ¨é¦",
        "ĸåģı"
      ],
      [
        "æ£»æľ¸",
        "æĿ»çĤĩçł¯çĬ´æ°µæľ¨çģ«"
      ],
      [
        "æ±Łæ²³æ¹ĸæµ·æ´ĭæ³īæºĲæµģæ´¥æ¸",
        "¡"
      ],
      [
        "¾æŁıæŁ³",
        "æ©¡"
      ],
      [
        "Ķæ¡ĥæ¢ħæĿ",
        "¾æŁıæŁ³æ©¡"
      ],
      [
        "æłĳæ£®æŀĹæ¡¦æ¡",
        "Ķæ¡ĥæ¢ħæĿ¾æŁıæŁ³æ©¡"
      ],
      [
        "å½¢æĹģå£°æĹģéĥ¨é¦ĸåģı",
        "æĹģå£°è°ĥè¯»éŁ³è¯Ńä¹ī"
      ],
      [
        "æ£»æľ¸æĿ»çĤĩçł¯çĬ´æ°µæľ¨çģ«",
        "çŁ³çĬŃ"
      ]
    ]
  }
}