{
  "version": "1.0",
  "truncation": null,
  "padding": null,
  "added_tokens": [
    {
      "id": 0,
      "content": "[UNK]",
      "single_word": false,
      "lstrip": false,
      "rstrip": false,
      "normalized": false,
      "special": true
    },
    {
      "id": 1,
      "content": "[PAD]",
      "single_word": false,
      "lstrip": false,
      "rstrip": false,
      "normalized": false,
      "special": true
    },
    {
      "id": 2,
      "content": "[BOS]",
      "single_word": false,
      "lstrip": false,
      "rstrip": false,
      "normalized": false,
      "special": true
    },
    {
      "id": 3,
      "content": "[EOS]",
      "single_word": false,
      "lstrip": false,
      "rstrip": false,
      "normalized": false,
      "special": true
    }
  ],
  "normalizer": null,
  "pre_tokenizer": {
    "type": "ByteLevel",
    "add_prefix_space": false,
    "trim_offsets": true,
    "use_regex": true
  },
  "post_processor": null,
  "decoder": {
    "type": "ByteLevel",
    "add_prefix_space": true,
    "trim_offsets": true,
    "use_regex": true
  },
  "model": {
    "type": "BPE",
    "dropout": null,
    "unk_token": "[UNK]",
    "continuing_subword_prefix": null,
    "end_of_word_suffix": null,
    "fuse_unk": false,
    "byte_fallback": false,
    "ignore_merges": false,
    "vocab": {
      "[UNK]": 0,
      "[PAD]": 1,
      "[BOS]": 2,
      "[EOS]": 3,
      "¡": 4,
      "¢": 5,
      "£": 6,
      "¤": 7,
      "¥": 8,
      "¦": 9,
      "§": 10,
      "¨": 11,
      "©": 12,
      "ª": 13,
      "«": 14,
      "¬": 15,
      "®": 16,
      "¯": 17,
      "°": 18,
      "±": 19,
      "²": 20,
      "³": 21,
      "´": 22,
      "µ": 23,
      "¶": 24,
      "·": 25,
      "¸": 26,
      "¹": 27,
      "º": 28,
      "»": 29,
      "¼": 30,
      "½": 31,
      "¾": 32,
      "¿": 33,
      "ã": 34,
      "ä": 35,
      "å": 36,
      "æ": 37,
      "ç": 38,
      "è": 39,
      "é": 40,
      "ï": 41,
      "Ċ": 42,
      "Ģ": 43,
      "ģ": 44,
      "Ĥ": 45,
      "ĥ": 46,
      "Ħ": 47,
      "ħ": 48,
      "Ĩ": 49,
      "ĩ": 50,
      "Ī": 51,
      "ī": 52,
      "Ĭ": 53,
      "ĭ": 54,
      "Į": 55,
      "į": 56,
      "İ": 57,
      "ı": 58,
      "Ĳ": 59,
      "ĳ": 60,
      "Ĵ": 61,
      "ĵ": 62,
      "Ķ": 63,
      "ķ": 64,
      "ĸ": 65,
      "Ĺ": 66,
      "ĺ": 67,
      "Ļ": 68,
      "ļ": 69,
      "Ľ": 70,
      "ľ": 71,
      "Ŀ": 72,
      "ŀ": 73,
      "Ł": 74,
      "ł": 75,
      "Ń": 76,
      "ĢĤ": 77,
      "ãĢĤ": 78,
      "ä¸": 79,
      "çļ": 80,
      "çļĦ": 81,
      "åŃ": 82,
      "åŃĹ": 83,
      "æľ": 84,
      "æĺ": 85,
      "æĺ¯": 86,
      "åħ": 87,
      "éĥ": 88,
      "åı": 89,
      "ï¼": 90,
      "åĴ": 91,
      "åĴĮ": 92,
      "åĪ": 93,
      "äº": 94,
      "å¤": 95,
      "ï¼Į": 96,
      "çĶ": 97,
      "æ°": 98,
      "æµ": 99,
      "éĥ¨": 100,
      "æĪ": 101,
      "æ±": 102,
      "ä¹": 103,
      "æĹ": 104,
      "éĩ": 105,
      "çĥ": 106,
      "¦ģ": 107,
      "ä»": 108,
      "è¦ģ": 109,
      "åĪĨ": 110,
      "ç»": 111,
      "å½": 112,
      "çĶŁ": 113,
      "æľ¨": 114,
      "æ²": 115,
      "æ³": 116,
      "å½¢": 117,
      "åĬ": 118,
      "çī": 119,
      "åľ": 120,
      "æĹģ": 121,
      "æĸ": 122,
      "çŁ": 123,
      "æľī": 124,
      "éĩį": 125,
      "±»": 126,
      "æł": 127,
      "æĪĲ": 128,
      "ä¸Ģ": 129,
      "æ£": 130,
      "ç§": 131,
      "çģ": 132,
      "æ°´": 133,
      "çĤ": 134,
      "æ´": 135,
      "åŁ": 136,
      "è¯": 137,
      "äºº": 138,
      "å¯": 139,
      "æī": 140,
      "éĥ½": 141,
      "éĩįè¦ģ": 142,
      "ç±»": 143,
      "åį": 144,
      "æŀ": 145,
      "åĲ": 146,
      "çģ«": 147,
      "æ²³": 148,
      "īåŃĹ": 149,
      "æ±īåŃĹ": 150,
      "åİ": 151,
      "ä¸ª": 152,
      "å£": 153,
      "å·": 154,
      "ĦæĪĲ": 155,
      "ä¸İ": 156,
      "åħ³": 157,
      "çŁ³": 158,
      "æ¹": 159,
      "æĿ": 160,
      "çĥŃ": 161,
      "æķ": 162,
      "è´": 163,
      "ĩå": 164,
      "å£°": 165,
      "å±": 166,
      "æı": 167,
      "èĢ": 168,
      "é¦": 169,
      "ä¸Ń": 170,
      "åıĳ": 171,
      "ºç": 172,
      "ä¾": 173,
      "åģ": 174,
      "èĥ": 175,
      "æµ·": 176,
      "çī©": 177,
      "èĥ½": 178,
      "°ç": 179,
      "æµģ": 180,
      "çĥ§": 181,
      "åľ¨": 182,
      "æłĳ": 183,
      "æĬ": 184,
      "æľĢ": 185,
      "åĳ": 186,
      "ç¤": 187,
      "ä¸Ĭ": 188,
      "çļĦç": 189,
      "çļĦéĩįè¦ģ": 190,
      "ä¹ĭ": 191,
      "çī¹": 192,
      "å¯Į": 193,
      "æīį": 194,
      "å·¥": 195,
      "é¦ĸ": 196,
      "å®": 197,
      "æİ": 198,
      "è¿": 199,
      "éĿ": 200,
      "Ķå": 201,
      "éĩı": 202,
      "ç»ĦæĪĲ": 203,
      "æıĲ": 204,
      "åº": 205,
      "æĮ": 206,
      "æŁ": 207,
      "éľ": 208,
      "Ģè¦ģ": 209,
      "ĥçĥ§": 210,
      "ĩĥçĥ§": 211,
      "çļĦåŃĹ": 212,
      "å¤§": 213,
      "å¤ļ": 214,
      "éĥ¨çļĦåŃĹ": 215,
      "æľīåħ³": 216,
      "åįģ": 217,
      "æłĳæľ¨": 218,
      "éľĢè¦ģ": 219,
      "æ¸": 220,
      "çĬ": 221,
      "çł": 222,
      "æĥ": 223,
      "æĶ": 224,
      "Ĩåı": 225,
      "çļĦåŁ": 226,
      "åŃ¦": 227,
      "æĺ¯äºº": 228,
      "è¯Ń": 229,
      "éĥ½ä¸İ": 230,
      "åİĨåı": 231,
      "æĬĢ": 232,
      "æĶ¯": 233,
      "åİĨåı²": 234,
      "¡å½¢": 235,
      "±¡å½¢": 236,
      "çĦ": 237,
      "çĽ": 238,
      "è®": 239,
      "è±¡å½¢": 240,
      "ģçļĦ": 241,
      "æĺ¯çĶŁ": 242,
      "åħ·": 243,
      "åħ»": 244,
      "äºĭ": 245,
      "å¤©": 246,
      "çĶ±": 247,
      "éĥ¨é¦ĸ": 248,
      "ä¹ī": 249,
      "ç»ı": 250,
      "å½¢å£°": 251,
      "åĬĽ": 252,
      "ä¸Ģä¸ª": 253,
      "ç¤º": 254,
      "è±¡å½¢åŃĹ": 255,
      "å½¢å£°åŃĹ": 256,
      "ºĲ": 257,
      "ä½": 258,
      "å¸": 259,
      "æĦ": 260,
      "æĻ": 261,
      "æºĲ": 262,
      "è°": 263,
      "éĢ": 264,
      "éĺ": 265,
      "ĸæµ·": 266,
      "Łæ²³": 267,
      "ä¸į": 268,
      "éĥ¨åĪĨ": 269,
      "æ±Łæ²³": 270,
      "æ£®": 271,
      "æ¹ĸæµ·": 272,
      "æĿĲ": 273,
      "è¿ĩ": 274,
      "éĿ¢": 275,
      "æ±Łæ²³æ¹ĸæµ·": 276,
      "åĩ": 277,
      "æ¤": 278,
      "æ·": 279,
      "çĩĥçĥ§": 280,
      "è§": 281,
      "èī": 282,
      "åŃĹä»": 283,
      "åħī": 284,
      "ï¼ļ": 285,
      "çĶ¨": 286,
      "ç§¯": 287,
      "ç§į": 288,
      "çĤİ": 289,
      "æ´ĭ": 290,
      "ä¾Ľ": 291,
      "æĮĩ": 292,
      "èī²": 293,
      "åŃĹä»İ": 294,
      "¡Ģ": 295,
      "¢å¯Į": 296,
      "¤èĢ": 297,
      "¥ŀ": 298,
      "¨Ģ": 299,
      "²¾": 300,
      "¹åħ»": 301,
      "¼ļ": 302,
      "ä¼ļ": 303,
      "åĽ": 304,
      "æ¯": 305,
      "æĢ": 306,
      "æĤ": 307,
      "æŃ": 308,
      "ç´": 309,
      "çİ": 310,
      "çķ": 311,
      "ç¥ŀ": 312,
      "èĩ": 313,
      "è¨Ģ": 314,
      "ĨåĪ": 315,
      "ĩåħ³": 316,
      "Įĸ": 317,
      "ĳä»": 318,
      "łä¹": 319,
      "ä¸¤": 320,
      "çļĦè´": 321,
      "åŃĹçļĦ": 322,
      "åŃĹæĹģ": 323,
      "æľ¯": 324,
      "æĺ¯æľĢ": 325,
      "åħ¬": 326,
      "åı¤èĢ": 327,
      "åĴĮå": 328,
      "æ°ĳ": 329,
      "æĪĸ": 330,
      "æĪĳä»": 331,
      "ä¹ł": 332,
      "æĹı": 333,
      "å½¢æĹģ": 334,
      "æĸĩ": 335,
      "æĸĩå": 336,
      "æľīå¯": 337,
      "æłĩå": 338,
      "ç§ĳ": 339,
      "åŁ¹åħ»": 340,
      "è¯»": 341,
      "äººæīį": 342,
      "åİ»": 343,
      "æķĻ": 344,
      "å£°æĹģ": 345,
      "å±ķ": 346,
      "åıĳå±ķ": 347,
      "ºç¡Ģ": 348,
      "åĳ½": 349,
      "çļĦç²¾": 350,
      "Ķå¾": 351,
      "æıĲç¤º": 352,
      "æĥ³": 353,
      "åŃ¦ä¹ł": 354,
      "è¯Ńè¨Ģ": 355,
      "æĬĢæľ¯": 356,
      "æĺ¯çĶŁåĳ½": 357,
      "éĥ¨é¦ĸæĺ¯": 358,
      "æĤłä¹": 359,
      "æŃ¥": 360,
      "èĩª": 361,
      "ĨåĪĩåħ³": 362,
      "åŃĹæĹģæľīå¯": 363,
      "åı¤èĢģçļĦ": 364,
      "æĪĳä»¬": 365,
      "æĸĩåĮĸ": 366,
      "çļĦç²¾ç¥ŀ": 367,
      "æıĲç¤ºåŃĹçļĦ": 368,
      "æĤłä¹ħ": 369,
      "åŃĹæĹģæľīå¯ĨåĪĩåħ³": 370,
      "©çŁ³": 371,
      "°å¯Į": 372,
      "²©çŁ³": 373,
      "¾åĪĨ": 374,
      "åŀ": 375,
      "å²©çŁ³": 376,
      "æ¢": 377,
      "æ®": 378,
      "æ¶": 379,
      "çĲ": 380,
      "èĤ": 381,
      "èĮ": 382,
      "é¢": 383,
      "ıæĹģ": 384,
      "Ļ¾åĪĨ": 385,
      "ä¸°å¯Į": 386,
      "æĺ¯ä¸Ģä¸ª": 387,
      "åı¯": 388,
      "æľ¨æĿĲ": 389,
      "åĬ¨": 390,
      "ç±»åŀ": 391,
      "åįł": 392,
      "æŀĦ": 393,
      "æŀĹ": 394,
      "æŀĦæĪĲ": 395,
      "åĲĪ": 396,
      "åĲĮ": 397,
      "çĥŃéĩı": 398,
      "åģıæĹģ": 399,
      "çļĦçĻ¾åĪĨ": 400,
      "æīįèĥ½": 401,
      "å®Ŀ": 402,
      "æŁ±": 403,
      "çĦ°ç": 404,
      "æĦı": 405,
      "æ£®æŀĹ": 406,
      "çĲĨ": 407,
      "èĮĥ": 408,
      "ç±»åŀĭ": 409,
      "çļĦçĻ¾åĪĨä¹ĭ": 410,
      "¡¨": 411,
      "¡Į": 412,
      "¤çĤ": 413,
      "¦åı": 414,
      "®çļĦ": 415,
      "¸è§": 416,
      "¾İ": 417,
      "åĢ": 418,
      "æ¡Į": 419,
      "çĸ": 420,
      "èĬ": 421,
      "è¡¨": 422,
      "ħ¤çĤ": 423,
      "īæºĲ": 424,
      "ĬçļĦ": 425,
      "Ĳĥ": 426,
      "ä¸º": 427,
      "çļĦå": 428,
      "æľ¸": 429,
      "æĺ¯åľ": 430,
      "åĪ¶": 431,
      "äº§": 432,
      "æ°µ": 433,
      "æµ¯": 434,
      "æ±¸": 435,
      "æ±Ń": 436,
      "æĹ¶": 437,
      "æ³Ľ": 438,
      "æ³īæºĲ": 439,
      "åĬł": 440,
      "æ£»": 441,
      "çĤĩ": 442,
      "æ²³æµģ": 443,
      "æ¹¾": 444,
      "å±±": 445,
      "åıĳåĩ": 446,
      "°çĲĥ": 447,
      "æıĲä¾Ľ": 448,
      "æŁľ": 449,
      "å¤§å¤ļ": 450,
      "éĥ¨çļĦåŃĹå¤§å¤ļ": 451,
      "åįģåĪĨ": 452,
      "çĬ´": 453,
      "çł¯": 454,
      "å¸¸è§": 455,
      "éĿ¢ç§¯": 456,
      "æ±Łæ²³æ¹ĸæµ·æ´ĭ": 457,
      "æ¤ħ": 458,
      "ç§įç±»": 459,
      "æ¡Įæ¤ħ": 460,
      "èĬĤ": 461,
      "ħ¤çĤŃ": 462,
      "åıĳåĩº": 463,
      "éĥ¨çļĦåŃĹå¤§å¤ļä¸İ": 464,
      "æ±Łæ²³æ¹ĸæµ·æ´ĭæ³īæºĲ": 465,
      "¡æī": 466,
      "¢ĥ": 467,
      "¢åĴĮ": 468,
      "£ä»": 469,
      "£æŃ¥": 470,
      "¤æĺ¯": 471,
      "¤æµģ": 472,
      "¤åĲĮ": 473,
      "¥½": 474,
      "¥è¯": 475,
      "¥æı": 476,
      "¥ä¸Ĭ": 477,
      "¥åº": 478,
      "¦ı": 479,
      "¦æĥ³": 480,
      "¨ĭ": 481,
      "¨åŃ¦ä¹ł": 482,
      "¨åĬ¨": 483,
      "ªĮ": 484,
      "ªĴ": 485,
      "ªåĬĽ": 486,
      "«åįģ": 487,
      "¬æĺ¯": 488,
      "¬çī¹": 489,
      "¬ç»ĦæĪĲ": 490,
      "®åĴĮ": 491,
      "®æł": 492,
      "¯å": 493,
      "°åĴĮ": 494,
      "°èĩª": 495,
      "°çļĦçĻ¾åĪĨä¹ĭ": 496,
      "±çļĦ": 497,
      "²æĺ¯": 498,
      "³»": 499,
      "´ç": 500,
      "´æİ": 501,
      "´å²©çŁ³": 502,
      "µçļĦè´": 503,
      "¶è¯Ńè¨Ģ": 504,
      "·åı": 505,
      "·æĺ¯äºº": 506,
      "¸ç": 507,
      "¹æ³": 508,
      "¹¸ç": 509,
      "ºå": 510,
      "ºæľ": 511,
      "ºèĥ½": 512,
      "ºçļĦç²¾ç¥ŀ": 513,
      "»åĴĮ": 514,
      "»æķ": 515,
      "¼ºçļĦç²¾ç¥ŀ": 516,
      "½çļĦ": 517,
      "¾ģ": 518,
      "¾ä¼ļ": 519,
      "¿Ĺ": 520,
      "¿Ŀ": 521,
      "¿çī©": 522,
      "ä¿Ŀ": 523,
      "åĨ": 524,
      "åĮ": 525,
      "å¥½": 526,
      "å¾ģ": 527,
      "æį": 528,
      "æĴ": 529,
      "ç¨ĭ": 530,
      "ç³»": 531,
      "ç¼ºçļĦç²¾ç¥ŀ": 532,
      "èģ": 533,
      "èİ": 534,
      "éŁ": 535,
      "éªĮ": 536,
      "Ģåľ¨": 537,
      "Ģç´": 538,
      "ĥç´": 539,
      "ĦåĴĮ": 540,
      "ĦåĲĪ": 541,
      "ĦçĲĨ": 542,
      "ħåĴĮ": 543,
      "ħè¯»": 544,
      "ħæ¶": 545,
      "ĨåŁ": 546,
      "Ĩç¤": 547,
      "ĨçļĦéĩįè¦ģ": 548,
      "ĩĨ": 549,
      "ĩæ¢": 550,
      "Īæĸ": 551,
      "Īå¥½": 552,
      "īæĪĳä»¬": 553,
      "Ĭè¯": 554,
      "Ĭå¤©": 555,
      "Ĭæĺ¯çĶŁåĳ½": 556,
      "ĭè°": 557,
      "ĭæ®": 558,
      "ĭ¬çī¹": 559,
      "ĮæĪĲ": 560,
      "Įä¸Ĭ": 561,
      "įåħ": 562,
      "İçŁ³": 563,
      "İå¸": 564,
      "İåıĳå±ķ": 565,
      "ıç»": 566,
      "ıä¸ª": 567,
      "ĳæĪ": 568,
      "ĵæŀĦ": 569,
      "Ķä¾": 570,
      "ķä½": 571,
      "ĸçŁ": 572,
      "ĸçķ": 573,
      "Ĺäº": 574,
      "ĺéĿ": 575,
      "ĺäºĭ": 576,
      "Ļ¨åŃ¦ä¹ł": 577,
      "Ľæĸ": 578,
      "ĽæŃ¥": 579,
      "Ŀæĥ³": 580,
      "Ŀæį": 581,
      "ŀäº": 582,
      "ŀçİ": 583,
      "Ńæķ": 584,
      "ä¸´ç": 585,
      "ä¸ĸçķ": 586,
      "çļĦè¿": 587,
      "çļĦåİĨåı²": 588,
      "çļĦäºĭ": 589,
      "çļĦä¸Ģä¸ª": 590,
      "çļĦåıĳå±ķ": 591,
      "çļĦæĬĢæľ¯": 592,
      "çļĦæĸĩåĮĸ": 593,
      "åŃĹä¹ĭ": 594,
      "åŃĹéĥ¨çļĦåŃĹ": 595,
      "åŃĹçĶ±": 596,
      "æľºå": 597,
      "æĺ¯èİ": 598,
      "æĺ¯ä¸ĸçķ": 599,
      "åħ«åįģ": 600,
      "åıĭè°": 601,
      "åıĺéĿ": 602,
      "åĴĮéĩįè¦ģ": 603,
      "åĴĮè®": 604,
      "åĴĮå£°æĹģ": 605,
      "åĴĮä¸°å¯Į": 606,
      "åĴĮåıĺéĿ": 607,
      "åĪ«": 608,
      "åĪĽæĸ": 609,
      "äº¤æµģ": 610,
      "äºĨç¤": 611,
      "å¤´å²©çŁ³": 612,
      "å¤ĦçĲĨ": 613,
      "æ°Ķå¾": 614,
      "æµİåıĳå±ķ": 615,
      "ä»ĭ": 616,
      "ä»¥ä¸Ĭ": 617,
      "ä»Ĭå¤©": 618,
      "åĪĨç±»": 619,
      "åĪĨæĶ¯": 620,
      "ç»ĦåĲĪ": 621,
      "ç»ĵæŀĦ": 622,
      "çĶŁæľĢ": 623,
      "çĶŁçĽ": 624,
      "çĶŁçļĦäºĭ": 625,
      "æľ¨åŃĹæĹģæľīå¯ĨåĪĩåħ³": 626,
      "åĬ¡æī": 627,
      "åĬªåĬĽ": 628,
      "çŁ¿çī©": 629,
      "æľīæķ": 630,
      "æľīæĤłä¹ħ": 631,
      "æ£Ģç´": 632,
      "æ°´æľīåħ³": 633,
      "æ°´æĺ¯çĶŁåĳ½": 634,
      "çĤ¹": 635,
      "åŁºç¡Ģ": 636,
      "äººçĶŁçĽ": 637,
      "æīĭæ®": 638,
      "éĥ½å±": 639,
      "éĩįè¦ģåĪĨæĶ¯": 640,
      "ç±»åĪ«": 641,
      "ç±»äº¤æµģ": 642,
      "åįķä½": 643,
      "çģ«åŃĹæĹģæľīå¯ĨåĪĩåħ³": 644,
      "çģ«çĦ°ç": 645,
      "æ±īåŃĹçļĦåŁ": 646,
      "æ±īåŃĹåħ·": 647,
      "æ±īåŃĹæĢ": 648,
      "æ±īåŃĹç±»åŀĭ": 649,
      "æ±īåŃĹæĺ¯ä¸ĸçķ": 650,
      "æ±īåŃĹæ£Ģç´": 651,
      "ä¸ªè±¡å½¢åŃĹ": 652,
      "ä¸ªæĪĸ": 653,
      "å·±çļĦ": 654,
      "çŁ³å¤´å²©çŁ³": 655,
      "è´¢å¯Į": 656,
      "è´µçļĦè´": 657,
      "èĢĮæĪĲ": 658,
      "ä¸Ńä¸į": 659,
      "ä¸ŃåĽ": 660,
      "ä¸Ńæĸĩ": 661,
      "åıĳçĶŁçļĦäºĭ": 662,
      "ä¾Ŀæį": 663,
      "åģ¥åº": 664,
      "æµ·æĺ¯æľĢ": 665,
      "æĬ¤æĺ¯": 666,
      "æľĢåı¤èĢģçļĦ": 667,
      "åĳĬè¯": 668,
      "ä¸Ĭæµ·æĺ¯æľĢ": 669,
      "çļĦéĩįè¦ģå·¥": 670,
      "çļĦéĩįè¦ģä¾Ŀæį": 671,
      "ä¹ĭæºĲ": 672,
      "çī¹å¾ģ": 673,
      "çī¹çĤ¹": 674,
      "å·¥æĻ": 675,
      "å·¥ç¨ĭ": 676,
      "é¦ĸéĥ½": 677,
      "å®ŀçİ": 678,
      "æİ¨åĬ¨": 679,
      "ç»ĦæĪĲç»ĵæŀĦ": 680,
      "æĮĳæĪ": 681,
      "ĩĥçĥ§çĥŃéĩı": 682,
      "å¤§çļĦåŁ": 683,
      "å¤ļä¸ªè±¡å½¢åŃĹ": 684,
      "æłĳæľ¨æ£®æŀĹ": 685,
      "éľĢè¦ģç§ĳ": 686,
      "æĥħåĴĮ": 687,
      "çļĦåŁºç¡Ģ": 688,
      "åŃ¦æĬĢæľ¯": 689,
      "æĺ¯äººç±»äº¤æµģ": 690,
      "æĺ¯äººå·¥æĻ": 691,
      "è¯Ńä¹ī": 692,
      "éĥ½ä¸İæľ¨åŃĹæĹģæľīå¯ĨåĪĩåħ³": 693,
      "éĥ½ä¸İæ°´æľīåħ³": 694,
      "éĥ½ä¸İçģ«åŃĹæĹģæľīå¯ĨåĪĩåħ³": 695,
      "æĬĢåĪĽæĸ": 696,
      "æĶ¯æŁ±": 697,
      "æĶ¯æĴ": 698,
      "åİĨåı²æĤłä¹ħ": 699,
      "åİĨåı²åĳĬè¯": 700,
      "çĦ¶è¯Ńè¨Ģ": 701,
      "çĽ´æİ": 702,
      "è®Ń": 703,
      "åħ·åĴĮå": 704,
      "å¤©æ°Ķå¾": 705,
      "çĶ±å½¢æĹģ": 706,
      "ä¹īåĬ¡æī": 707,
      "ç»ıéªĮ": 708,
      "ç»ıæµİåıĳå±ķ": 709,
      "åĬĽéĩı": 710,
      "è±¡å½¢åŃĹæĺ¯æľĢ": 711,
      "å½¢å£°åŃĹåįł": 712,
      "å½¢å£°åŃĹçĶ±å½¢æĹģ": 713,
      "éĢĶå¾": 714,
      "éĺħè¯»": 715,
      "éĥ¨åĪĨç»ĦæĪĲç»ĵæŀĦ": 716,
      "è¿ĩåİ»": 717,
      "éĿ¢ä¸´ç": 718,
      "æ±Łæ²³æ¹ĸæµ·éĥ½ä¸İæ°´æľīåħ³": 719,
      "¢å¯ĮåĴĮå": 720,
      "ä¼ļæĦı": 721,
      "åĽŃæķ": 722,
      "æ¯ıä¸ª": 723,
      "æ¯Ķä¾": 724,
      "æĢĿæĥ³": 725,
      "çİ¯å": 726,
      "çķ´": 727,
      "ä¸¤ä¸ªæĪĸ": 728,
      "ä¸¤éĥ¨åĪĨç»ĦæĪĲç»ĵæŀĦ": 729,
      "çļĦè´£ä»": 730,
      "åħ¬æ°ĳ": 731,
      "åħ¬åĽŃæķ": 732,
      "æ°ĳæĹı": 733,
      "æĪĸç¼ºçļĦç²¾ç¥ŀ": 734,
      "æĹıèĮĥ": 735,
      "å½¢æĹģæıĲç¤ºåŃĹçļĦ": 736,
      "æĸĩåŃĹä¹ĭ": 737,
      "æłĩå¿Ĺ": 738,
      "æłĩåĩĨ": 739,
      "ç§ĳåŃ¦æĬĢæľ¯": 740,
      "åŁ¹åħ»äººæīį": 741,
      "åŁ¹åħ»æĶ¯æĴ": 742,
      "è¯»éŁ": 743,
      "äººæīįåŁ¹åħ»æĶ¯æĴ": 744,
      "åİ»åħ¬åĽŃæķ": 745,
      "æķĻèĤ": 746,
      "æķĻè®Ń": 747,
      "å£°æĹģæıĲç¤ºåŃĹçļĦ": 748,
      "åŃ¦ä¹łæīįèĥ½": 749,
      "è¯Ńè¨Ģæĺ¯äººç±»äº¤æµģ": 750,
      "éĥ¨é¦ĸæĺ¯æŀĦæĪĲ": 751,
      "éĥ¨é¦ĸæĺ¯æ±īåŃĹæ£Ģç´": 752,
      "èĩªçĦ¶è¯Ńè¨Ģ": 753,
      "åı¤èĢģçļĦæ±īåŃĹç±»åŀĭ": 754,
      "æĪĳä»¬åİ»åħ¬åĽŃæķ": 755,
      "æĸĩåĮĸæĺ¯ä¸Ģä¸ª": 756,
      "çļĦç²¾ç¥ŀè´¢å¯Į": 757,
      "é¢ĨåŁ": 758,
      "åı¯æĪĸç¼ºçļĦç²¾ç¥ŀ": 759,
      "æľ¨æĿĲæłĳæľ¨æ£®æŀĹ": 760,
      "åģıæĹģéĥ¨é¦ĸæĺ¯æŀĦæĪĲ": 761,
      "å®Ŀè´µçļĦè´": 762,
      "¢ĥä¿Ŀ": 763,
      "¢åĴĮåĪĨç±»": 764,
      "¤åĲĮæłĩå¿Ĺ": 765,
      "¥è¯ĨçļĦéĩįè¦ģ": 766,
      "¥æııç»": 767,
      "¦ıåŁºç¡Ģ": 768,
      "ªĴä»ĭ": 769,
      "¬æĺ¯ä¸ŃåĽ": 770,
      "¬ç»ĦæĪĲåįķä½": 771,
      "®åĴĮæłĩåĩĨ": 772,
      "®æłĩæ¢": 773,
      "°åĴĮäººæīįåŁ¹åħ»æĶ¯æĴ": 774,
      "°èĩªå·±çļĦ": 775,
      "°çļĦçĻ¾åĪĨä¹ĭåħ«åįģ": 776,
      "²æĺ¯åŁ¹åħ»äººæīį": 777,
      "·åıĸçŁ": 778,
      "·æĺ¯äººçĶŁæľĢ": 779,
      "¹æ³ķ": 780,
      "¹¸ç¦ıåŁºç¡Ģ": 781,
      "ºæľ¬ç»ĦæĪĲåįķä½": 782,
      "ºèĥ½çļĦä¸Ģä¸ª": 783,
      "»åĴĮä¹īåĬ¡æī": 784,
      "»æķ°çļĦçĻ¾åĪĨä¹ĭåħ«åįģ": 785,
      "½çļĦé¦ĸéĥ½": 786,
      "¾ä¼ļçļĦè¿": 787,
      "åĨħæ¶": 788,
      "åĮĹäº": 789,
      "èģĶ": 790,
      "ĥç´ł": 791,
      "ĦåĴĮæľīæķ": 792,
      "Īæĸ¹æ³ķ": 793,
      "īæĪĳä»¬è¿ĩåİ»": 794,
      "Ĭæĺ¯çĶŁåĳ½ä¸Ńä¸į": 795,
      "ĭ¬çī¹çļĦæĬĢæľ¯": 796,
      "Įä¸ĬæľĢåı¤èĢģçļĦ": 797,
      "įåħĥç´ł": 798,
      "İçŁ³åŃĹéĥ¨çļĦåŃĹ": 799,
      "İå¸Ĥ": 800,
      "ĺäºĭçī©": 801,
      "Ļ¨åŃ¦ä¹łæĺ¯äººå·¥æĻ": 802,
      "ĽæŃ¥åĴĮåıĺéĿ": 803,
      "ŀäºİçŁ³åŃĹéĥ¨çļĦåŃĹ": 804,
      "çļĦåİĨåı²åĴĮä¸°å¯Į": 805,
      "çļĦåıĳå±ķæİ¨åĬ¨": 806,
      "çļĦæĸĩåĮĸåĨħæ¶": 807,
      "åŃĹçĶ±ä¸¤ä¸ªæĪĸ": 808,
      "æľºåĻ¨åŃ¦ä¹łæĺ¯äººå·¥æĻ": 809,
      "æĺ¯èİ·åıĸçŁ": 810,
      "åıĭè°Ĭæĺ¯çĶŁåĳ½ä¸Ńä¸į": 811,
      "åĴĮéĩįè¦ģæīĭæ®": 812,
      "åĴĮè®¤åĲĮæłĩå¿Ĺ": 813,
      "åĴĮå£°æĹģä¸¤éĥ¨åĪĨç»ĦæĪĲç»ĵæŀĦ": 814,
      "äºĨç¤¾ä¼ļçļĦè¿": 815,
      "å¤ĦçĲĨéĿ¢ä¸´ç": 816,
      "ä»¥ä¸Ĭæ¯Ķä¾": 817,
      "ä»Ĭå¤©å¤©æ°Ķå¾": 818,
      "ç»ĦåĲĪèĢĮæĪĲ": 819,
      "åĬªåĬĽåŃ¦ä¹łæīįèĥ½": 820,
      "çŁ¿çī©éĥ½å±": 821,
      "æľīæĤłä¹ħçļĦåİĨåı²åĴĮä¸°å¯Į": 822,
      "æ°´æĺ¯çĶŁåĳ½ä¹ĭæºĲ": 823,
      "äººçĶŁçĽ®æłĩæ¢": 824,
      "éĩįè¦ģåĪĨæĶ¯é¢ĨåŁ": 825,
      "çģ«çĦ°çĩĥçĥ§çĥŃéĩı": 826,
      "æ±īåŃĹçļĦåŁºæľ¬ç»ĦæĪĲåįķä½": 827,
      "æ±īåŃĹåħ·æľīæĤłä¹ħçļĦåİĨåı²åĴĮä¸°å¯Į": 828,
      "æ±īåŃĹæĢ»æķ°çļĦçĻ¾åĪĨä¹ĭåħ«åįģ": 829,
      "æ±īåŃĹæĺ¯ä¸ĸçķĮä¸ĬæľĢåı¤èĢģçļĦ": 830,
      "çŁ³å¤´å²©çŁ³çŁ¿çī©éĥ½å±": 831,
      "ä¸ŃæĸĩèĩªçĦ¶è¯Ńè¨Ģ": 832,
      "åıĳçĶŁçļĦäºĭæĥħåĴĮ": 833,
      "åģ¥åº·æĺ¯äººçĶŁæľĢ": 834,
      "æĬ¤æĺ¯æ¯ıä¸ª": 835,
      "ä¸Ĭæµ·æĺ¯æľĢå¤§çļĦåŁ": 836,
      "çļĦéĩįè¦ģå·¥åħ·åĴĮå": 837,
      "çļĦéĩįè¦ģä¾Ŀæį®åĴĮæłĩåĩĨ": 838,
      "å·¥ç¨ĭåĴĮéĩįè¦ģæīĭæ®": 839,
      "å®ŀçİ°èĩªå·±çļĦ": 840,
      "æĮĳæĪĺ": 841,
      "å¤ļä¸ªè±¡å½¢åŃĹç»ĦåĲĪèĢĮæĪĲ": 842,
      "éľĢè¦ģç§ĳæĬĢåĪĽæĸ": 843,
      "çļĦåŁºç¡Ģå·¥ç¨ĭåĴĮéĩįè¦ģæīĭæ®": 844,
      "è¯Ńä¹īç±»åĪ«": 845,
      "éĥ½ä¸İæľ¨åŃĹæĹģæľīå¯ĨåĪĩåħ³èģĶ": 846,
      "éĥ½ä¸İçģ«åŃĹæĹģæľīå¯ĨåĪĩåħ³ç³»": 847,
      "æĶ¯æŁ±åĬĽéĩı": 848,
      "åİĨåı²åĳĬè¯īæĪĳä»¬è¿ĩåİ»": 849,
      "çĽ´æİ¥æııç»": 850,
      "ç»ıéªĮæķĻè®Ń": 851,
      "ç»ıæµİåıĳå±ķéľĢè¦ģç§ĳæĬĢåĪĽæĸ": 852,
      "è±¡å½¢åŃĹæĺ¯æľĢåı¤èĢģçļĦæ±īåŃĹç±»åŀĭ": 853,
      "å½¢å£°åŃĹåįłæ±īåŃĹæĢ»æķ°çļĦçĻ¾åĪĨä¹ĭåħ«åįģ": 854,
      "å½¢å£°åŃĹçĶ±å½¢æĹģåĴĮå£°æĹģä¸¤éĥ¨åĪĨç»ĦæĪĲç»ĵæŀĦ": 855,
      "éĢĶå¾ĦåĴĮæľīæķ": 856,
      "éĺħè¯»æĺ¯èİ·åıĸçŁ": 857,
      "¢å¯ĮåĴĮå¹¸ç¦ıåŁºç¡Ģ": 858,
      "ä¼ļæĦıåŃĹçĶ±ä¸¤ä¸ªæĪĸ": 859,
      "æĢĿæĥ³çļĦéĩįè¦ģå·¥åħ·åĴĮå": 860,
      "çİ¯å¢ĥä¿Ŀ": 861,
      "çļĦè´£ä»»åĴĮä¹īåĬ¡æī": 862,
      "åħ¬æ°ĳçļĦè´£ä»»åĴĮä¹īåĬ¡æī": 863,
      "æ°ĳæĹıçļĦç²¾ç¥ŀè´¢å¯Į": 864,
      "æĹıèĮĥçķ´": 865,
      "å½¢æĹģæıĲç¤ºåŃĹçļĦè¯Ńä¹īç±»åĪ«": 866,
      "æĸĩåŃĹä¹ĭä¸Ģ": 867,
      "ç§ĳåŃ¦æĬĢæľ¯çļĦåıĳå±ķæİ¨åĬ¨": 868,
      "è¯»éŁ³": 869,
      "æķĻèĤ²æĺ¯åŁ¹åħ»äººæīį": 870,
      "å£°æĹģæıĲç¤ºåŃĹçļĦè¯»éŁ³": 871,
      "è¯Ńè¨Ģæĺ¯äººç±»äº¤æµģæĢĿæĥ³çļĦéĩįè¦ģå·¥åħ·åĴĮå": 872,
      "éĥ¨é¦ĸæĺ¯æ±īåŃĹæ£Ģç´¢åĴĮåĪĨç±»": 873,
      "æĪĳä»¬åİ»åħ¬åĽŃæķ£æŃ¥": 874,
      "æĸĩåĮĸæĺ¯ä¸Ģä¸ªæ°ĳæĹıçļĦç²¾ç¥ŀè´¢å¯Į": 875,
      "åı¯æĪĸç¼ºçļĦç²¾ç¥ŀæĶ¯æŁ±åĬĽéĩı": 876,
      "æľ¨æĿĲæłĳæľ¨æ£®æŀĹéĥ½ä¸İæľ¨åŃĹæĹģæľīå¯ĨåĪĩåħ³èģĶ": 877,
      "åģıæĹģéĥ¨é¦ĸæĺ¯æŀĦæĪĲæ±īåŃĹçļĦåŁºæľ¬ç»ĦæĪĲåįķä½": 878,
      "å®Ŀè´µçļĦè´¢å¯ĮåĴĮå¹¸ç¦ıåŁºç¡Ģ": 879,
      "¥è¯ĨçļĦéĩįè¦ģéĢĶå¾ĦåĴĮæľīæķ": 880,
      "¬æĺ¯ä¸ŃåĽ½çļĦé¦ĸéĥ½": 881,
      "°åĴĮäººæīįåŁ¹åħ»æĶ¯æĴĳ": 882,
      "ºèĥ½çļĦä¸Ģä¸ªéĩįè¦ģåĪĨæĶ¯é¢ĨåŁ": 883,
      "åĮĹäº¬æĺ¯ä¸ŃåĽ½çļĦé¦ĸéĥ½": 884,
      "ĭ¬çī¹çļĦæĬĢæľ¯æĮĳæĪĺ": 885,
      "ĽæŃ¥åĴĮåıĺéĿ©": 886,
      "ŀäºİçŁ³åŃĹéĥ¨çļĦåŃĹæĹıèĮĥçķ´": 887,
      "çļĦæĸĩåĮĸåĨħæ¶µ": 888,
      "æľºåĻ¨åŃ¦ä¹łæĺ¯äººå·¥æĻºèĥ½çļĦä¸Ģä¸ªéĩįè¦ģåĪĨæĶ¯é¢ĨåŁ": 889,
      "åıĭè°Ĭæĺ¯çĶŁåĳ½ä¸Ńä¸įåı¯æĪĸç¼ºçļĦç²¾ç¥ŀæĶ¯æŁ±åĬĽéĩı": 890,
      "äºĨç¤¾ä¼ļçļĦè¿ĽæŃ¥åĴĮåıĺéĿ©": 891,
      "å¤ĦçĲĨéĿ¢ä¸´çĭ¬çī¹çļĦæĬĢæľ¯æĮĳæĪĺ": 892,
      "ä»¥ä¸Ĭæ¯Ķä¾ĭ": 893,
      "ä»Ĭå¤©å¤©æ°Ķå¾Īå¥½": 894,
      "åĬªåĬĽåŃ¦ä¹łæīįèĥ½å®ŀçİ°èĩªå·±çļĦ": 895,
      "äººçĶŁçĽ®æłĩæ¢¦æĥ³": 896,
      "çģ«çĦ°çĩĥçĥ§çĥŃéĩıéĥ½ä¸İçģ«åŃĹæĹģæľīå¯ĨåĪĩåħ³ç³»": 897,
      "æ±īåŃĹåħ·æľīæĤłä¹ħçļĦåİĨåı²åĴĮä¸°å¯ĮçļĦæĸĩåĮĸåĨħæ¶µ": 898,
      "æ±īåŃĹæĺ¯ä¸ĸçķĮä¸ĬæľĢåı¤èĢģçļĦæĸĩåŃĹä¹ĭä¸Ģ": 899,
      "çŁ³å¤´å²©çŁ³çŁ¿çī©éĥ½å±ŀäºİçŁ³åŃĹéĥ¨çļĦåŃĹæĹıèĮĥçķ´": 900,
      "ä¸ŃæĸĩèĩªçĦ¶è¯Ńè¨Ģå¤ĦçĲĨéĿ¢ä¸´çĭ¬çī¹çļĦæĬĢæľ¯æĮĳæĪĺ": 901,
      "åıĳçĶŁçļĦäºĭæĥħåĴĮç»ıéªĮæķĻè®Ń": 902,
      "åģ¥åº·æĺ¯äººçĶŁæľĢå®Ŀè´µçļĦè´¢å¯ĮåĴĮå¹¸ç¦ıåŁºç¡Ģ": 903,
      "æĬ¤æĺ¯æ¯ıä¸ªåħ¬æ°ĳçļĦè´£ä»»åĴĮä¹īåĬ¡æī": 904,
      "ä¸Ĭæµ·æĺ¯æľĢå¤§çļĦåŁİå¸Ĥ": 905,
      "å¤ļä¸ªè±¡å½¢åŃĹç»ĦåĲĪèĢĮæĪĲçī¹å¾ģ": 906,
      "çļĦåŁºç¡Ģå·¥ç¨ĭåĴĮéĩįè¦ģæīĭæ®µ": 907,
      "åİĨåı²åĳĬè¯īæĪĳä»¬è¿ĩåİ»åıĳçĶŁçļĦäºĭæĥħåĴĮç»ıéªĮæķĻè®Ń": 908,
      "çĽ´æİ¥æııç»ĺäºĭçī©": 909,
      "ç»ıæµİåıĳå±ķéľĢè¦ģç§ĳæĬĢåĪĽæĸ°åĴĮäººæīįåŁ¹åħ»æĶ¯æĴĳ": 910,
      "å½¢å£°åŃĹåįłæ±īåŃĹæĢ»æķ°çļĦçĻ¾åĪĨä¹ĭåħ«åįģä»¥ä¸Ĭæ¯Ķä¾ĭ": 911,
      "å½¢å£°åŃĹçĶ±å½¢æĹģåĴĮå£°æĹģä¸¤éĥ¨åĪĨç»ĦæĪĲç»ĵæŀĦçī¹çĤ¹": 912,
      "éĺħè¯»æĺ¯èİ·åıĸçŁ¥è¯ĨçļĦéĩįè¦ģéĢĶå¾ĦåĴĮæľīæķ": 913,
      "ä¼ļæĦıåŃĹçĶ±ä¸¤ä¸ªæĪĸå¤ļä¸ªè±¡å½¢åŃĹç»ĦåĲĪèĢĮæĪĲçī¹å¾ģ": 914,
      "çİ¯å¢ĥä¿ĿæĬ¤æĺ¯æ¯ıä¸ªåħ¬æ°ĳçļĦè´£ä»»åĴĮä¹īåĬ¡æī": 915,
      "ç§ĳåŃ¦æĬĢæľ¯çļĦåıĳå±ķæİ¨åĬ¨äºĨç¤¾ä¼ļçļĦè¿ĽæŃ¥åĴĮåıĺéĿ©": 916,
      "æķĻèĤ²æĺ¯åŁ¹åħ»äººæīįçļĦåŁºç¡Ģå·¥ç¨ĭåĴĮéĩįè¦ģæīĭæ®µ": 917,
      "è¯Ńè¨Ģæĺ¯äººç±»äº¤æµģæĢĿæĥ³çļĦéĩįè¦ģå·¥åħ·åĴĮåªĴä»ĭ": 918,
      "éĥ¨é¦ĸæĺ¯æ±īåŃĹæ£Ģç´¢åĴĮåĪĨç±»çļĦéĩįè¦ģä¾Ŀæį®åĴĮæłĩåĩĨ": 919,
      "æĸĩåĮĸæĺ¯ä¸Ģä¸ªæ°ĳæĹıçļĦç²¾ç¥ŀè´¢å¯ĮåĴĮè®¤åĲĮæłĩå¿Ĺ": 920,
      "åģıæĹģéĥ¨é¦ĸæĺ¯æŀĦæĪĲæ±īåŃĹçļĦåŁºæľ¬ç»ĦæĪĲåįķä½įåħĥç´ł": 921,
      "æľºåĻ¨åŃ¦ä¹łæĺ¯äººå·¥æĻºèĥ½çļĦä¸Ģä¸ªéĩįè¦ģåĪĨæĶ¯é¢ĨåŁŁ": 922,
      "åĬªåĬĽåŃ¦ä¹łæīįèĥ½å®ŀçİ°èĩªå·±çļĦäººçĶŁçĽ®æłĩæ¢¦æĥ³": 923,
      "éĺħè¯»æĺ¯èİ·åıĸçŁ¥è¯ĨçļĦéĩįè¦ģéĢĶå¾ĦåĴĮæľīæķĪæĸ¹æ³ķ": 924,
      "çİ¯å¢ĥä¿ĿæĬ¤æĺ¯æ¯ıä¸ªåħ¬æ°ĳçļĦè´£ä»»åĴĮä¹īåĬ¡æīĢåľ¨": 925,
      "¡¬": 926,
      "¡æµ": 927,
      "¡æ²³æµģ": 928,
      "£¨": 929,
      "£Ł": 930,
      "£çļĦ": 931,
      "¤éĥ¨åĪĨ": 932,
      "¥ª": 933,
      "¥æ²": 934,
      "¥çĥŃ": 935,
      "¥æ¸": 936,
      "¥è¡¨": 937,
      "¥æĹ¶": 938,
      "¦ä¸Ń": 939,
      "¦æ¸": 940,
      "§æ°": 941,
      "§åĪ¶": 942,
      "¨åŃĹ": 943,
      "©æ": 944,
      "©Ļ": 945,
      "©äºº": 946,
      "ªæĸ": 947,
      "ªæ°´": 948,
      "«ĺ": 949,
      "«æĺ¯çĶŁ": 950,
      "«æ°µ": 951,
      "¬æ³": 952,
      "¬¦åı": 953,
      "¯Ŀ": 954,
      "¯èī²": 955,
      "¯æ¹¾": 956,
      "°è": 957,
      "°ı": 958,
      "°å£": 959,
      "²Į": 960,
      "²Ĵ": 961,
      "²åľ": 962,
      "²ä½": 963,
      "²èĮĥ": 964,
      "³åİ": 965,
      "³çļĦéĩįè¦ģ": 966,
      "³åħī": 967,
      "³ä¾Ľ": 968,
      "³åı¯": 969,
      "³éĿ¢ç§¯": 970,
      "´æµģ": 971,
      "¶éĩį": 972,
      "¶æ¹": 973,
      "¶åħ·": 974,
      "¶³ä¾Ľ": 975,
      "·é": 976,
      "·æĿ": 977,
      "·åĢ": 978,
      "¸æ³": 979,
      "¸åĲĮ": 980,
      "¹¿": 981,
      "¹é": 982,
      "¹ģ": 983,
      "¹³åİ": 984,
      "»ºç": 985,
      "»å½¢å£°åŃĹ": 986,
      "»çĶ¨": 987,
      "»çĲĨ": 988,
      "»åĬł": 989,
      "»¥æĹ¶": 990,
      "¼é": 991,
      "¼åĴĮ": 992,
      "¼å¤": 993,
      "¼çĥŃ": 994,
      "¼æ£®": 995,
      "½èī²": 996,
      "½¬æ³": 997,
      "¾ĥ": 998,
      "¾Ī": 999,
      "¾æĺ¯": 1000,
      "¾èĢ": 1001,
      "¿éľĢè¦ģ": 1002,
      "¿æ¢": 1003,
      "åĥ": 1004,
      "åĵ": 1005,
      "å°ı": 1006,
      "å¹³åİ": 1007,
      "æ©Ļ": 1008,
      "æ»¥æĹ¶": 1009,
      "æ¾Ī": 1010,
      "çľ": 1011,
      "ç¾İ": 1012,
      "çħ¤çĤŃ": 1013,
      "ç¡¬": 1014,
      "ç£¨": 1015,
      "ç¬¦åı": 1016,
      "ç¯Ŀ": 1017,
      "ç²Ĵ": 1018,
      "ç¹ģ": 1019,
      "èĪ": 1020,
      "è¶³ä¾Ľ": 1021,
      "è½¬æ³": 1022,
      "è¾ĥ": 1023,
      "éķ": 1024,
      "éļ": 1025,
      "éĽ": 1026,
      "éĢĤ": 1027,
      "é±»": 1028,
      "é£Ł": 1029,
      "ĢĻ": 1030,
      "ĢŁ": 1031,
      "Ģçľ": 1032,
      "ģç»ĦæĪĲ": 1033,
      "ģæŁ±": 1034,
      "ģç§įç±»": 1035,
      "Ĥçł": 1036,
      "ĥåįģ": 1037,
      "ĥèĬĤ": 1038,
      "ħæ¾Ī": 1039,
      "ħè¶³ä¾Ľ": 1040,
      "ĨåĲĪ": 1041,
      "ĩ¥çĥŃ": 1042,
      "ĩé±»": 1043,
      "īè§": 1044,
      "īç§¯": 1045,
      "ĬæĹ¶": 1046,
      "ĬæŁľ": 1047,
      "įæ£": 1048,
      "įçī©": 1049,
      "įæŀĦæĪĲ": 1050,
      "İäº": 1051,
      "İèĥ½": 1052,
      "ıå¯": 1053,
      "ıå¤©": 1054,
      "ĲåįģåĪĨ": 1055,
      "ĳæĿĲ": 1056,
      "Ĵæ´": 1057,
      "Ĵæŀ": 1058,
      "ĴéĢĤ": 1059,
      "ĵæľīåħ³": 1060,
      "ĵç£¨": 1061,
      "ĶåĴĮ": 1062,
      "ĸæĺ": 1063,
      "Ĺ´æµģ": 1064,
      "Ĺç²Ĵ": 1065,
      "Ļæľ¨": 1066,
      "Ļåľ¨": 1067,
      "Ļæīįèĥ½": 1068,
      "ļçĶŁ": 1069,
      "ļè¿ĩ": 1070,
      "ļåĩ": 1071,
      "ļçĩĥçĥ§": 1072,
      "ļç¡¬": 1073,
      "ļĸæĺ": 1074,
      "Ľ®çļĦ": 1075,
      "ľçļĦ": 1076,
      "ľæĻ": 1077,
      "ľçĶ¨": 1078,
      "Ŀļç¡¬": 1079,
      "ŁåĴĮ": 1080,
      "ŁåĪ": 1081,
      "łåĬł": 1082,
      "Ńéĥ¨": 1083,
      "Ńä¹": 1084,
      "Ńæ³": 1085,
      "ŃĳæĿĲ": 1086,
      "ä¸½": 1087,
      "ä¸ĥåįģ": 1088,
      "ä¸īè§": 1089,
      "ä¸ļçĶŁ": 1090,
      "ä¸ľçļĦ": 1091,
      "çļĦåħ": 1092,
      "çļĦå¤": 1093,
      "çļĦæ²³": 1094,
      "çļĦèĤ": 1095,
      "åŃĹæĺ¯": 1096,
      "åŃĹéĢ": 1097,
      "æĺ¯åı": 1098,
      "æĺ¯ä¸Ģ": 1099,
      "æĺ¯éĩįè¦ģ": 1100,
      "æĺ¯å±±": 1101,
      "æĺ¯å¸¸è§": 1102,
      "åħŃä¹": 1103,
      "åı£çļĦ": 1104,
      "åıĬæĹ¶": 1105,
      "åĴĮåģ": 1106,
      "åĴĮåħ»": 1107,
      "å¤įæŀĦæĪĲ": 1108,
      "å¤ľæĻ": 1109,
      "æ°Ķå": 1110,
      "æ°§æ°": 1111,
      "éĥ¨ä»": 1112,
      "çĥ¹é": 1113,
      "ä»·åĢ": 1114,
      "åĪĨçļĦåħ": 1115,
      "åĪĨåĴĮåħ»": 1116,
      "å½©": 1117,
      "çĶŁæ´": 1118,
      "çĶŁçĥŃéĩı": 1119,
      "çĶŁéķ": 1120,
      "æľ¨éĥ¨çļĦåŃĹ": 1121,
      "æľ¨åĪ¶": 1122,
      "æ²»çĲĨ": 1123,
      "æ²īç§¯": 1124,
      "æ³¥æ²": 1125,
      "æ³½èī²": 1126,
      "å½¢æĪĲ": 1127,
      "åľ°çĲĥ": 1128,
      "æĸĻ": 1129,
      "ä¸Ģå·": 1130,
      "ä¸ĢæĿ": 1131,
      "æ£įæ£": 1132,
      "çģ¼çĥŃ": 1133,
      "æ°´åĲ": 1134,
      "æ°´åľ¨": 1135,
      "æ°´æ¶": 1136,
      "æ°´æ¹¾": 1137,
      "æ°´åĪĨåĴĮåħ»": 1138,
      "æ´¥æ¸": 1139,
      "æ´ªæ°´": 1140,
      "æ´Ńæ³": 1141,
      "æīĵç£¨": 1142,
      "éĥ½åĲ": 1143,
      "éĥ½æĺ¯å¸¸è§": 1144,
      "åĲİèĥ½": 1145,
      "çģ«éĥ¨": 1146,
      "çģ«åľ¨": 1147,
      "çģ«åħī": 1148,
      "çģ«åĢ": 1149,
      "çģ«éĥ¨çļĦåŃĹå¤§å¤ļä¸İ": 1150,
      "æ²³åº": 1151,
      "ä¸İæłĳæľ¨": 1152,
      "çŁ³éĥ¨": 1153,
      "çŁ³ç»ı": 1154,
      "æĿ¿æ¢": 1155,
      "çĥŃæľīåħ³": 1156,
      "çĥŃçļĦå¤": 1157,
      "è´¨": 1158,
      "ĩåĢŁ": 1159,
      "èĢĢçľ": 1160,
      "é¦Ļæľ¨": 1161,
      "ä¸Ńæ²īç§¯": 1162,
      "ºç¾İ": 1163,
      "ºçĽ®çļĦ": 1164,
      "åģļåĩ": 1165,
      "æµ·æ´ĭ": 1166,
      "çī©è´¨": 1167,
      "èĥ½éĩı": 1168,
      "°çĩ¥çĥŃ": 1169,
      "æµģæ´¥æ¸": 1170,
      "çĥ§çģ¼çĥŃ": 1171,
      "åľ¨è±¡å½¢åŃĹ": 1172,
      "æłĳæ¡Įæ¤ħ": 1173,
      "åĳ³åı¯": 1174,
      "ä¸Ĭæ·": 1175,
      "çī¹æ®": 1176,
      "å·¥ä¸ļçĶŁ": 1177,
      "å®¶åħ·": 1178,
      "æİ§åĪ¶": 1179,
      "æİªæĸ": 1180,
      "Ķå¹¿": 1181,
      "ç»ĦæĪĲéĥ¨åĪĨ": 1182,
      "åºĶ": 1183,
      "åºĬæŁľ": 1184,
      "å¤§å°ı": 1185,
      "å¤ļä¸°å¯Į": 1186,
      "æłĳæľ¨çļĦå": 1187,
      "æłĳæľ¨çĶŁéķ": 1188,
      "éľĢè¦ģåıĬæĹ¶": 1189,
      "éľĢè¦ģæİ§åĪ¶": 1190,
      "æ¸©æ": 1191,
      "æ¸ħæ¾Ī": 1192,
      "çĬĩé±»": 1193,
      "çĬŃéĥ¨": 1194,
      "çłĤçł": 1195,
      "çĽ¸åĲĮ": 1196,
      "è®©äºº": 1197,
      "ģçļĦæľ¨åĪ¶": 1198,
      "äºĭåŃĹéĢ": 1199,
      "çĶ±çĽ¸åĲĮ": 1200,
      "ç¤ºæĦı": 1201,
      "ä½ľçĶ¨": 1202,
      "æĦŁåĪ": 1203,
      "æĻ¯èī²": 1204,
      "è°·é": 1205,
      "è°ĥèĬĤ": 1206,
      "éĢĶå¹¿": 1207,
      "éĺ²èĮĥ": 1208,
      "éĺ³åħī": 1209,
      "ä¸įä¸Ģ": 1210,
      "ä¸įèĪ": 1211,
      "è¿ĩæīĵç£¨": 1212,
      "æ¤įçī©": 1213,
      "æ·Į": 1214,
      "æ·¼æ£®": 1215,
      "çĩĥçĥ§äº§": 1216,
      "çĩĥçĥ§çĥŃæľīåħ³": 1217,
      "åħīæ³½èī²": 1218,
      "çĶ¨éĢĶå¹¿": 1219,
      "ç§įé¦Ļæľ¨": 1220,
      "çĤİçĥŃçļĦå¤": 1221,
      "çĤİçĥ§çģ¼çĥŃ": 1222,
      "çĤİçĬĩé±»": 1223,
      "æĮĩæ°´æ¹¾": 1224,
      "æĮĩæłĳæľ¨çļĦå": 1225,
      "æĮĩäºĭåŃĹéĢ": 1226,
      "èī²çģ«åħī": 1227,
      "åŃĹä»İçģ«éĥ¨": 1228,
      "åŃĹä»İçŁ³éĥ¨": 1229,
      "åŃĹä»İçĬŃéĥ¨": 1230,
      "å²©çŁ³æĺ¯åľ": 1231,
      "é¢Ĺç²Ĵ": 1232,
      "æĺ¯ä¸Ģä¸ªæ°´åĲ": 1233,
      "æľ¨æĿĲæĺ¯éĩįè¦ģ": 1234,
      "åĬ¨åĬĽ": 1235,
      "åįłåľ°çĲĥ": 1236,
      "æŀĦåŃĹ": 1237,
      "å®ĿçŁ³ç»ı": 1238,
      "çĦ°çħ¤çĤŃ": 1239,
      "æ£®æŀĹæĺ¯åľ": 1240,
      "çļĦçĻ¾åĪĨä¹ĭä¸ĥåįģ": 1241,
      "¦åı³éĿ¢ç§¯": 1242,
      "®çļĦæ©Ļ": 1243,
      "çĸ¤éĥ¨åĪĨ": 1244,
      "çĸıå¯": 1245,
      "è¡¨éĿ¢ç§¯": 1246,
      "ĬçļĦç±»åŀĭ": 1247,
      "ĬçļĦå¸¸è§": 1248,
      "ä¸ºçī¹æ®": 1249,
      "ä¸ºå·¥ä¸ļçĶŁ": 1250,
      "çļĦå»ºç": 1251,
      "æľ¸æ±Ń": 1252,
      "æľ¸æĮĩæłĳæľ¨çļĦå": 1253,
      "äº§æıĲä¾Ľ": 1254,
      "æ°µéĥ¨çļĦåŃĹå¤§å¤ļä¸İ": 1255,
      "æµ¯æĺ¯å±±": 1256,
      "æµ¯æľ¸æ±Ń": 1257,
      "æ±¸æ£»": 1258,
      "æ±¸æĺ¯ä¸Ģä¸ªæ°´åĲ": 1259,
      "æ±ŃæĮĩæ°´æ¹¾": 1260,
      "æ³Ľæ»¥æĹ¶": 1261,
      "æ³Ľä»·åĢ": 1262,
      "æ£»æĺ¯ä¸Ģ": 1263,
      "çĤĩçł¯": 1264,
      "çĤĩåŃĹä»İçģ«éĥ¨": 1265,
      "æ²³æµģä¸Ńæ²īç§¯": 1266,
      "å±±è°·é": 1267,
      "°çĲĥçļĦèĤ": 1268,
      "æıĲä¾Ľæ°§æ°": 1269,
      "æŁľæĿ¿æ¢": 1270,
      "åįģåĪĨç¾İ": 1271,
      "çĬ´åŃĹä»İçĬŃéĥ¨": 1272,
      "çĬ´æµ¯æľ¸æ±Ń": 1273,
      "çł¯åŃĹä»İçŁ³éĥ¨": 1274,
      "ç§įç±»ç¹ģ": 1275,
      "æ¡Įæ¤ħåºĬæŁľ": 1276,
      "èĬĤçĸ¤éĥ¨åĪĨ": 1277,
      "åıĳåĩºèĢĢçľ": 1278,
      "åıĳåĩºæ¸©æ": 1279,
      "æ±Łæ²³æ¹ĸæµ·æ´ĭæ³īæºĲæµģæ´¥æ¸": 1280,
      "¡æµ¦æ¸": 1281,
      "¥ªéľĢè¦ģæİ§åĪ¶": 1282,
      "¥è¡¨ç¤ºæĦı": 1283,
      "¦ä¸Ńè¾ĥ": 1284,
      "¨åŃĹåĴĮåģ": 1285,
      "«æĺ¯çĶŁåĥ": 1286,
      "«æ°µéĥ¨é¦ĸ": 1287,
      "¯æ¹¾éĥ½åĲ": 1288,
      "°è²Į": 1289,
      "°å£³çļĦéĩįè¦ģ": 1290,
      "²åľ°è²Į": 1291,
      "²ä½ĵæľīåħ³": 1292,
      "¶éĩįå¤įæŀĦæĪĲ": 1293,
      "¶æ¹¸æ³": 1294,
      "·æĿ¥è¡¨ç¤ºæĦı": 1295,
      "»å½¢å£°åŃĹéĽ": 1296,
      "»çĶ¨åĵ": 1297,
      "»åĬłç¬¦åı": 1298,
      "¼é«ĺ": 1299,
      "¼åĴĮéĺ²èĮĥ": 1300,
      "¼å¤ºçĽ®çļĦ": 1301,
      "¾æĺ¯æ²³åº": 1302,
      "¾èĢĲåįģåĪĨ": 1303,
      "¿éľĢè¦ģéĺ³åħī": 1304,
      "å¹³åİŁåĴĮ": 1305,
      "çħ¤çĤŃçĩĥçĥ§äº§": 1306,
      "ç¯Ŀçģ«åľ¨": 1307,
      "è½¬æ³¨åŃĹåĴĮåģ": 1308,
      "éļ¾èĢĲåįģåĪĨ": 1309,
      "é£Łçī©": 1310,
      "ĢĻä½ľçĶ¨": 1311,
      "ģç»ĦæĪĲçī©è´¨": 1312,
      "ģæŁ±æ£įæ£": 1313,
      "ħè¶³ä¾ĽåºĶ": 1314,
      "İäº®çļĦæ©Ļ": 1315,
      "ıå¤©è®©äºº": 1316,
      "Ĵæ´²åľ°è²Į": 1317,
      "ĴæŀĿ": 1318,
      "ĶåĴĮè°ĥèĬĤ": 1319,
      "Ĺ´æµģæ·Į": 1320,
      "Ļåľ¨æ²³æµģä¸Ńæ²īç§¯": 1321,
      "Ļæīįèĥ½åģļåĩ": 1322,
      "ļè¿ĩåľ¨è±¡å½¢åŃĹ": 1323,
      "ļçĩĥçĥ§åıĳåĩºæ¸©æ": 1324,
      "ļĸæĺİäº®çļĦæ©Ļ": 1325,
      "Ŀļç¡¬èĬĤçĸ¤éĥ¨åĪĨ": 1326,
      "łåĬłæŀĦåŃĹ": 1327,
      "ŃĳæĿĲæĸĻ": 1328,
      "ä¸īè§Ĵæ´²åľ°è²Į": 1329,
      "ä¸ľçļĦä¸ĢæĿ": 1330,
      "çļĦæ²³æ°´åľ¨": 1331,
      "åŃĹæĺ¯åħŃä¹": 1332,
      "æĺ¯åıłåĬłæŀĦåŃĹ": 1333,
      "åı£çļĦé£Łçī©": 1334,
      "å¤ľæĻļçĩĥçĥ§åıĳåĩºæ¸©æ": 1335,
      "æ°ĶåĢĻä½ľçĶ¨": 1336,
      "éĥ¨ä»¶éĩįå¤įæŀĦæĪĲ": 1337,
      "çĥ¹é¥ªéľĢè¦ģæİ§åĪ¶": 1338,
      "åĪĨçļĦåħħè¶³ä¾ĽåºĶ": 1339,
      "çĶŁæ´»çĶ¨åĵ": 1340,
      "çĶŁçĥŃéĩıä¸ºå·¥ä¸ļçĶŁ": 1341,
      "æľ¨éĥ¨çļĦåŃĹä¸İæłĳæľ¨": 1342,
      "æ²»çĲĨæİªæĸ": 1343,
      "æ³¥æ²Ļåľ¨æ²³æµģä¸Ńæ²īç§¯": 1344,
      "å½¢æĪĲå¹³åİŁåĴĮ": 1345,
      "ä¸Ģå·¦åı³éĿ¢ç§¯": 1346,
      "æ°´æ¶²ä½ĵæľīåħ³": 1347,
      "æ°´åĪĨåĴĮåħ»åĪĨçļĦåħħè¶³ä¾ĽåºĶ": 1348,
      "æ´ªæ°´æ³Ľæ»¥æĹ¶": 1349,
      "æ´Ńæ³¶æ¹¸æ³": 1350,
      "éĥ½æĺ¯å¸¸è§ģçļĦæľ¨åĪ¶": 1351,
      "åĲİèĥ½åıĳåĩºèĢĢçľ": 1352,
      "çģ«åĢĻæīįèĥ½åģļåĩ": 1353,
      "çģ«éĥ¨çļĦåŃĹå¤§å¤ļä¸İçĩĥçĥ§çĥŃæľīåħ³": 1354,
      "ĩåĢŁåŃĹæĺ¯åħŃä¹": 1355,
      "ºç¾İåĳ³åı¯": 1356,
      "æµ·æ´ĭåįłåľ°çĲĥ": 1357,
      "èĥ½éĩıåĬ¨åĬĽ": 1358,
      "°çĩ¥çĥŃéļ¾èĢĲåįģåĪĨ": 1359,
      "æłĳæ¡Įæ¤ħæŁľæĿ¿æ¢": 1360,
      "ä¸Ĭæ·»åĬłç¬¦åı": 1361,
      "å®¶åħ·çĶŁæ´»çĶ¨åĵ": 1362,
      "å¤§å°ıä¸įä¸Ģ": 1363,
      "æłĳæľ¨çĶŁéķ¿éľĢè¦ģéĺ³åħī": 1364,
      "éľĢè¦ģåıĬæĹ¶çĸıå¯": 1365,
      "æ¸ħæ¾ĪçļĦæ²³æ°´åľ¨": 1366,
      "çłĤçł¾æĺ¯æ²³åº": 1367,
      "çĶ±çĽ¸åĲĮéĥ¨ä»¶éĩįå¤įæŀĦæĪĲ": 1368,
      "æĦŁåĪ°çĩ¥çĥŃéļ¾èĢĲåįģåĪĨ": 1369,
      "æĻ¯èī²åįģåĪĨç¾İ": 1370,
      "ä¸įèĪĴéĢĤ": 1371,
      "è¿ĩæīĵç£¨åĲİèĥ½åıĳåĩºèĢĢçľ": 1372,
      "æ·¼æ£®çĤİçĬĩé±»": 1373,
      "åħīæ³½èī²å½©": 1374,
      "çĶ¨éĢĶå¹¿æ³Ľä»·åĢ": 1375,
      "ç§įé¦Ļæľ¨æ¤įçī©": 1376,
      "çĤİçĥŃçļĦå¤ıå¤©è®©äºº": 1377,
      "çĤİçĥ§çģ¼çĥŃçĦ°çħ¤çĤŃ": 1378,
      "æĮĩäºĭåŃĹéĢļè¿ĩåľ¨è±¡å½¢åŃĹ": 1379,
      "å²©çŁ³æĺ¯åľ°å£³çļĦéĩįè¦ģ": 1380,
      "é¢Ĺç²Ĵå¤§å°ıä¸įä¸Ģ": 1381,
      "æľ¨æĿĲæĺ¯éĩįè¦ģçļĦå»ºç": 1382,
      "å®ĿçŁ³ç»ıè¿ĩæīĵç£¨åĲİèĥ½åıĳåĩºèĢĢçľ": 1383,
      "æ£®æŀĹæĺ¯åľ°çĲĥçļĦèĤ": 1384,
      "çļĦçĻ¾åĪĨä¹ĭä¸ĥåįģä¸Ģå·¦åı³éĿ¢ç§¯": 1385,
      "è¡¨éĿ¢ç§¯çļĦçĻ¾åĪĨä¹ĭä¸ĥåįģä¸Ģå·¦åı³éĿ¢ç§¯": 1386,
      "ĬçļĦå¸¸è§ģç»ĦæĪĲçī©è´¨": 1387,
      "ä¸ºçī¹æ®ĬçļĦç±»åŀĭ": 1388,
      "æľ¸æĮĩæłĳæľ¨çļĦåĿļç¡¬èĬĤçĸ¤éĥ¨åĪĨ": 1389,
      "äº§æıĲä¾Ľèĥ½éĩıåĬ¨åĬĽ": 1390,
      "æ°µéĥ¨çļĦåŃĹå¤§å¤ļä¸İæ°´æ¶²ä½ĵæľīåħ³": 1391,
      "æµ¯æĺ¯å±±ä¸ľçļĦä¸ĢæĿ": 1392,
      "æ±¸æ£»çĤĩçł¯": 1393,
      "æ±¸æĺ¯ä¸Ģä¸ªæ°´åĲį": 1394,
      "æ£»æĺ¯ä¸Ģç§įé¦Ļæľ¨æ¤įçī©": 1395,
      "å±±è°·éĹ´æµģæ·Į": 1396,
      "æıĲä¾Ľæ°§æ°ĶåĴĮè°ĥèĬĤ": 1397,
      "çĬ´åŃĹä»İçĬŃéĥ¨åģıæĹģ": 1398,
      "çĬ´æµ¯æľ¸æ±Ńæ´Ńæ³¶æ¹¸æ³": 1399,
      "ç§įç±»ç¹ģå¤ļä¸°å¯Į": 1400,
      "æ¡Įæ¤ħåºĬæŁľéĥ½æĺ¯å¸¸è§ģçļĦæľ¨åĪ¶": 1401,
      "æ±Łæ²³æ¹ĸæµ·æ´ĭæ³īæºĲæµģæ´¥æ¸¡æµ¦æ¸": 1402,
      "¦ä¸Ńè¾ĥä¸ºçī¹æ®ĬçļĦç±»åŀĭ": 1403,
      "«æĺ¯çĶŁåĥ»å½¢å£°åŃĹéĽ": 1404,
      "¯æ¹¾éĥ½åĲ«æ°µéĥ¨é¦ĸ": 1405,
      "·æĿ¥è¡¨ç¤ºæĦıä¹ī": 1406,
      "¼åĴĮéĺ²èĮĥæ²»çĲĨæİªæĸ": 1407,
      "¼å¤ºçĽ®çļĦåħīæ³½èī²å½©": 1408,
      "çħ¤çĤŃçĩĥçĥ§äº§çĶŁçĥŃéĩıä¸ºå·¥ä¸ļçĶŁ": 1409,
      "ç¯Ŀçģ«åľ¨å¤ľæĻļçĩĥçĥ§åıĳåĩºæ¸©æ": 1410,
      "è½¬æ³¨åŃĹåĴĮåģĩåĢŁåŃĹæĺ¯åħŃä¹": 1411,
      "ģæŁ±æ£įæ£ĴæŀĿ": 1412,
      "ļĸæĺİäº®çļĦæ©Ļèī²çģ«åħī": 1413,
      "çĥ¹é¥ªéľĢè¦ģæİ§åĪ¶çģ«åĢĻæīįèĥ½åģļåĩ": 1414,
      "æľ¨éĥ¨çļĦåŃĹä¸İæłĳæľ¨æľīåħ³": 1415,
      "æ³¥æ²Ļåľ¨æ²³æµģä¸Ńæ²īç§¯å½¢æĪĲå¹³åİŁåĴĮ": 1416,
      "æ´ªæ°´æ³Ľæ»¥æĹ¶éľĢè¦ģåıĬæĹ¶çĸıå¯": 1417,
      "ºç¾İåĳ³åı¯åı£çļĦé£Łçī©": 1418,
      "æµ·æ´ĭåįłåľ°çĲĥè¡¨éĿ¢ç§¯çļĦçĻ¾åĪĨä¹ĭä¸ĥåįģä¸Ģå·¦åı³éĿ¢ç§¯": 1419,
      "æłĳæ¡Įæ¤ħæŁľæĿ¿æ¢ģæŁ±æ£įæ£ĴæŀĿ": 1420,
      "ä¸Ĭæ·»åĬłç¬¦åı·æĿ¥è¡¨ç¤ºæĦıä¹ī": 1421,
      "å®¶åħ·çĶŁæ´»çĶ¨åĵģç§įç±»": 1422,
      "æłĳæľ¨çĶŁéķ¿éľĢè¦ģéĺ³åħīæ°´åĪĨåĴĮåħ»åĪĨçļĦåħħè¶³ä¾ĽåºĶ": 1423,
      "æ¸ħæ¾ĪçļĦæ²³æ°´åľ¨å±±è°·éĹ´æµģæ·Į": 1424,
      "çłĤçł¾æĺ¯æ²³åºĬçļĦå¸¸è§ģç»ĦæĪĲçī©è´¨": 1425,
      "æĦŁåĪ°çĩ¥çĥŃéļ¾èĢĲåįģåĪĨä¸įèĪĴéĢĤ": 1426,
      "æĻ¯èī²åįģåĪĨç¾İä¸½": 1427,
      "æ·¼æ£®çĤİçĬĩé±»æĺ¯åıłåĬłæŀĦåŃĹ": 1428,
      "çĶ¨éĢĶå¹¿æ³Ľä»·åĢ¼é«ĺ": 1429,
      "çĤİçĥŃçļĦå¤ıå¤©è®©äººæĦŁåĪ°çĩ¥çĥŃéļ¾èĢĲåįģåĪĨä¸įèĪĴéĢĤ": 1430,
      "æĮĩäºĭåŃĹéĢļè¿ĩåľ¨è±¡å½¢åŃĹä¸Ĭæ·»åĬłç¬¦åı·æĿ¥è¡¨ç¤ºæĦıä¹ī": 1431,
      "å²©çŁ³æĺ¯åľ°å£³çļĦéĩįè¦ģç»ĦæĪĲéĥ¨åĪĨ": 1432,
      "æľ¨æĿĲæĺ¯éĩįè¦ģçļĦå»ºçŃĳæĿĲæĸĻ": 1433,
      "å®ĿçŁ³ç»ıè¿ĩæīĵç£¨åĲİèĥ½åıĳåĩºèĢĢçľ¼å¤ºçĽ®çļĦåħīæ³½èī²å½©": 1434,
      "æ£®æŀĹæĺ¯åľ°çĲĥçļĦèĤº": 1435,
      "æµ¯æĺ¯å±±ä¸ľçļĦä¸ĢæĿ¡æ²³æµģ": 1436,
      "æ±¸æ£»çĤĩçł¯çĬ´æµ¯æľ¸æ±Ńæ´Ńæ³¶æ¹¸æ³": 1437,
      "æıĲä¾Ľæ°§æ°ĶåĴĮè°ĥèĬĤæ°ĶåĢĻä½ľçĶ¨": 1438,
      "æ¡Įæ¤ħåºĬæŁľéĥ½æĺ¯å¸¸è§ģçļĦæľ¨åĪ¶å®¶åħ·çĶŁæ´»çĶ¨åĵģç§įç±»": 1439,
      "æ±Łæ²³æ¹ĸæµ·æ´ĭæ³īæºĲæµģæ´¥æ¸¡æµ¦æ¸¯æ¹¾éĥ½åĲ«æ°µéĥ¨é¦ĸ": 1440,
      "«æĺ¯çĶŁåĥ»å½¢å£°åŃĹéĽĨåĲĪ": 1441,
      "¼åĴĮéĺ²èĮĥæ²»çĲĨæİªæĸ½": 1442,
      "çħ¤çĤŃçĩĥçĥ§äº§çĶŁçĥŃéĩıä¸ºå·¥ä¸ļçĶŁäº§æıĲä¾Ľèĥ½éĩıåĬ¨åĬĽ": 1443,
      "ç¯Ŀçģ«åľ¨å¤ľæĻļçĩĥçĥ§åıĳåĩºæ¸©æļĸæĺİäº®çļĦæ©Ļèī²çģ«åħī": 1444,
      "è½¬æ³¨åŃĹåĴĮåģĩåĢŁåŃĹæĺ¯åħŃä¹¦ä¸Ńè¾ĥä¸ºçī¹æ®ĬçļĦç±»åŀĭ": 1445,
      "çĥ¹é¥ªéľĢè¦ģæİ§åĪ¶çģ«åĢĻæīįèĥ½åģļåĩºç¾İåĳ³åı¯åı£çļĦé£Łçī©": 1446,
      "æ³¥æ²Ļåľ¨æ²³æµģä¸Ńæ²īç§¯å½¢æĪĲå¹³åİŁåĴĮä¸īè§Ĵæ´²åľ°è²Į": 1447,
      "æ´ªæ°´æ³Ľæ»¥æĹ¶éľĢè¦ģåıĬæĹ¶çĸıå¯¼åĴĮéĺ²èĮĥæ²»çĲĨæİªæĸ½": 1448,
      "æ±¸æ£»çĤĩçł¯çĬ´æµ¯æľ¸æ±Ńæ´Ńæ³¶æ¹¸æ³«æĺ¯çĶŁåĥ»å½¢å£°åŃĹéĽĨåĲĪ": 1449
    },
    "merges": [
      [
        "Ģ",
        "Ĥ"
      ],
      [
        "ã",
        "ĢĤ"
      ],
      [
        "ä",
        "¸"
      ],
      [
        "ç",
        "ļ"
      ],
      [
        "çļ",
        "Ħ"
      ],
      [
        "å",
        "Ń"
      ],
      [
        "åŃ",
        "Ĺ"
      ],
      [
        "æ",
        "ľ"
      ],
      [
        "æ",
        "ĺ"
      ],
      [
        "æĺ",
        "¯"
      ],
      [
        "å",
        "ħ"
      ],
      [
        "é",
        "ĥ"
      ],
      [
        "å",
        "ı"
      ],
      [
        "ï",
        "¼"
      ],
      [
        "å",
        "Ĵ"
      ],
      [
        "åĴ",
        "Į"
      ],
      [
        "å",
        "Ī"
      ],
      [
        "ä",
        "º"
      ],
      [
        "å",
        "¤"
      ],
      [
        "ï¼",
        "Į"
      ],
      [
        "ç",
        "Ķ"
      ],
      [
        "æ",
        "°"
      ],
      [
        "æ",
        "µ"
      ],
      [
        "éĥ",
        "¨"
      ],
      [
        "æ",
        "Ī"
      ],
      [
        "æ",
        "±"
      ],
      [
        "ä",
        "¹"
      ],
      [
        "æ",
        "Ĺ"
      ],
      [
        "é",
        "ĩ"
      ],
      [
        "ç",
        "ĥ"
      ],
      [
        "¦",
        "ģ"
      ],
      [
        "ä",
        "»"
      ],
      [
        "è",
        "¦ģ"
      ],
      [
        "åĪ",
        "Ĩ"
      ],
      [
        "ç",
        "»"
      ],
      [
        "å",
        "½"
      ],
      [
        "çĶ",
        "Ł"
      ],
      [
        "æľ",
        "¨"
      ],
      [
        "æ",
        "²"
      ],
      [
        "æ",
        "³"
      ],
      [
        "å½",
        "¢"
      ],
      [
        "å",
        "Ĭ"
      ],
      [
        "ç",
        "ī"
      ],
      [
        "å",
        "ľ"
      ],
      [
        "æĹ",
        "ģ"
      ],
      [
        "æ",
        "ĸ"
      ],
      [
        "ç",
        "Ł"
      ],
      [
        "æľ",
        "ī"
      ],
      [
        "éĩ",
        "į"
      ],
      [
        "±",
        "»"
      ],
      [
        "æ",
        "ł"
      ],
      [
        "æĪ",
        "Ĳ"
      ],
      [
        "ä¸",
        "Ģ"
      ],
      [
        "æ",
        "£"
      ],
      [
        "ç",
        "§"
      ],
      [
        "ç",
        "ģ"
      ],
      [
        "æ°",
        "´"
      ],
      [
        "ç",
        "Ĥ"
      ],
      [
        "æ",
        "´"
      ],
      [
        "å",
        "Ł"
      ],
      [
        "è",
        "¯"
      ],
      [
        "äº",
        "º"
      ],
      [
        "å",
        "¯"
      ],
      [
        "æ",
        "ī"
      ],
      [
        "éĥ",
        "½"
      ],
      [
        "éĩį",
        "è¦ģ"
      ],
      [
        "ç",
        "±»"
      ],
      [
        "å",
        "į"
      ],
      [
        "æ",
        "ŀ"
      ],
      [
        "å",
        "Ĳ"
      ],
      [
        "çģ",
        "«"
      ],
      [
        "æ²",
        "³"
      ],
      [
        "ī",
        "åŃĹ"
      ],
      [
        "æ±",
        "īåŃĹ"
      ],
      [
        "å",
        "İ"
      ],
      [
        "ä¸",
        "ª"
      ],
      [
        "å",
        "£"
      ],
      [
        "å",
        "·"
      ],
      [
        "Ħ",
        "æĪĲ"
      ],
      [
        "ä¸",
        "İ"
      ],
      [
        "åħ",
        "³"
      ],
      [
        "çŁ",
        "³"
      ],
      [
        "æ",
        "¹"
      ],
      [
        "æ",
        "Ŀ"
      ],
      [
        "çĥ",
        "Ń"
      ],
      [
        "æ",
        "ķ"
      ],
      [
        "è",
        "´"
      ],
      [
        "ĩ",
        "å"
      ],
      [
        "å£",
        "°"
      ],
      [
        "å",
        "±"
      ],
      [
        "æ",
        "ı"
      ],
      [
        "è",
        "Ģ"
      ],
      [
        "é",
        "¦"
      ],
      [
        "ä¸",
        "Ń"
      ],
      [
        "åı",
        "ĳ"
      ],
      [
        "º",
        "ç"
      ],
      [
        "ä",
        "¾"
      ],
      [
        "å",
        "ģ"
      ],
      [
        "è",
        "ĥ"
      ],
      [
        "æµ",
        "·"
      ],
      [
        "çī",
        "©"
      ],
      [
        "èĥ",
        "½"
      ],
      [
        "°",
        "ç"
      ],
      [
        "æµ",
        "ģ"
      ],
      [
        "çĥ",
        "§"
      ],
      [
        "åľ",
        "¨"
      ],
      [
        "æł",
        "ĳ"
      ],
      [
        "æ",
        "Ĭ"
      ],
      [
        "æľ",
        "Ģ"
      ],
      [
        "å",
        "ĳ"
      ],
      [
        "ç",
        "¤"
      ],
      [
        "ä¸",
        "Ĭ"
      ],
      [
        "çļĦ",
        "ç"
      ],
      [
        "çļĦ",
        "éĩįè¦ģ"
      ],
      [
        "ä¹",
        "ĭ"
      ],
      [
        "çī",
        "¹"
      ],
      [
        "å¯",
        "Į"
      ],
      [
        "æī",
        "į"
      ],
      [
        "å·",
        "¥"
      ],
      [
        "é¦",
        "ĸ"
      ],
      [
        "å",
        "®"
      ],
      [
        "æ",
        "İ"
      ],
      [
        "è",
        "¿"
      ],
      [
        "é",
        "Ŀ"
      ],
      [
        "Ķ",
        "å"
      ],
      [
        "éĩ",
        "ı"
      ],
      [
        "ç»",
        "ĦæĪĲ"
      ],
      [
        "æı",
        "Ĳ"
      ],
      [
        "å",
        "º"
      ],
      [
        "æ",
        "Į"
      ],
      [
        "æ",
        "Ł"
      ],
      [
        "é",
        "ľ"
      ],
      [
        "Ģ",
        "è¦ģ"
      ],
      [
        "ĥ",
        "çĥ§"
      ],
      [
        "ĩ",
        "ĥçĥ§"
      ],
      [
        "çļĦ",
        "åŃĹ"
      ],
      [
        "å¤",
        "§"
      ],
      [
        "å¤",
        "ļ"
      ],
      [
        "éĥ¨",
        "çļĦåŃĹ"
      ],
      [
        "æľī",
        "åħ³"
      ],
      [
        "åį",
        "ģ"
      ],
      [
        "æłĳ",
        "æľ¨"
      ],
      [
        "éľ",
        "Ģè¦ģ"
      ],
      [
        "æ",
        "¸"
      ],
      [
        "ç",
        "Ĭ"
      ],
      [
        "ç",
        "ł"
      ],
      [
        "æ",
        "ĥ"
      ],
      [
        "æ",
        "Ķ"
      ],
      [
        "Ĩ",
        "åı"
      ],
      [
        "çļĦ",
        "åŁ"
      ],
      [
        "åŃ",
        "¦"
      ],
      [
        "æĺ¯",
        "äºº"
      ],
      [
        "è¯",
        "Ń"
      ],
      [
        "éĥ½",
        "ä¸İ"
      ],
      [
        "åİ",
        "Ĩåı"
      ],
      [
        "æĬ",
        "Ģ"
      ],
      [
        "æĶ",
        "¯"
      ],
      [
        "åİĨåı",
        "²"
      ],
      [
        "¡",
        "å½¢"
      ],
      [
        "±",
        "¡å½¢"
      ],
      [
        "ç",
        "Ħ"
      ],
      [
        "ç",
        "Ľ"
      ],
      [
        "è",
        "®"
      ],
      [
        "è",
        "±¡å½¢"
      ],
      [
        "ģ",
        "çļĦ"
      ],
      [
        "æĺ¯",
        "çĶŁ"
      ],
      [
        "åħ",
        "·"
      ],
      [
        "åħ",
        "»"
      ],
      [
        "äº",
        "ĭ"
      ],
      [
        "å¤",
        "©"
      ],
      [
        "çĶ",
        "±"
      ],
      [
        "éĥ¨",
        "é¦ĸ"
      ],
      [
        "ä¹",
        "ī"
      ],
      [
        "ç»",
        "ı"
      ],
      [
        "å½¢",
        "å£°"
      ],
      [
        "åĬ",
        "Ľ"
      ],
      [
        "ä¸Ģ",
        "ä¸ª"
      ],
      [
        "ç¤",
        "º"
      ],
      [
        "è±¡å½¢",
        "åŃĹ"
      ],
      [
        "å½¢å£°",
        "åŃĹ"
      ],
      [
        "º",
        "Ĳ"
      ],
      [
        "ä",
        "½"
      ],
      [
        "å",
        "¸"
      ],
      [
        "æ",
        "Ħ"
      ],
      [
        "æ",
        "Ļ"
      ],
      [
        "æ",
        "ºĲ"
      ],
      [
        "è",
        "°"
      ],
      [
        "é",
        "Ģ"
      ],
      [
        "é",
        "ĺ"
      ],
      [
        "ĸ",
        "æµ·"
      ],
      [
        "Ł",
        "æ²³"
      ],
      [
        "ä¸",
        "į"
      ],
      [
        "éĥ¨",
        "åĪĨ"
      ],
      [
        "æ±",
        "Łæ²³"
      ],
      [
        "æ£",
        "®"
      ],
      [
        "æ¹",
        "ĸæµ·"
      ],
      [
        "æĿ",
        "Ĳ"
      ],
      [
        "è¿",
        "ĩ"
      ],
      [
        "éĿ",
        "¢"
      ],
      [
        "æ±Łæ²³",
        "æ¹ĸæµ·"
      ],
      [
        "å",
        "ĩ"
      ],
      [
        "æ",
        "¤"
      ],
      [
        "æ",
        "·"
      ],
      [
        "ç",
        "ĩĥçĥ§"
      ],
      [
        "è",
        "§"
      ],
      [
        "è",
        "ī"
      ],
      [
        "åŃĹ",
        "ä»"
      ],
      [
        "åħ",
        "ī"
      ],
      [
        "ï¼",
        "ļ"
      ],
      [
        "çĶ",
        "¨"
      ],
      [
        "ç§",
        "¯"
      ],
      [
        "ç§",
        "į"
      ],
      [
        "çĤ",
        "İ"
      ],
      [
        "æ´",
        "ĭ"
      ],
      [
        "ä¾",
        "Ľ"
      ],
      [
        "æĮ",
        "ĩ"
      ],
      [
        "èī",
        "²"
      ],
      [
        "åŃĹä»",
        "İ"
      ],
      [
        "¡",
        "Ģ"
      ],
      [
        "¢",
        "å¯Į"
      ],
      [
        "¤",
        "èĢ"
      ],
      [
        "¥",
        "ŀ"
      ],
      [
        "¨",
        "Ģ"
      ],
      [
        "²",
        "¾"
      ],
      [
        "¹",
        "åħ»"
      ],
      [
        "¼",
        "ļ"
      ],
      [
        "ä",
        "¼ļ"
      ],
      [
        "å",
        "Ľ"
      ],
      [
        "æ",
        "¯"
      ],
      [
        "æ",
        "Ģ"
      ],
      [
        "æ",
        "Ĥ"
      ],
      [
        "æ",
        "Ń"
      ],
      [
        "ç",
        "´"
      ],
      [
        "ç",
        "İ"
      ],
      [
        "ç",
        "ķ"
      ],
      [
        "ç",
        "¥ŀ"
      ],
      [
        "è",
        "ĩ"
      ],
      [
        "è",
        "¨Ģ"
      ],
      [
        "Ĩ",
        "åĪ"
      ],
      [
        "ĩ",
        "åħ³"
      ],
      [
        "Į",
        "ĸ"
      ],
      [
        "ĳ",
        "ä»"
      ],
      [
        "ł",
        "ä¹"
      ],
      [
        "ä¸",
        "¤"
      ],
      [
        "çļĦ",
        "è´"
      ],
      [
        "åŃĹ",
        "çļĦ"
      ],
      [
        "åŃĹ",
        "æĹģ"
      ],
      [
        "æľ",
        "¯"
      ],
      [
        "æĺ¯",
        "æľĢ"
      ],
      [
        "åħ",
        "¬"
      ],
      [
        "åı",
        "¤èĢ"
      ],
      [
        "åĴĮ",
        "å"
      ],
      [
        "æ°",
        "ĳ"
      ],
      [
        "æĪ",
        "ĸ"
      ],
      [
        "æĪ",
        "ĳä»"
      ],
      [
        "ä¹",
        "ł"
      ],
      [
        "æĹ",
        "ı"
      ],
      [
        "å½¢",
        "æĹģ"
      ],
      [
        "æĸ",
        "ĩ"
      ],
      [
        "æĸ",
        "ĩå"
      ],
      [
        "æľī",
        "å¯"
      ],
      [
        "æł",
        "ĩå"
      ],
      [
        "ç§",
        "ĳ"
      ],
      [
        "åŁ",
        "¹åħ»"
      ],
      [
        "è¯",
        "»"
      ],
      [
        "äºº",
        "æīį"
      ],
      [
        "åİ",
        "»"
      ],
      [
        "æķ",
        "Ļ"
      ],
      [
        "å£°",
        "æĹģ"
      ],
      [
        "å±",
        "ķ"
      ],
      [
        "åıĳ",
        "å±ķ"
      ],
      [
        "ºç",
        "¡Ģ"
      ],
      [
        "åĳ",
        "½"
      ],
      [
        "çļĦç",
        "²¾"
      ],
      [
        "Ķå",
        "¾"
      ],
      [
        "æıĲ",
        "ç¤º"
      ],
      [
        "æĥ",
        "³"
      ],
      [
        "åŃ¦",
        "ä¹ł"
      ],
      [
        "è¯Ń",
        "è¨Ģ"
      ],
      [
        "æĬĢ",
        "æľ¯"
      ],
      [
        "æĺ¯çĶŁ",
        "åĳ½"
      ],
      [
        "éĥ¨é¦ĸ",
        "æĺ¯"
      ],
      [
        "æĤ",
        "łä¹"
      ],
      [
        "æŃ",
        "¥"
      ],
      [
        "èĩ",
        "ª"
      ],
      [
        "ĨåĪ",
        "ĩåħ³"
      ],
      [
        "åŃĹæĹģ",
        "æľīå¯"
      ],
      [
        "åı¤èĢ",
        "ģçļĦ"
      ],
      [
        "æĪĳä»",
        "¬"
      ],
      [
        "æĸĩå",
        "Įĸ"
      ],
      [
        "çļĦç²¾",
        "ç¥ŀ"
      ],
      [
        "æıĲç¤º",
        "åŃĹçļĦ"
      ],
      [
        "æĤłä¹",
        "ħ"
      ],
      [
        "åŃĹæĹģæľīå¯",
        "ĨåĪĩåħ³"
      ],
      [
        "©",
        "çŁ³"
      ],
      [
        "°",
        "å¯Į"
      ],
      [
        "²",
        "©çŁ³"
      ],
      [
        "¾",
        "åĪĨ"
      ],
      [
        "å",
        "ŀ"
      ],
      [
        "å",
        "²©çŁ³"
      ],
      [
        "æ",
        "¢"
      ],
      [
        "æ",
        "®"
      ],
      [
        "æ",
        "¶"
      ],
      [
        "ç",
        "Ĳ"
      ],
      [
        "è",
        "Ĥ"
      ],
      [
        "è",
        "Į"
      ],
      [
        "é",
        "¢"
      ],
      [
        "ı",
        "æĹģ"
      ],
      [
        "Ļ",
        "¾åĪĨ"
      ],
      [
        "ä¸",
        "°å¯Į"
      ],
      [
        "æĺ¯",
        "ä¸Ģä¸ª"
      ],
      [
        "åı",
        "¯"
      ],
      [
        "æľ¨",
        "æĿĲ"
      ],
      [
        "åĬ",
        "¨"
      ],
      [
        "ç±»",
        "åŀ"
      ],
      [
        "åį",
        "ł"
      ],
      [
        "æŀ",
        "Ħ"
      ],
      [
        "æŀ",
        "Ĺ"
      ],
      [
        "æŀ",
        "ĦæĪĲ"
      ],
      [
        "åĲ",
        "Ī"
      ],
      [
        "åĲ",
        "Į"
      ],
      [
        "çĥŃ",
        "éĩı"
      ],
      [
        "åģ",
        "ıæĹģ"
      ],
      [
        "çļĦç",
        "Ļ¾åĪĨ"
      ],
      [
        "æīį",
        "èĥ½"
      ],
      [
        "å®",
        "Ŀ"
      ],
      [
        "æŁ",
        "±"
      ],
      [
        "çĦ",
        "°ç"
      ],
      [
        "æĦ",
        "ı"
      ],
      [
        "æ£®",
        "æŀĹ"
      ],
      [
        "çĲ",
        "Ĩ"
      ],
      [
        "èĮ",
        "ĥ"
      ],
      [
        "ç±»åŀ",
        "ĭ"
      ],
      [
        "çļĦçĻ¾åĪĨ",
        "ä¹ĭ"
      ],
      [
        "¡",
        "¨"
      ],
      [
        "¡",
        "Į"
      ],
      [
        "¤",
        "çĤ"
      ],
      [
        "¦",
        "åı"
      ],
      [
        "®",
        "çļĦ"
      ],
      [
        "¸",
        "è§"
      ],
      [
        "¾",
        "İ"
      ],
      [
        "å",
        "Ģ"
      ],
      [
        "æ",
        "¡Į"
      ],
      [
        "ç",
        "ĸ"
      ],
      [
        "è",
        "Ĭ"
      ],
      [
        "è",
        "¡¨"
      ],
      [
        "ħ",
        "¤çĤ"
      ],
      [
        "ī",
        "æºĲ"
      ],
      [
        "Ĭ",
        "çļĦ"
      ],
      [
        "Ĳ",
        "ĥ"
      ],
      [
        "ä¸",
        "º"
      ],
      [
        "çļĦ",
        "å"
      ],
      [
        "æľ",
        "¸"
      ],
      [
        "æĺ¯",
        "åľ"
      ],
      [
        "åĪ",
        "¶"
      ],
      [
        "äº",
        "§"
      ],
      [
        "æ°",
        "µ"
      ],
      [
        "æµ",
        "¯"
      ],
      [
        "æ±",
        "¸"
      ],
      [
        "æ±",
        "Ń"
      ],
      [
        "æĹ",
        "¶"
      ],
      [
        "æ³",
        "Ľ"
      ],
      [
        "æ³",
        "īæºĲ"
      ],
      [
        "åĬ",
        "ł"
      ],
      [
        "æ£",
        "»"
      ],
      [
        "çĤ",
        "ĩ"
      ],
      [
        "æ²³",
        "æµģ"
      ],
      [
        "æ¹",
        "¾"
      ],
      [
        "å±",
        "±"
      ],
      [
        "åıĳ",
        "åĩ"
      ],
      [
        "°ç",
        "Ĳĥ"
      ],
      [
        "æıĲ",
        "ä¾Ľ"
      ],
      [
        "æŁ",
        "ľ"
      ],
      [
        "å¤§",
        "å¤ļ"
      ],
      [
        "éĥ¨çļĦåŃĹ",
        "å¤§å¤ļ"
      ],
      [
        "åįģ",
        "åĪĨ"
      ],
      [
        "çĬ",
        "´"
      ],
      [
        "çł",
        "¯"
      ],
      [
        "å¸",
        "¸è§"
      ],
      [
        "éĿ¢",
        "ç§¯"
      ],
      [
        "æ±Łæ²³æ¹ĸæµ·",
        "æ´ĭ"
      ],
      [
        "æ¤",
        "ħ"
      ],
      [
        "ç§į",
        "ç±»"
      ],
      [
        "æ¡Į",
        "æ¤ħ"
      ],
      [
        "èĬ",
        "Ĥ"
      ],
      [
        "ħ¤çĤ",
        "Ń"
      ],
      [
        "åıĳåĩ",
        "º"
      ],
      [
        "éĥ¨çļĦåŃĹå¤§å¤ļ",
        "ä¸İ"
      ],
      [
        "æ±Łæ²³æ¹ĸæµ·æ´ĭ",
        "æ³īæºĲ"
      ],
      [
        "¡",
        "æī"
      ],
      [
        "¢",
        "ĥ"
      ],
      [
        "¢",
        "åĴĮ"
      ],
      [
        "£",
        "ä»"
      ],
      [
        "£",
        "æŃ¥"
      ],
      [
        "¤",
        "æĺ¯"
      ],
      [
        "¤",
        "æµģ"
      ],
      [
        "¤",
        "åĲĮ"
      ],
      [
        "¥",
        "½"
      ],
      [
        "¥",
        "è¯"
      ],
      [
        "¥",
        "æı"
      ],
      [
        "¥",
        "ä¸Ĭ"
      ],
      [
        "¥",
        "åº"
      ],
      [
        "¦",
        "ı"
      ],
      [
        "¦",
        "æĥ³"
      ],
      [
        "¨",
        "ĭ"
      ],
      [
        "¨",
        "åŃ¦ä¹ł"
      ],
      [
        "¨",
        "åĬ¨"
      ],
      [
        "ª",
        "Į"
      ],
      [
        "ª",
        "Ĵ"
      ],
      [
        "ª",
        "åĬĽ"
      ],
      [
        "«",
        "åįģ"
      ],
      [
        "¬",
        "æĺ¯"
      ],
      [
        "¬",
        "çī¹"
      ],
      [
        "¬",
        "ç»ĦæĪĲ"
      ],
      [
        "®",
        "åĴĮ"
      ],
      [
        "®",
        "æł"
      ],
      [
        "¯",
        "å"
      ],
      [
        "°",
        "åĴĮ"
      ],
      [
        "°",
        "èĩª"
      ],
      [
        "°",
        "çļĦçĻ¾åĪĨä¹ĭ"
      ],
      [
        "±",
        "çļĦ"
      ],
      [
        "²",
        "æĺ¯"
      ],
      [
        "³",
        "»"
      ],
      [
        "´",
        "ç"
      ],
      [
        "´",
        "æİ"
      ],
      [
        "´",
        "å²©çŁ³"
      ],
      [
        "µ",
        "çļĦè´"
      ],
      [
        "¶",
        "è¯Ńè¨Ģ"
      ],
      [
        "·",
        "åı"
      ],
      [
        "·",
        "æĺ¯äºº"
      ],
      [
        "¸",
        "ç"
      ],
      [
        "¹",
        "æ³"
      ],
      [
        "¹",
        "¸ç"
      ],
      [
        "º",
        "å"
      ],
      [
        "º",
        "æľ"
      ],
      [
        "º",
        "èĥ½"
      ],
      [
        "º",
        "çļĦç²¾ç¥ŀ"
      ],
      [
        "»",
        "åĴĮ"
      ],
      [
        "»",
        "æķ"
      ],
      [
        "¼",
        "ºçļĦç²¾ç¥ŀ"
      ],
      [
        "½",
        "çļĦ"
      ],
      [
        "¾",
        "ģ"
      ],
      [
        "¾",
        "ä¼ļ"
      ],
      [
        "¿",
        "Ĺ"
      ],
      [
        "¿",
        "Ŀ"
      ],
      [
        "¿",
        "çī©"
      ],
      [
        "ä",
        "¿Ŀ"
      ],
      [
        "å",
        "Ĩ"
      ],
      [
        "å",
        "Į"
      ],
      [
        "å",
        "¥½"
      ],
      [
        "å",
        "¾ģ"
      ],
      [
        "æ",
        "į"
      ],
      [
        "æ",
        "Ĵ"
      ],
      [
        "ç",
        "¨ĭ"
      ],
      [
        "ç",
        "³»"
      ],
      [
        "ç",
        "¼ºçļĦç²¾ç¥ŀ"
      ],
      [
        "è",
        "ģ"
      ],
      [
        "è",
        "İ"
      ],
      [
        "é",
        "Ł"
      ],
      [
        "é",
        "ªĮ"
      ],
      [
        "Ģ",
        "åľ¨"
      ],
      [
        "Ģ",
        "ç´"
      ],
      [
        "ĥ",
        "ç´"
      ],
      [
        "Ħ",
        "åĴĮ"
      ],
      [
        "Ħ",
        "åĲĪ"
      ],
      [
        "Ħ",
        "çĲĨ"
      ],
      [
        "ħ",
        "åĴĮ"
      ],
      [
        "ħ",
        "è¯»"
      ],
      [
        "ħ",
        "æ¶"
      ],
      [
        "Ĩ",
        "åŁ"
      ],
      [
        "Ĩ",
        "ç¤"
      ],
      [
        "Ĩ",
        "çļĦéĩįè¦ģ"
      ],
      [
        "ĩ",
        "Ĩ"
      ],
      [
        "ĩ",
        "æ¢"
      ],
      [
        "Ī",
        "æĸ"
      ],
      [
        "Ī",
        "å¥½"
      ],
      [
        "ī",
        "æĪĳä»¬"
      ],
      [
        "Ĭ",
        "è¯"
      ],
      [
        "Ĭ",
        "å¤©"
      ],
      [
        "Ĭ",
        "æĺ¯çĶŁåĳ½"
      ],
      [
        "ĭ",
        "è°"
      ],
      [
        "ĭ",
        "æ®"
      ],
      [
        "ĭ",
        "¬çī¹"
      ],
      [
        "Į",
        "æĪĲ"
      ],
      [
        "Į",
        "ä¸Ĭ"
      ],
      [
        "į",
        "åħ"
      ],
      [
        "İ",
        "çŁ³"
      ],
      [
        "İ",
        "å¸"
      ],
      [
        "İ",
        "åıĳå±ķ"
      ],
      [
        "ı",
        "ç»"
      ],
      [
        "ı",
        "ä¸ª"
      ],
      [
        "ĳ",
        "æĪ"
      ],
      [
        "ĵ",
        "æŀĦ"
      ],
      [
        "Ķ",
        "ä¾"
      ],
      [
        "ķ",
        "ä½"
      ],
      [
        "ĸ",
        "çŁ"
      ],
      [
        "ĸ",
        "çķ"
      ],
      [
        "Ĺ",
        "äº"
      ],
      [
        "ĺ",
        "éĿ"
      ],
      [
        "ĺ",
        "äºĭ"
      ],
      [
        "Ļ",
        "¨åŃ¦ä¹ł"
      ],
      [
        "Ľ",
        "æĸ"
      ],
      [
        "Ľ",
        "æŃ¥"
      ],
      [
        "Ŀ",
        "æĥ³"
      ],
      [
        "Ŀ",
        "æį"
      ],
      [
        "ŀ",
        "äº"
      ],
      [
        "ŀ",
        "çİ"
      ],
      [
        "Ń",
        "æķ"
      ],
      [
        "ä¸",
        "´ç"
      ],
      [
        "ä¸",
        "ĸçķ"
      ],
      [
        "çļĦ",
        "è¿"
      ],
      [
        "çļĦ",
        "åİĨåı²"
      ],
      [
        "çļĦ",
        "äºĭ"
      ],
      [
        "çļĦ",
        "ä¸Ģä¸ª"
      ],
      [
        "çļĦ",
        "åıĳå±ķ"
      ],
      [
        "çļĦ",
        "æĬĢæľ¯"
      ],
      [
        "çļĦ",
        "æĸĩåĮĸ"
      ],
      [
        "åŃĹ",
        "ä¹ĭ"
      ],
      [
        "åŃĹ",
        "éĥ¨çļĦåŃĹ"
      ],
      [
        "åŃĹ",
        "çĶ±"
      ],
      [
        "æľ",
        "ºå"
      ],
      [
        "æĺ¯",
        "èİ"
      ],
      [
        "æĺ¯",
        "ä¸ĸçķ"
      ],
      [
        "åħ",
        "«åįģ"
      ],
      [
        "åı",
        "ĭè°"
      ],
      [
        "åı",
        "ĺéĿ"
      ],
      [
        "åĴĮ",
        "éĩįè¦ģ"
      ],
      [
        "åĴĮ",
        "è®"
      ],
      [
        "åĴĮ",
        "å£°æĹģ"
      ],
      [
        "åĴĮ",
        "ä¸°å¯Į"
      ],
      [
        "åĴĮ",
        "åıĺéĿ"
      ],
      [
        "åĪ",
        "«"
      ],
      [
        "åĪ",
        "Ľæĸ"
      ],
      [
        "äº",
        "¤æµģ"
      ],
      [
        "äº",
        "Ĩç¤"
      ],
      [
        "å¤",
        "´å²©çŁ³"
      ],
      [
        "å¤",
        "ĦçĲĨ"
      ],
      [
        "æ°",
        "Ķå¾"
      ],
      [
        "æµ",
        "İåıĳå±ķ"
      ],
      [
        "ä»",
        "ĭ"
      ],
      [
        "ä»",
        "¥ä¸Ĭ"
      ],
      [
        "ä»",
        "Ĭå¤©"
      ],
      [
        "åĪĨ",
        "ç±»"
      ],
      [
        "åĪĨ",
        "æĶ¯"
      ],
      [
        "ç»",
        "ĦåĲĪ"
      ],
      [
        "ç»",
        "ĵæŀĦ"
      ],
      [
        "çĶŁ",
        "æľĢ"
      ],
      [
        "çĶŁ",
        "çĽ"
      ],
      [
        "çĶŁ",
        "çļĦäºĭ"
      ],
      [
        "æľ¨",
        "åŃĹæĹģæľīå¯ĨåĪĩåħ³"
      ],
      [
        "åĬ",
        "¡æī"
      ],
      [
        "åĬ",
        "ªåĬĽ"
      ],
      [
        "çŁ",
        "¿çī©"
      ],
      [
        "æľī",
        "æķ"
      ],
      [
        "æľī",
        "æĤłä¹ħ"
      ],
      [
        "æ£",
        "Ģç´"
      ],
      [
        "æ°´",
        "æľīåħ³"
      ],
      [
        "æ°´",
        "æĺ¯çĶŁåĳ½"
      ],
      [
        "çĤ",
        "¹"
      ],
      [
        "åŁ",
        "ºç¡Ģ"
      ],
      [
        "äºº",
        "çĶŁçĽ"
      ],
      [
        "æī",
        "ĭæ®"
      ],
      [
        "éĥ½",
        "å±"
      ],
      [
        "éĩįè¦ģ",
        "åĪĨæĶ¯"
      ],
      [
        "ç±»",
        "åĪ«"
      ],
      [
        "ç±»",
        "äº¤æµģ"
      ],
      [
        "åį",
        "ķä½"
      ],
      [
        "çģ«",
        "åŃĹæĹģæľīå¯ĨåĪĩåħ³"
      ],
      [
        "çģ«",
        "çĦ°ç"
      ],
      [
        "æ±īåŃĹ",
        "çļĦåŁ"
      ],
      [
        "æ±īåŃĹ",
        "åħ·"
      ],
      [
        "æ±īåŃĹ",
        "æĢ"
      ],
      [
        "æ±īåŃĹ",
        "ç±»åŀĭ"
      ],
      [
        "æ±īåŃĹ",
        "æĺ¯ä¸ĸçķ"
      ],
      [
        "æ±īåŃĹ",
        "æ£Ģç´"
      ],
      [
        "ä¸ª",
        "è±¡å½¢åŃĹ"
      ],
      [
        "ä¸ª",
        "æĪĸ"
      ],
      [
        "å·",
        "±çļĦ"
      ],
      [
        "çŁ³",
        "å¤´å²©çŁ³"
      ],
      [
        "è´",
        "¢å¯Į"
      ],
      [
        "è´",
        "µçļĦè´"
      ],
      [
        "èĢ",
        "ĮæĪĲ"
      ],
      [
        "ä¸Ń",
        "ä¸į"
      ],
      [
        "ä¸Ń",
        "åĽ"
      ],
      [
        "ä¸Ń",
        "æĸĩ"
      ],
      [
        "åıĳ",
        "çĶŁçļĦäºĭ"
      ],
      [
        "ä¾",
        "Ŀæį"
      ],
      [
        "åģ",
        "¥åº"
      ],
      [
        "æµ·",
        "æĺ¯æľĢ"
      ],
      [
        "æĬ",
        "¤æĺ¯"
      ],
      [
        "æľĢ",
        "åı¤èĢģçļĦ"
      ],
      [
        "åĳ",
        "Ĭè¯"
      ],
      [
        "ä¸Ĭ",
        "æµ·æĺ¯æľĢ"
      ],
      [
        "çļĦéĩįè¦ģ",
        "å·¥"
      ],
      [
        "çļĦéĩįè¦ģ",
        "ä¾Ŀæį"
      ],
      [
        "ä¹ĭ",
        "æºĲ"
      ],
      [
        "çī¹",
        "å¾ģ"
      ],
      [
        "çī¹",
        "çĤ¹"
      ],
      [
        "å·¥",
        "æĻ"
      ],
      [
        "å·¥",
        "ç¨ĭ"
      ],
      [
        "é¦ĸ",
        "éĥ½"
      ],
      [
        "å®",
        "ŀçİ"
      ],
      [
        "æİ",
        "¨åĬ¨"
      ],
      [
        "ç»ĦæĪĲ",
        "ç»ĵæŀĦ"
      ],
      [
        "æĮ",
        "ĳæĪ"
      ],
      [
        "ĩĥçĥ§",
        "çĥŃéĩı"
      ],
      [
        "å¤§",
        "çļĦåŁ"
      ],
      [
        "å¤ļ",
        "ä¸ªè±¡å½¢åŃĹ"
      ],
      [
        "æłĳæľ¨",
        "æ£®æŀĹ"
      ],
      [
        "éľĢè¦ģ",
        "ç§ĳ"
      ],
      [
        "æĥ",
        "ħåĴĮ"
      ],
      [
        "çļĦåŁ",
        "ºç¡Ģ"
      ],
      [
        "åŃ¦",
        "æĬĢæľ¯"
      ],
      [
        "æĺ¯äºº",
        "ç±»äº¤æµģ"
      ],
      [
        "æĺ¯äºº",
        "å·¥æĻ"
      ],
      [
        "è¯Ń",
        "ä¹ī"
      ],
      [
        "éĥ½ä¸İ",
        "æľ¨åŃĹæĹģæľīå¯ĨåĪĩåħ³"
      ],
      [
        "éĥ½ä¸İ",
        "æ°´æľīåħ³"
      ],
      [
        "éĥ½ä¸İ",
        "çģ«åŃĹæĹģæľīå¯ĨåĪĩåħ³"
      ],
      [
        "æĬĢ",
        "åĪĽæĸ"
      ],
      [
        "æĶ¯",
        "æŁ±"
      ],
      [
        "æĶ¯",
        "æĴ"
      ],
      [
        "åİĨåı²",
        "æĤłä¹ħ"
      ],
      [
        "åİĨåı²",
        "åĳĬè¯"
      ],
      [
        "çĦ",
        "¶è¯Ńè¨Ģ"
      ],
      [
        "çĽ",
        "´æİ"
      ],
      [
        "è®",
        "Ń"
      ],
      [
        "åħ·",
        "åĴĮå"
      ],
      [
        "å¤©",
        "æ°Ķå¾"
      ],
      [
        "çĶ±",
        "å½¢æĹģ"
      ],
      [
        "ä¹ī",
        "åĬ¡æī"
      ],
      [
        "ç»ı",
        "éªĮ"
      ],
      [
        "ç»ı",
        "æµİåıĳå±ķ"
      ],
      [
        "åĬĽ",
        "éĩı"
      ],
      [
        "è±¡å½¢åŃĹ",
        "æĺ¯æľĢ"
      ],
      [
        "å½¢å£°åŃĹ",
        "åįł"
      ],
      [
        "å½¢å£°åŃĹ",
        "çĶ±å½¢æĹģ"
      ],
      [
        "éĢ",
        "Ķå¾"
      ],
      [
        "éĺ",
        "ħè¯»"
      ],
      [
        "éĥ¨åĪĨ",
        "ç»ĦæĪĲç»ĵæŀĦ"
      ],
      [
        "è¿ĩ",
        "åİ»"
      ],
      [
        "éĿ¢",
        "ä¸´ç"
      ],
      [
        "æ±Łæ²³æ¹ĸæµ·",
        "éĥ½ä¸İæ°´æľīåħ³"
      ],
      [
        "¢å¯Į",
        "åĴĮå"
      ],
      [
        "ä¼ļ",
        "æĦı"
      ],
      [
        "åĽ",
        "Ńæķ"
      ],
      [
        "æ¯",
        "ıä¸ª"
      ],
      [
        "æ¯",
        "Ķä¾"
      ],
      [
        "æĢ",
        "Ŀæĥ³"
      ],
      [
        "çİ",
        "¯å"
      ],
      [
        "çķ",
        "´"
      ],
      [
        "ä¸¤",
        "ä¸ªæĪĸ"
      ],
      [
        "ä¸¤",
        "éĥ¨åĪĨç»ĦæĪĲç»ĵæŀĦ"
      ],
      [
        "çļĦè´",
        "£ä»"
      ],
      [
        "åħ¬",
        "æ°ĳ"
      ],
      [
        "åħ¬",
        "åĽŃæķ"
      ],
      [
        "æ°ĳ",
        "æĹı"
      ],
      [
        "æĪĸ",
        "ç¼ºçļĦç²¾ç¥ŀ"
      ],
      [
        "æĹı",
        "èĮĥ"
      ],
      [
        "å½¢æĹģ",
        "æıĲç¤ºåŃĹçļĦ"
      ],
      [
        "æĸĩ",
        "åŃĹä¹ĭ"
      ],
      [
        "æłĩå",
        "¿Ĺ"
      ],
      [
        "æłĩå",
        "ĩĨ"
      ],
      [
        "ç§ĳ",
        "åŃ¦æĬĢæľ¯"
      ],
      [
        "åŁ¹åħ»",
        "äººæīį"
      ],
      [
        "åŁ¹åħ»",
        "æĶ¯æĴ"
      ],
      [
        "è¯»",
        "éŁ"
      ],
      [
        "äººæīį",
        "åŁ¹åħ»æĶ¯æĴ"
      ],
      [
        "åİ»",
        "åħ¬åĽŃæķ"
      ],
      [
        "æķĻ",
        "èĤ"
      ],
      [
        "æķĻ",
        "è®Ń"
      ],
      [
        "å£°æĹģ",
        "æıĲç¤ºåŃĹçļĦ"
      ],
      [
        "åŃ¦ä¹ł",
        "æīįèĥ½"
      ],
      [
        "è¯Ńè¨Ģ",
        "æĺ¯äººç±»äº¤æµģ"
      ],
      [
        "éĥ¨é¦ĸæĺ¯",
        "æŀĦæĪĲ"
      ],
      [
        "éĥ¨é¦ĸæĺ¯",
        "æ±īåŃĹæ£Ģç´"
      ],
      [
        "èĩª",
        "çĦ¶è¯Ńè¨Ģ"
      ],
      [
        "åı¤èĢģçļĦ",
        "æ±īåŃĹç±»åŀĭ"
      ],
      [
        "æĪĳä»¬",
        "åİ»åħ¬åĽŃæķ"
      ],
      [
        "æĸĩåĮĸ",
        "æĺ¯ä¸Ģä¸ª"
      ],
      [
        "çļĦç²¾ç¥ŀ",
        "è´¢å¯Į"
      ],
      [
        "é¢",
        "ĨåŁ"
      ],
      [
        "åı¯",
        "æĪĸç¼ºçļĦç²¾ç¥ŀ"
      ],
      [
        "æľ¨æĿĲ",
        "æłĳæľ¨æ£®æŀĹ"
      ],
      [
        "åģıæĹģ",
        "éĥ¨é¦ĸæĺ¯æŀĦæĪĲ"
      ],
      [
        "å®Ŀ",
        "è´µçļĦè´"
      ],
      [
        "¢ĥ",
        "ä¿Ŀ"
      ],
      [
        "¢åĴĮ",
        "åĪĨç±»"
      ],
      [
        "¤åĲĮ",
        "æłĩå¿Ĺ"
      ],
      [
        "¥è¯",
        "ĨçļĦéĩįè¦ģ"
      ],
      [
        "¥æı",
        "ıç»"
      ],
      [
        "¦ı",
        "åŁºç¡Ģ"
      ],
      [
        "ªĴ",
        "ä»ĭ"
      ],
      [
        "¬æĺ¯",
        "ä¸ŃåĽ"
      ],
      [
        "¬ç»ĦæĪĲ",
        "åįķä½"
      ],
      [
        "®åĴĮ",
        "æłĩåĩĨ"
      ],
      [
        "®æł",
        "ĩæ¢"
      ],
      [
        "°åĴĮ",
        "äººæīįåŁ¹åħ»æĶ¯æĴ"
      ],
      [
        "°èĩª",
        "å·±çļĦ"
      ],
      [
        "°çļĦçĻ¾åĪĨä¹ĭ",
        "åħ«åįģ"
      ],
      [
        "²æĺ¯",
        "åŁ¹åħ»äººæīį"
      ],
      [
        "·åı",
        "ĸçŁ"
      ],
      [
        "·æĺ¯äºº",
        "çĶŁæľĢ"
      ],
      [
        "¹æ³",
        "ķ"
      ],
      [
        "¹¸ç",
        "¦ıåŁºç¡Ģ"
      ],
      [
        "ºæľ",
        "¬ç»ĦæĪĲåįķä½"
      ],
      [
        "ºèĥ½",
        "çļĦä¸Ģä¸ª"
      ],
      [
        "»åĴĮ",
        "ä¹īåĬ¡æī"
      ],
      [
        "»æķ",
        "°çļĦçĻ¾åĪĨä¹ĭåħ«åįģ"
      ],
      [
        "½çļĦ",
        "é¦ĸéĥ½"
      ],
      [
        "¾ä¼ļ",
        "çļĦè¿"
      ],
      [
        "åĨ",
        "ħæ¶"
      ],
      [
        "åĮ",
        "Ĺäº"
      ],
      [
        "èģ",
        "Ķ"
      ],
      [
        "ĥç´",
        "ł"
      ],
      [
        "ĦåĴĮ",
        "æľīæķ"
      ],
      [
        "Īæĸ",
        "¹æ³ķ"
      ],
      [
        "īæĪĳä»¬",
        "è¿ĩåİ»"
      ],
      [
        "Ĭæĺ¯çĶŁåĳ½",
        "ä¸Ńä¸į"
      ],
      [
        "ĭ¬çī¹",
        "çļĦæĬĢæľ¯"
      ],
      [
        "Įä¸Ĭ",
        "æľĢåı¤èĢģçļĦ"
      ],
      [
        "įåħ",
        "ĥç´ł"
      ],
      [
        "İçŁ³",
        "åŃĹéĥ¨çļĦåŃĹ"
      ],
      [
        "İå¸",
        "Ĥ"
      ],
      [
        "ĺäºĭ",
        "çī©"
      ],
      [
        "Ļ¨åŃ¦ä¹ł",
        "æĺ¯äººå·¥æĻ"
      ],
      [
        "ĽæŃ¥",
        "åĴĮåıĺéĿ"
      ],
      [
        "ŀäº",
        "İçŁ³åŃĹéĥ¨çļĦåŃĹ"
      ],
      [
        "çļĦåİĨåı²",
        "åĴĮä¸°å¯Į"
      ],
      [
        "çļĦåıĳå±ķ",
        "æİ¨åĬ¨"
      ],
      [
        "çļĦæĸĩåĮĸ",
        "åĨħæ¶"
      ],
      [
        "åŃĹçĶ±",
        "ä¸¤ä¸ªæĪĸ"
      ],
      [
        "æľºå",
        "Ļ¨åŃ¦ä¹łæĺ¯äººå·¥æĻ"
      ],
      [
        "æĺ¯èİ",
        "·åıĸçŁ"
      ],
      [
        "åıĭè°",
        "Ĭæĺ¯çĶŁåĳ½ä¸Ńä¸į"
      ],
      [
        "åĴĮéĩįè¦ģ",
        "æīĭæ®"
      ],
      [
        "åĴĮè®",
        "¤åĲĮæłĩå¿Ĺ"
      ],
      [
        "åĴĮå£°æĹģ",
        "ä¸¤éĥ¨åĪĨç»ĦæĪĲç»ĵæŀĦ"
      ],
      [
        "äºĨç¤",
        "¾ä¼ļçļĦè¿"
      ],
      [
        "å¤ĦçĲĨ",
        "éĿ¢ä¸´ç"
      ],
      [
        "ä»¥ä¸Ĭ",
        "æ¯Ķä¾"
      ],
      [
        "ä»Ĭå¤©",
        "å¤©æ°Ķå¾"
      ],
      [
        "ç»ĦåĲĪ",
        "èĢĮæĪĲ"
      ],
      [
        "åĬªåĬĽ",
        "åŃ¦ä¹łæīįèĥ½"
      ],
      [
        "çŁ¿çī©",
        "éĥ½å±"
      ],
      [
        "æľīæĤłä¹ħ",
        "çļĦåİĨåı²åĴĮä¸°å¯Į"
      ],
      [
        "æ°´æĺ¯çĶŁåĳ½",
        "ä¹ĭæºĲ"
      ],
      [
        "äººçĶŁçĽ",
        "®æłĩæ¢"
      ],
      [
        "éĩįè¦ģåĪĨæĶ¯",
        "é¢ĨåŁ"
      ],
      [
        "çģ«çĦ°ç",
        "ĩĥçĥ§çĥŃéĩı"
      ],
      [
        "æ±īåŃĹçļĦåŁ",
        "ºæľ¬ç»ĦæĪĲåįķä½"
      ],
      [
        "æ±īåŃĹåħ·",
        "æľīæĤłä¹ħçļĦåİĨåı²åĴĮä¸°å¯Į"
      ],
      [
        "æ±īåŃĹæĢ",
        "»æķ°çļĦçĻ¾åĪĨä¹ĭåħ«åįģ"
      ],
      [
        "æ±īåŃĹæĺ¯ä¸ĸçķ",
        "Įä¸ĬæľĢåı¤èĢģçļĦ"
      ],
      [
        "çŁ³å¤´å²©çŁ³",
        "çŁ¿çī©éĥ½å±"
      ],
      [
        "ä¸Ńæĸĩ",
        "èĩªçĦ¶è¯Ńè¨Ģ"
      ],
      [
        "åıĳçĶŁçļĦäºĭ",
        "æĥħåĴĮ"
      ],
      [
        "åģ¥åº",
        "·æĺ¯äººçĶŁæľĢ"
      ],
      [
        "æĬ¤æĺ¯",
        "æ¯ıä¸ª"
      ],
      [
        "ä¸Ĭæµ·æĺ¯æľĢ",
        "å¤§çļĦåŁ"
      ],
      [
        "çļĦéĩįè¦ģå·¥",
        "åħ·åĴĮå"
      ],
      [
        "çļĦéĩįè¦ģä¾Ŀæį",
        "®åĴĮæłĩåĩĨ"
      ],
      [
        "å·¥ç¨ĭ",
        "åĴĮéĩįè¦ģæīĭæ®"
      ],
      [
        "å®ŀçİ",
        "°èĩªå·±çļĦ"
      ],
      [
        "æĮĳæĪ",
        "ĺ"
      ],
      [
        "å¤ļä¸ªè±¡å½¢åŃĹ",
        "ç»ĦåĲĪèĢĮæĪĲ"
      ],
      [
        "éľĢè¦ģç§ĳ",
        "æĬĢåĪĽæĸ"
      ],
      [
        "çļĦåŁºç¡Ģ",
        "å·¥ç¨ĭåĴĮéĩįè¦ģæīĭæ®"
      ],
      [
        "è¯Ńä¹ī",
        "ç±»åĪ«"
      ],
      [
        "éĥ½ä¸İæľ¨åŃĹæĹģæľīå¯ĨåĪĩåħ³",
        "èģĶ"
      ],
      [
        "éĥ½ä¸İçģ«åŃĹæĹģæľīå¯ĨåĪĩåħ³",
        "ç³»"
      ],
      [
        "æĶ¯æŁ±",
        "åĬĽéĩı"
      ],
      [
        "åİĨåı²åĳĬè¯",
        "īæĪĳä»¬è¿ĩåİ»"
      ],
      [
        "çĽ´æİ",
        "¥æııç»"
      ],
      [
        "ç»ıéªĮ",
        "æķĻè®Ń"
      ],
      [
        "ç»ıæµİåıĳå±ķ",
        "éľĢè¦ģç§ĳæĬĢåĪĽæĸ"
      ],
      [
        "è±¡å½¢åŃĹæĺ¯æľĢ",
        "åı¤èĢģçļĦæ±īåŃĹç±»åŀĭ"
      ],
      [
        "å½¢å£°åŃĹåįł",
        "æ±īåŃĹæĢ»æķ°çļĦçĻ¾åĪĨä¹ĭåħ«åįģ"
      ],
      [
        "å½¢å£°åŃĹçĶ±å½¢æĹģ",
        "åĴĮå£°æĹģä¸¤éĥ¨åĪĨç»ĦæĪĲç»ĵæŀĦ"
      ],
      [
        "éĢĶå¾",
        "ĦåĴĮæľīæķ"
      ],
      [
        "éĺħè¯»",
        "æĺ¯èİ·åıĸçŁ"
      ],
      [
        "¢å¯ĮåĴĮå",
        "¹¸ç¦ıåŁºç¡Ģ"
      ],
      [
        "ä¼ļæĦı",
        "åŃĹçĶ±ä¸¤ä¸ªæĪĸ"
      ],
      [
        "æĢĿæĥ³",
        "çļĦéĩįè¦ģå·¥åħ·åĴĮå"
      ],
      [
        "çİ¯å",
        "¢ĥä¿Ŀ"
      ],
      [
        "çļĦè´£ä»",
        "»åĴĮä¹īåĬ¡æī"
      ],
      [
        "åħ¬æ°ĳ",
        "çļĦè´£ä»»åĴĮä¹īåĬ¡æī"
      ],
      [
        "æ°ĳæĹı",
        "çļĦç²¾ç¥ŀè´¢å¯Į"
      ],
      [
        "æĹıèĮĥ",
        "çķ´"
      ],
      [
        "å½¢æĹģæıĲç¤ºåŃĹçļĦ",
        "è¯Ńä¹īç±»åĪ«"
      ],
      [
        "æĸĩåŃĹä¹ĭ",
        "ä¸Ģ"
      ],
      [
        "ç§ĳåŃ¦æĬĢæľ¯",
        "çļĦåıĳå±ķæİ¨åĬ¨"
      ],
      [
        "è¯»éŁ",
        "³"
      ],
      [
        "æķĻèĤ",
        "²æĺ¯åŁ¹åħ»äººæīį"
      ],
      [
        "å£°æĹģæıĲç¤ºåŃĹçļĦ",
        "è¯»éŁ³"
      ],
      [
        "è¯Ńè¨Ģæĺ¯äººç±»äº¤æµģ",
        "æĢĿæĥ³çļĦéĩįè¦ģå·¥åħ·åĴĮå"
      ],
      [
        "éĥ¨é¦ĸæĺ¯æ±īåŃĹæ£Ģç´",
        "¢åĴĮåĪĨç±»"
      ],
      [
        "æĪĳä»¬åİ»åħ¬åĽŃæķ",
        "£æŃ¥"
      ],
      [
        "æĸĩåĮĸæĺ¯ä¸Ģä¸ª",
        "æ°ĳæĹıçļĦç²¾ç¥ŀè´¢å¯Į"
      ],
      [
        "åı¯æĪĸç¼ºçļĦç²¾ç¥ŀ",
        "æĶ¯æŁ±åĬĽéĩı"
      ],
      [
        "æľ¨æĿĲæłĳæľ¨æ£®æŀĹ",
        "éĥ½ä¸İæľ¨åŃĹæĹģæľīå¯ĨåĪĩåħ³èģĶ"
      ],
      [
        "åģıæĹģéĥ¨é¦ĸæĺ¯æŀĦæĪĲ",
        "æ±īåŃĹçļĦåŁºæľ¬ç»ĦæĪĲåįķä½"
      ],
      [
        "å®Ŀè´µçļĦè´",
        "¢å¯ĮåĴĮå¹¸ç¦ıåŁºç¡Ģ"
      ],
      [
        "¥è¯ĨçļĦéĩįè¦ģ",
        "éĢĶå¾ĦåĴĮæľīæķ"
      ],
      [
        "¬æĺ¯ä¸ŃåĽ",
        "½çļĦé¦ĸéĥ½"
      ],
      [
        "°åĴĮäººæīįåŁ¹åħ»æĶ¯æĴ",
        "ĳ"
      ],
      [
        "ºèĥ½çļĦä¸Ģä¸ª",
        "éĩįè¦ģåĪĨæĶ¯é¢ĨåŁ"
      ],
      [
        "åĮĹäº",
        "¬æĺ¯ä¸ŃåĽ½çļĦé¦ĸéĥ½"
      ],
      [
        "ĭ¬çī¹çļĦæĬĢæľ¯",
        "æĮĳæĪĺ"
      ],
      [
        "ĽæŃ¥åĴĮåıĺéĿ",
        "©"
      ],
      [
        "ŀäºİçŁ³åŃĹéĥ¨çļĦåŃĹ",
        "æĹıèĮĥçķ´"
      ],
      [
        "çļĦæĸĩåĮĸåĨħæ¶",
        "µ"
      ],
      [
        "æľºåĻ¨åŃ¦ä¹łæĺ¯äººå·¥æĻ",
        "ºèĥ½çļĦä¸Ģä¸ªéĩįè¦ģåĪĨæĶ¯é¢ĨåŁ"
      ],
      [
        "åıĭè°Ĭæĺ¯çĶŁåĳ½ä¸Ńä¸į",
        "åı¯æĪĸç¼ºçļĦç²¾ç¥ŀæĶ¯æŁ±åĬĽéĩı"
      ],
      [
        "äºĨç¤¾ä¼ļçļĦè¿",
        "ĽæŃ¥åĴĮåıĺéĿ©"
      ],
      [
        "å¤ĦçĲĨéĿ¢ä¸´ç",
        "ĭ¬çī¹çļĦæĬĢæľ¯æĮĳæĪĺ"
      ],
      [
        "ä»¥ä¸Ĭæ¯Ķä¾",
        "ĭ"
      ],
      [
        "ä»Ĭå¤©å¤©æ°Ķå¾",
        "Īå¥½"
      ],
      [
        "åĬªåĬĽåŃ¦ä¹łæīįèĥ½",
        "å®ŀçİ°èĩªå·±çļĦ"
      ],
      [
        "äººçĶŁçĽ®æłĩæ¢",
        "¦æĥ³"
      ],
      [
        "çģ«çĦ°çĩĥçĥ§çĥŃéĩı",
        "éĥ½ä¸İçģ«åŃĹæĹģæľīå¯ĨåĪĩåħ³ç³»"
      ],
      [
        "æ±īåŃĹåħ·æľīæĤłä¹ħçļĦåİĨåı²åĴĮä¸°å¯Į",
        "çļĦæĸĩåĮĸåĨħæ¶µ"
      ],
      [
        "æ±īåŃĹæĺ¯ä¸ĸçķĮä¸ĬæľĢåı¤èĢģçļĦ",
        "æĸĩåŃĹä¹ĭä¸Ģ"
      ],
      [
        "çŁ³å¤´å²©çŁ³çŁ¿çī©éĥ½å±",
        "ŀäºİçŁ³åŃĹéĥ¨çļĦåŃĹæĹıèĮĥçķ´"
      ],
      [
        "ä¸ŃæĸĩèĩªçĦ¶è¯Ńè¨Ģ",
        "å¤ĦçĲĨéĿ¢ä¸´çĭ¬çī¹çļĦæĬĢæľ¯æĮĳæĪĺ"
      ],
      [
        "åıĳçĶŁçļĦäºĭæĥħåĴĮ",
        "ç»ıéªĮæķĻè®Ń"
      ],
      [
        "åģ¥åº·æĺ¯äººçĶŁæľĢ",
        "å®Ŀè´µçļĦè´¢å¯ĮåĴĮå¹¸ç¦ıåŁºç¡Ģ"
      ],
      [
        "æĬ¤æĺ¯æ¯ıä¸ª",
        "åħ¬æ°ĳçļĦè´£ä»»åĴĮä¹īåĬ¡æī"
      ],
      [
        "ä¸Ĭæµ·æĺ¯æľĢå¤§çļĦåŁ",
        "İå¸Ĥ"
      ],
      [
        "å¤ļä¸ªè±¡å½¢åŃĹç»ĦåĲĪèĢĮæĪĲ",
        "çī¹å¾ģ"
      ],
      [
        "çļĦåŁºç¡Ģå·¥ç¨ĭåĴĮéĩįè¦ģæīĭæ®",
        "µ"
      ],
      [
        "åİĨåı²åĳĬè¯īæĪĳä»¬è¿ĩåİ»",
        "åıĳçĶŁçļĦäºĭæĥħåĴĮç»ıéªĮæķĻè®Ń"
      ],
      [
        "çĽ´æİ¥æııç»",
        "ĺäºĭçī©"
      ],
      [
        "ç»ıæµİåıĳå±ķéľĢè¦ģç§ĳæĬĢåĪĽæĸ",
        "°åĴĮäººæīįåŁ¹åħ»æĶ¯æĴĳ"
      ],
      [
        "å½¢å£°åŃĹåįłæ±īåŃĹæĢ»æķ°çļĦçĻ¾åĪĨä¹ĭåħ«åįģ",
        "ä»¥ä¸Ĭæ¯Ķä¾ĭ"
      ],
      [
        "å½¢å£°åŃĹçĶ±å½¢æĹģåĴĮå£°æĹģä¸¤éĥ¨åĪĨç»ĦæĪĲç»ĵæŀĦ",
        "çī¹çĤ¹"
      ],
      [
        "éĺħè¯»æĺ¯èİ·åıĸçŁ",
        "¥è¯ĨçļĦéĩįè¦ģéĢĶå¾ĦåĴĮæľīæķ"
      ],
      [
        "ä¼ļæĦıåŃĹçĶ±ä¸¤ä¸ªæĪĸ",
        "å¤ļä¸ªè±¡å½¢åŃĹç»ĦåĲĪèĢĮæĪĲçī¹å¾ģ"
      ],
      [
        "çİ¯å¢ĥä¿Ŀ",
        "æĬ¤æĺ¯æ¯ıä¸ªåħ¬æ°ĳçļĦè´£ä»»åĴĮä¹īåĬ¡æī"
      ],
      [
        "ç§ĳåŃ¦æĬĢæľ¯çļĦåıĳå±ķæİ¨åĬ¨",
        "äºĨç¤¾ä¼ļçļĦè¿ĽæŃ¥åĴĮåıĺéĿ©"
      ],
      [
        "æķĻèĤ²æĺ¯åŁ¹åħ»äººæīį",
        "çļĦåŁºç¡Ģå·¥ç¨ĭåĴĮéĩįè¦ģæīĭæ®µ"
      ],
      [
        "è¯Ńè¨Ģæĺ¯äººç±»äº¤æµģæĢĿæĥ³çļĦéĩįè¦ģå·¥åħ·åĴĮå",
        "ªĴä»ĭ"
      ],
      [
        "éĥ¨é¦ĸæĺ¯æ±īåŃĹæ£Ģç´¢åĴĮåĪĨç±»",
        "çļĦéĩįè¦ģä¾Ŀæį®åĴĮæłĩåĩĨ"
      ],
      [
        "æĸĩåĮĸæĺ¯ä¸Ģä¸ªæ°ĳæĹıçļĦç²¾ç¥ŀè´¢å¯Į",
        "åĴĮè®¤åĲĮæłĩå¿Ĺ"
      ],
      [
        "åģıæĹģéĥ¨é¦ĸæĺ¯æŀĦæĪĲæ±īåŃĹçļĦåŁºæľ¬ç»ĦæĪĲåįķä½",
        "įåħĥç´ł"
      ],
      [
        "æľºåĻ¨åŃ¦ä¹łæĺ¯äººå·¥æĻºèĥ½çļĦä¸Ģä¸ªéĩįè¦ģåĪĨæĶ¯é¢ĨåŁ",
        "Ł"
      ],
      [
        "åĬªåĬĽåŃ¦ä¹łæīįèĥ½å®ŀçİ°èĩªå·±çļĦ",
        "äººçĶŁçĽ®æłĩæ¢¦æĥ³"
      ],
      [
        "éĺħè¯»æĺ¯èİ·åıĸçŁ¥è¯ĨçļĦéĩįè¦ģéĢĶå¾ĦåĴĮæľīæķ",
        "Īæĸ¹æ³ķ"
      ],
      [
        "çİ¯å¢ĥä¿ĿæĬ¤æĺ¯æ¯ıä¸ªåħ¬æ°ĳçļĦè´£ä»»åĴĮä¹īåĬ¡æī",
        "Ģåľ¨"
      ],
      [
        "¡",
        "¬"
      ],
      [
        "¡",
        "æµ"
      ],
      [
        "¡",
        "æ²³æµģ"
      ],
      [
        "£",
        "¨"
      ],
      [
        "£",
        "Ł"
      ],
      [
        "£",
        "çļĦ"
      ],
      [
        "¤",
        "éĥ¨åĪĨ"
      ],
      [
        "¥",
        "ª"
      ],
      [
        "¥",
        "æ²"
      ],
      [
        "¥",
        "çĥŃ"
      ],
      [
        "¥",
        "æ¸"
      ],
      [
        "¥",
        "è¡¨"
      ],
      [
        "¥",
        "æĹ¶"
      ],
      [
        "¦",
        "ä¸Ń"
      ],
      [
        "¦",
        "æ¸"
      ],
      [
        "§",
        "æ°"
      ],
      [
        "§",
        "åĪ¶"
      ],
      [
        "¨",
        "åŃĹ"
      ],
      [
        "©",
        "æ"
      ],
      [
        "©",
        "Ļ"
      ],
      [
        "©",
        "äºº"
      ],
      [
        "ª",
        "æĸ"
      ],
      [
        "ª",
        "æ°´"
      ],
      [
        "«",
        "ĺ"
      ],
      [
        "«",
        "æĺ¯çĶŁ"
      ],
      [
        "«",
        "æ°µ"
      ],
      [
        "¬",
        "æ³"
      ],
      [
        "¬",
        "¦åı"
      ],
      [
        "¯",
        "Ŀ"
      ],
      [
        "¯",
        "èī²"
      ],
      [
        "¯",
        "æ¹¾"
      ],
      [
        "°",
        "è"
      ],
      [
        "°",
        "ı"
      ],
      [
        "°",
        "å£"
      ],
      [
        "²",
        "Į"
      ],
      [
        "²",
        "Ĵ"
      ],
      [
        "²",
        "åľ"
      ],
      [
        "²",
        "ä½"
      ],
      [
        "²",
        "èĮĥ"
      ],
      [
        "³",
        "åİ"
      ],
      [
        "³",
        "çļĦéĩįè¦ģ"
      ],
      [
        "³",
        "åħī"
      ],
      [
        "³",
        "ä¾Ľ"
      ],
      [
        "³",
        "åı¯"
      ],
      [
        "³",
        "éĿ¢ç§¯"
      ],
      [
        "´",
        "æµģ"
      ],
      [
        "¶",
        "éĩį"
      ],
      [
        "¶",
        "æ¹"
      ],
      [
        "¶",
        "åħ·"
      ],
      [
        "¶",
        "³ä¾Ľ"
      ],
      [
        "·",
        "é"
      ],
      [
        "·",
        "æĿ"
      ],
      [
        "·",
        "åĢ"
      ],
      [
        "¸",
        "æ³"
      ],
      [
        "¸",
        "åĲĮ"
      ],
      [
        "¹",
        "¿"
      ],
      [
        "¹",
        "é"
      ],
      [
        "¹",
        "ģ"
      ],
      [
        "¹",
        "³åİ"
      ],
      [
        "»",
        "ºç"
      ],
      [
        "»",
        "å½¢å£°åŃĹ"
      ],
      [
        "»",
        "çĶ¨"
      ],
      [
        "»",
        "çĲĨ"
      ],
      [
        "»",
        "åĬł"
      ],
      [
        "»",
        "¥æĹ¶"
      ],
      [
        "¼",
        "é"
      ],
      [
        "¼",
        "åĴĮ"
      ],
      [
        "¼",
        "å¤"
      ],
      [
        "¼",
        "çĥŃ"
      ],
      [
        "¼",
        "æ£®"
      ],
      [
        "½",
        "èī²"
      ],
      [
        "½",
        "¬æ³"
      ],
      [
        "¾",
        "ĥ"
      ],
      [
        "¾",
        "Ī"
      ],
      [
        "¾",
        "æĺ¯"
      ],
      [
        "¾",
        "èĢ"
      ],
      [
        "¿",
        "éľĢè¦ģ"
      ],
      [
        "¿",
        "æ¢"
      ],
      [
        "å",
        "ĥ"
      ],
      [
        "å",
        "ĵ"
      ],
      [
        "å",
        "°ı"
      ],
      [
        "å",
        "¹³åİ"
      ],
      [
        "æ",
        "©Ļ"
      ],
      [
        "æ",
        "»¥æĹ¶"
      ],
      [
        "æ",
        "¾Ī"
      ],
      [
        "ç",
        "ľ"
      ],
      [
        "ç",
        "¾İ"
      ],
      [
        "ç",
        "ħ¤çĤŃ"
      ],
      [
        "ç",
        "¡¬"
      ],
      [
        "ç",
        "£¨"
      ],
      [
        "ç",
        "¬¦åı"
      ],
      [
        "ç",
        "¯Ŀ"
      ],
      [
        "ç",
        "²Ĵ"
      ],
      [
        "ç",
        "¹ģ"
      ],
      [
        "è",
        "Ī"
      ],
      [
        "è",
        "¶³ä¾Ľ"
      ],
      [
        "è",
        "½¬æ³"
      ],
      [
        "è",
        "¾ĥ"
      ],
      [
        "é",
        "ķ"
      ],
      [
        "é",
        "ļ"
      ],
      [
        "é",
        "Ľ"
      ],
      [
        "é",
        "ĢĤ"
      ],
      [
        "é",
        "±»"
      ],
      [
        "é",
        "£Ł"
      ],
      [
        "Ģ",
        "Ļ"
      ],
      [
        "Ģ",
        "Ł"
      ],
      [
        "Ģ",
        "çľ"
      ],
      [
        "ģ",
        "ç»ĦæĪĲ"
      ],
      [
        "ģ",
        "æŁ±"
      ],
      [
        "ģ",
        "ç§įç±»"
      ],
      [
        "Ĥ",
        "çł"
      ],
      [
        "ĥ",
        "åįģ"
      ],
      [
        "ĥ",
        "èĬĤ"
      ],
      [
        "ħ",
        "æ¾Ī"
      ],
      [
        "ħ",
        "è¶³ä¾Ľ"
      ],
      [
        "Ĩ",
        "åĲĪ"
      ],
      [
        "ĩ",
        "¥çĥŃ"
      ],
      [
        "ĩ",
        "é±»"
      ],
      [
        "ī",
        "è§"
      ],
      [
        "ī",
        "ç§¯"
      ],
      [
        "Ĭ",
        "æĹ¶"
      ],
      [
        "Ĭ",
        "æŁľ"
      ],
      [
        "į",
        "æ£"
      ],
      [
        "į",
        "çī©"
      ],
      [
        "į",
        "æŀĦæĪĲ"
      ],
      [
        "İ",
        "äº"
      ],
      [
        "İ",
        "èĥ½"
      ],
      [
        "ı",
        "å¯"
      ],
      [
        "ı",
        "å¤©"
      ],
      [
        "Ĳ",
        "åįģåĪĨ"
      ],
      [
        "ĳ",
        "æĿĲ"
      ],
      [
        "Ĵ",
        "æ´"
      ],
      [
        "Ĵ",
        "æŀ"
      ],
      [
        "Ĵ",
        "éĢĤ"
      ],
      [
        "ĵ",
        "æľīåħ³"
      ],
      [
        "ĵ",
        "ç£¨"
      ],
      [
        "Ķ",
        "åĴĮ"
      ],
      [
        "ĸ",
        "æĺ"
      ],
      [
        "Ĺ",
        "´æµģ"
      ],
      [
        "Ĺ",
        "ç²Ĵ"
      ],
      [
        "Ļ",
        "æľ¨"
      ],
      [
        "Ļ",
        "åľ¨"
      ],
      [
        "Ļ",
        "æīįèĥ½"
      ],
      [
        "ļ",
        "çĶŁ"
      ],
      [
        "ļ",
        "è¿ĩ"
      ],
      [
        "ļ",
        "åĩ"
      ],
      [
        "ļ",
        "çĩĥçĥ§"
      ],
      [
        "ļ",
        "ç¡¬"
      ],
      [
        "ļ",
        "ĸæĺ"
      ],
      [
        "Ľ",
        "®çļĦ"
      ],
      [
        "ľ",
        "çļĦ"
      ],
      [
        "ľ",
        "æĻ"
      ],
      [
        "ľ",
        "çĶ¨"
      ],
      [
        "Ŀ",
        "ļç¡¬"
      ],
      [
        "Ł",
        "åĴĮ"
      ],
      [
        "Ł",
        "åĪ"
      ],
      [
        "ł",
        "åĬł"
      ],
      [
        "Ń",
        "éĥ¨"
      ],
      [
        "Ń",
        "ä¹"
      ],
      [
        "Ń",
        "æ³"
      ],
      [
        "Ń",
        "ĳæĿĲ"
      ],
      [
        "ä¸",
        "½"
      ],
      [
        "ä¸",
        "ĥåįģ"
      ],
      [
        "ä¸",
        "īè§"
      ],
      [
        "ä¸",
        "ļçĶŁ"
      ],
      [
        "ä¸",
        "ľçļĦ"
      ],
      [
        "çļĦ",
        "åħ"
      ],
      [
        "çļĦ",
        "å¤"
      ],
      [
        "çļĦ",
        "æ²³"
      ],
      [
        "çļĦ",
        "èĤ"
      ],
      [
        "åŃĹ",
        "æĺ¯"
      ],
      [
        "åŃĹ",
        "éĢ"
      ],
      [
        "æĺ¯",
        "åı"
      ],
      [
        "æĺ¯",
        "ä¸Ģ"
      ],
      [
        "æĺ¯",
        "éĩįè¦ģ"
      ],
      [
        "æĺ¯",
        "å±±"
      ],
      [
        "æĺ¯",
        "å¸¸è§"
      ],
      [
        "åħ",
        "Ńä¹"
      ],
      [
        "åı",
        "£çļĦ"
      ],
      [
        "åı",
        "ĬæĹ¶"
      ],
      [
        "åĴĮ",
        "åģ"
      ],
      [
        "åĴĮ",
        "åħ»"
      ],
      [
        "å¤",
        "įæŀĦæĪĲ"
      ],
      [
        "å¤",
        "ľæĻ"
      ],
      [
        "æ°",
        "Ķå"
      ],
      [
        "æ°",
        "§æ°"
      ],
      [
        "éĥ¨",
        "ä»"
      ],
      [
        "çĥ",
        "¹é"
      ],
      [
        "ä»",
        "·åĢ"
      ],
      [
        "åĪĨ",
        "çļĦåħ"
      ],
      [
        "åĪĨ",
        "åĴĮåħ»"
      ],
      [
        "å½",
        "©"
      ],
      [
        "çĶŁ",
        "æ´"
      ],
      [
        "çĶŁ",
        "çĥŃéĩı"
      ],
      [
        "çĶŁ",
        "éķ"
      ],
      [
        "æľ¨",
        "éĥ¨çļĦåŃĹ"
      ],
      [
        "æľ¨",
        "åĪ¶"
      ],
      [
        "æ²",
        "»çĲĨ"
      ],
      [
        "æ²",
        "īç§¯"
      ],
      [
        "æ³",
        "¥æ²"
      ],
      [
        "æ³",
        "½èī²"
      ],
      [
        "å½¢",
        "æĪĲ"
      ],
      [
        "åľ",
        "°çĲĥ"
      ],
      [
        "æĸ",
        "Ļ"
      ],
      [
        "ä¸Ģ",
        "å·"
      ],
      [
        "ä¸Ģ",
        "æĿ"
      ],
      [
        "æ£",
        "įæ£"
      ],
      [
        "çģ",
        "¼çĥŃ"
      ],
      [
        "æ°´",
        "åĲ"
      ],
      [
        "æ°´",
        "åľ¨"
      ],
      [
        "æ°´",
        "æ¶"
      ],
      [
        "æ°´",
        "æ¹¾"
      ],
      [
        "æ°´",
        "åĪĨåĴĮåħ»"
      ],
      [
        "æ´",
        "¥æ¸"
      ],
      [
        "æ´",
        "ªæ°´"
      ],
      [
        "æ´",
        "Ńæ³"
      ],
      [
        "æī",
        "ĵç£¨"
      ],
      [
        "éĥ½",
        "åĲ"
      ],
      [
        "éĥ½",
        "æĺ¯å¸¸è§"
      ],
      [
        "åĲ",
        "İèĥ½"
      ],
      [
        "çģ«",
        "éĥ¨"
      ],
      [
        "çģ«",
        "åľ¨"
      ],
      [
        "çģ«",
        "åħī"
      ],
      [
        "çģ«",
        "åĢ"
      ],
      [
        "çģ«",
        "éĥ¨çļĦåŃĹå¤§å¤ļä¸İ"
      ],
      [
        "æ²³",
        "åº"
      ],
      [
        "ä¸İ",
        "æłĳæľ¨"
      ],
      [
        "çŁ³",
        "éĥ¨"
      ],
      [
        "çŁ³",
        "ç»ı"
      ],
      [
        "æĿ",
        "¿æ¢"
      ],
      [
        "çĥŃ",
        "æľīåħ³"
      ],
      [
        "çĥŃ",
        "çļĦå¤"
      ],
      [
        "è´",
        "¨"
      ],
      [
        "ĩå",
        "ĢŁ"
      ],
      [
        "èĢ",
        "Ģçľ"
      ],
      [
        "é¦",
        "Ļæľ¨"
      ],
      [
        "ä¸Ń",
        "æ²īç§¯"
      ],
      [
        "ºç",
        "¾İ"
      ],
      [
        "ºç",
        "Ľ®çļĦ"
      ],
      [
        "åģ",
        "ļåĩ"
      ],
      [
        "æµ·",
        "æ´ĭ"
      ],
      [
        "çī©",
        "è´¨"
      ],
      [
        "èĥ½",
        "éĩı"
      ],
      [
        "°ç",
        "ĩ¥çĥŃ"
      ],
      [
        "æµģ",
        "æ´¥æ¸"
      ],
      [
        "çĥ§",
        "çģ¼çĥŃ"
      ],
      [
        "åľ¨",
        "è±¡å½¢åŃĹ"
      ],
      [
        "æłĳ",
        "æ¡Įæ¤ħ"
      ],
      [
        "åĳ",
        "³åı¯"
      ],
      [
        "ä¸Ĭ",
        "æ·"
      ],
      [
        "çī¹",
        "æ®"
      ],
      [
        "å·¥",
        "ä¸ļçĶŁ"
      ],
      [
        "å®",
        "¶åħ·"
      ],
      [
        "æİ",
        "§åĪ¶"
      ],
      [
        "æİ",
        "ªæĸ"
      ],
      [
        "Ķå",
        "¹¿"
      ],
      [
        "ç»ĦæĪĲ",
        "éĥ¨åĪĨ"
      ],
      [
        "åº",
        "Ķ"
      ],
      [
        "åº",
        "ĬæŁľ"
      ],
      [
        "å¤§",
        "å°ı"
      ],
      [
        "å¤ļ",
        "ä¸°å¯Į"
      ],
      [
        "æłĳæľ¨",
        "çļĦå"
      ],
      [
        "æłĳæľ¨",
        "çĶŁéķ"
      ],
      [
        "éľĢè¦ģ",
        "åıĬæĹ¶"
      ],
      [
        "éľĢè¦ģ",
        "æİ§åĪ¶"
      ],
      [
        "æ¸",
        "©æ"
      ],
      [
        "æ¸",
        "ħæ¾Ī"
      ],
      [
        "çĬ",
        "ĩé±»"
      ],
      [
        "çĬ",
        "Ńéĥ¨"
      ],
      [
        "çł",
        "Ĥçł"
      ],
      [
        "çĽ",
        "¸åĲĮ"
      ],
      [
        "è®",
        "©äºº"
      ],
      [
        "ģçļĦ",
        "æľ¨åĪ¶"
      ],
      [
        "äºĭ",
        "åŃĹéĢ"
      ],
      [
        "çĶ±",
        "çĽ¸åĲĮ"
      ],
      [
        "ç¤º",
        "æĦı"
      ],
      [
        "ä½",
        "ľçĶ¨"
      ],
      [
        "æĦ",
        "ŁåĪ"
      ],
      [
        "æĻ",
        "¯èī²"
      ],
      [
        "è°",
        "·é"
      ],
      [
        "è°",
        "ĥèĬĤ"
      ],
      [
        "éĢ",
        "Ķå¹¿"
      ],
      [
        "éĺ",
        "²èĮĥ"
      ],
      [
        "éĺ",
        "³åħī"
      ],
      [
        "ä¸į",
        "ä¸Ģ"
      ],
      [
        "ä¸į",
        "èĪ"
      ],
      [
        "è¿ĩ",
        "æīĵç£¨"
      ],
      [
        "æ¤",
        "įçī©"
      ],
      [
        "æ·",
        "Į"
      ],
      [
        "æ·",
        "¼æ£®"
      ],
      [
        "çĩĥçĥ§",
        "äº§"
      ],
      [
        "çĩĥçĥ§",
        "çĥŃæľīåħ³"
      ],
      [
        "åħī",
        "æ³½èī²"
      ],
      [
        "çĶ¨",
        "éĢĶå¹¿"
      ],
      [
        "ç§į",
        "é¦Ļæľ¨"
      ],
      [
        "çĤİ",
        "çĥŃçļĦå¤"
      ],
      [
        "çĤİ",
        "çĥ§çģ¼çĥŃ"
      ],
      [
        "çĤİ",
        "çĬĩé±»"
      ],
      [
        "æĮĩ",
        "æ°´æ¹¾"
      ],
      [
        "æĮĩ",
        "æłĳæľ¨çļĦå"
      ],
      [
        "æĮĩ",
        "äºĭåŃĹéĢ"
      ],
      [
        "èī²",
        "çģ«åħī"
      ],
      [
        "åŃĹä»İ",
        "çģ«éĥ¨"
      ],
      [
        "åŃĹä»İ",
        "çŁ³éĥ¨"
      ],
      [
        "åŃĹä»İ",
        "çĬŃéĥ¨"
      ],
      [
        "å²©çŁ³",
        "æĺ¯åľ"
      ],
      [
        "é¢",
        "Ĺç²Ĵ"
      ],
      [
        "æĺ¯ä¸Ģä¸ª",
        "æ°´åĲ"
      ],
      [
        "æľ¨æĿĲ",
        "æĺ¯éĩįè¦ģ"
      ],
      [
        "åĬ¨",
        "åĬĽ"
      ],
      [
        "åįł",
        "åľ°çĲĥ"
      ],
      [
        "æŀĦ",
        "åŃĹ"
      ],
      [
        "å®Ŀ",
        "çŁ³ç»ı"
      ],
      [
        "çĦ°ç",
        "ħ¤çĤŃ"
      ],
      [
        "æ£®æŀĹ",
        "æĺ¯åľ"
      ],
      [
        "çļĦçĻ¾åĪĨä¹ĭ",
        "ä¸ĥåįģ"
      ],
      [
        "¦åı",
        "³éĿ¢ç§¯"
      ],
      [
        "®çļĦ",
        "æ©Ļ"
      ],
      [
        "çĸ",
        "¤éĥ¨åĪĨ"
      ],
      [
        "çĸ",
        "ıå¯"
      ],
      [
        "è¡¨",
        "éĿ¢ç§¯"
      ],
      [
        "ĬçļĦ",
        "ç±»åŀĭ"
      ],
      [
        "ĬçļĦ",
        "å¸¸è§"
      ],
      [
        "ä¸º",
        "çī¹æ®"
      ],
      [
        "ä¸º",
        "å·¥ä¸ļçĶŁ"
      ],
      [
        "çļĦå",
        "»ºç"
      ],
      [
        "æľ¸",
        "æ±Ń"
      ],
      [
        "æľ¸",
        "æĮĩæłĳæľ¨çļĦå"
      ],
      [
        "äº§",
        "æıĲä¾Ľ"
      ],
      [
        "æ°µ",
        "éĥ¨çļĦåŃĹå¤§å¤ļä¸İ"
      ],
      [
        "æµ¯",
        "æĺ¯å±±"
      ],
      [
        "æµ¯",
        "æľ¸æ±Ń"
      ],
      [
        "æ±¸",
        "æ£»"
      ],
      [
        "æ±¸",
        "æĺ¯ä¸Ģä¸ªæ°´åĲ"
      ],
      [
        "æ±Ń",
        "æĮĩæ°´æ¹¾"
      ],
      [
        "æ³Ľ",
        "æ»¥æĹ¶"
      ],
      [
        "æ³Ľ",
        "ä»·åĢ"
      ],
      [
        "æ£»",
        "æĺ¯ä¸Ģ"
      ],
      [
        "çĤĩ",
        "çł¯"
      ],
      [
        "çĤĩ",
        "åŃĹä»İçģ«éĥ¨"
      ],
      [
        "æ²³æµģ",
        "ä¸Ńæ²īç§¯"
      ],
      [
        "å±±",
        "è°·é"
      ],
      [
        "°çĲĥ",
        "çļĦèĤ"
      ],
      [
        "æıĲä¾Ľ",
        "æ°§æ°"
      ],
      [
        "æŁľ",
        "æĿ¿æ¢"
      ],
      [
        "åįģåĪĨ",
        "ç¾İ"
      ],
      [
        "çĬ´",
        "åŃĹä»İçĬŃéĥ¨"
      ],
      [
        "çĬ´",
        "æµ¯æľ¸æ±Ń"
      ],
      [
        "çł¯",
        "åŃĹä»İçŁ³éĥ¨"
      ],
      [
        "ç§įç±»",
        "ç¹ģ"
      ],
      [
        "æ¡Įæ¤ħ",
        "åºĬæŁľ"
      ],
      [
        "èĬĤ",
        "çĸ¤éĥ¨åĪĨ"
      ],
      [
        "åıĳåĩº",
        "èĢĢçľ"
      ],
      [
        "åıĳåĩº",
        "æ¸©æ"
      ],
      [
        "æ±Łæ²³æ¹ĸæµ·æ´ĭæ³īæºĲ",
        "æµģæ´¥æ¸"
      ],
      [
        "¡æµ",
        "¦æ¸"
      ],
      [
        "¥ª",
        "éľĢè¦ģæİ§åĪ¶"
      ],
      [
        "¥è¡¨",
        "ç¤ºæĦı"
      ],
      [
        "¦ä¸Ń",
        "è¾ĥ"
      ],
      [
        "¨åŃĹ",
        "åĴĮåģ"
      ],
      [
        "«æĺ¯çĶŁ",
        "åĥ"
      ],
      [
        "«æ°µ",
        "éĥ¨é¦ĸ"
      ],
      [
        "¯æ¹¾",
        "éĥ½åĲ"
      ],
      [
        "°è",
        "²Į"
      ],
      [
        "°å£",
        "³çļĦéĩįè¦ģ"
      ],
      [
        "²åľ",
        "°è²Į"
      ],
      [
        "²ä½",
        "ĵæľīåħ³"
      ],
      [
        "¶éĩį",
        "å¤įæŀĦæĪĲ"
      ],
      [
        "¶æ¹",
        "¸æ³"
      ],
      [
        "·æĿ",
        "¥è¡¨ç¤ºæĦı"
      ],
      [
        "»å½¢å£°åŃĹ",
        "éĽ"
      ],
      [
        "»çĶ¨",
        "åĵ"
      ],
      [
        "»åĬł",
        "ç¬¦åı"
      ],
      [
        "¼é",
        "«ĺ"
      ],
      [
        "¼åĴĮ",
        "éĺ²èĮĥ"
      ],
      [
        "¼å¤",
        "ºçĽ®çļĦ"
      ],
      [
        "¾æĺ¯",
        "æ²³åº"
      ],
      [
        "¾èĢ",
        "ĲåįģåĪĨ"
      ],
      [
        "¿éľĢè¦ģ",
        "éĺ³åħī"
      ],
      [
        "å¹³åİ",
        "ŁåĴĮ"
      ],
      [
        "çħ¤çĤŃ",
        "çĩĥçĥ§äº§"
      ],
      [
        "ç¯Ŀ",
        "çģ«åľ¨"
      ],
      [
        "è½¬æ³",
        "¨åŃĹåĴĮåģ"
      ],
      [
        "éļ",
        "¾èĢĲåįģåĪĨ"
      ],
      [
        "é£Ł",
        "çī©"
      ],
      [
        "ĢĻ",
        "ä½ľçĶ¨"
      ],
      [
        "ģç»ĦæĪĲ",
        "çī©è´¨"
      ],
      [
        "ģæŁ±",
        "æ£įæ£"
      ],
      [
        "ħè¶³ä¾Ľ",
        "åºĶ"
      ],
      [
        "İäº",
        "®çļĦæ©Ļ"
      ],
      [
        "ıå¤©",
        "è®©äºº"
      ],
      [
        "Ĵæ´",
        "²åľ°è²Į"
      ],
      [
        "Ĵæŀ",
        "Ŀ"
      ],
      [
        "ĶåĴĮ",
        "è°ĥèĬĤ"
      ],
      [
        "Ĺ´æµģ",
        "æ·Į"
      ],
      [
        "Ļåľ¨",
        "æ²³æµģä¸Ńæ²īç§¯"
      ],
      [
        "Ļæīįèĥ½",
        "åģļåĩ"
      ],
      [
        "ļè¿ĩ",
        "åľ¨è±¡å½¢åŃĹ"
      ],
      [
        "ļçĩĥçĥ§",
        "åıĳåĩºæ¸©æ"
      ],
      [
        "ļĸæĺ",
        "İäº®çļĦæ©Ļ"
      ],
      [
        "Ŀļç¡¬",
        "èĬĤçĸ¤éĥ¨åĪĨ"
      ],
      [
        "łåĬł",
        "æŀĦåŃĹ"
      ],
      [
        "ŃĳæĿĲ",
        "æĸĻ"
      ],
      [
        "ä¸īè§",
        "Ĵæ´²åľ°è²Į"
      ],
      [
        "ä¸ľçļĦ",
        "ä¸ĢæĿ"
      ],
      [
        "çļĦæ²³",
        "æ°´åľ¨"
      ],
      [
        "åŃĹæĺ¯",
        "åħŃä¹"
      ],
      [
        "æĺ¯åı",
        "łåĬłæŀĦåŃĹ"
      ],
      [
        "åı£çļĦ",
        "é£Łçī©"
      ],
      [
        "å¤ľæĻ",
        "ļçĩĥçĥ§åıĳåĩºæ¸©æ"
      ],
      [
        "æ°Ķå",
        "ĢĻä½ľçĶ¨"
      ],
      [
        "éĥ¨ä»",
        "¶éĩįå¤įæŀĦæĪĲ"
      ],
      [
        "çĥ¹é",
        "¥ªéľĢè¦ģæİ§åĪ¶"
      ],
      [
        "åĪĨçļĦåħ",
        "ħè¶³ä¾ĽåºĶ"
      ],
      [
        "çĶŁæ´",
        "»çĶ¨åĵ"
      ],
      [
        "çĶŁçĥŃéĩı",
        "ä¸ºå·¥ä¸ļçĶŁ"
      ],
      [
        "æľ¨éĥ¨çļĦåŃĹ",
        "ä¸İæłĳæľ¨"
      ],
      [
        "æ²»çĲĨ",
        "æİªæĸ"
      ],
      [
        "æ³¥æ²",
        "Ļåľ¨æ²³æµģä¸Ńæ²īç§¯"
      ],
      [
        "å½¢æĪĲ",
        "å¹³åİŁåĴĮ"
      ],
      [
        "ä¸Ģå·",
        "¦åı³éĿ¢ç§¯"
      ],
      [
        "æ°´æ¶",
        "²ä½ĵæľīåħ³"
      ],
      [
        "æ°´åĪĨåĴĮåħ»",
        "åĪĨçļĦåħħè¶³ä¾ĽåºĶ"
      ],
      [
        "æ´ªæ°´",
        "æ³Ľæ»¥æĹ¶"
      ],
      [
        "æ´Ńæ³",
        "¶æ¹¸æ³"
      ],
      [
        "éĥ½æĺ¯å¸¸è§",
        "ģçļĦæľ¨åĪ¶"
      ],
      [
        "åĲİèĥ½",
        "åıĳåĩºèĢĢçľ"
      ],
      [
        "çģ«åĢ",
        "Ļæīįèĥ½åģļåĩ"
      ],
      [
        "çģ«éĥ¨çļĦåŃĹå¤§å¤ļä¸İ",
        "çĩĥçĥ§çĥŃæľīåħ³"
      ],
      [
        "ĩåĢŁ",
        "åŃĹæĺ¯åħŃä¹"
      ],
      [
        "ºç¾İ",
        "åĳ³åı¯"
      ],
      [
        "æµ·æ´ĭ",
        "åįłåľ°çĲĥ"
      ],
      [
        "èĥ½éĩı",
        "åĬ¨åĬĽ"
      ],
      [
        "°çĩ¥çĥŃ",
        "éļ¾èĢĲåįģåĪĨ"
      ],
      [
        "æłĳæ¡Įæ¤ħ",
        "æŁľæĿ¿æ¢"
      ],
      [
        "ä¸Ĭæ·",
        "»åĬłç¬¦åı"
      ],
      [
        "å®¶åħ·",
        "çĶŁæ´»çĶ¨åĵ"
      ],
      [
        "å¤§å°ı",
        "ä¸įä¸Ģ"
      ],
      [
        "æłĳæľ¨çĶŁéķ",
        "¿éľĢè¦ģéĺ³åħī"
      ],
      [
        "éľĢè¦ģåıĬæĹ¶",
        "çĸıå¯"
      ],
      [
        "æ¸ħæ¾Ī",
        "çļĦæ²³æ°´åľ¨"
      ],
      [
        "çłĤçł",
        "¾æĺ¯æ²³åº"
      ],
      [
        "çĶ±çĽ¸åĲĮ",
        "éĥ¨ä»¶éĩįå¤įæŀĦæĪĲ"
      ],
      [
        "æĦŁåĪ",
        "°çĩ¥çĥŃéļ¾èĢĲåįģåĪĨ"
      ],
      [
        "æĻ¯èī²",
        "åįģåĪĨç¾İ"
      ],
      [
        "ä¸įèĪ",
        "ĴéĢĤ"
      ],
      [
        "è¿ĩæīĵç£¨",
        "åĲİèĥ½åıĳåĩºèĢĢçľ"
      ],
      [
        "æ·¼æ£®",
        "çĤİçĬĩé±»"
      ],
      [
        "åħīæ³½èī²",
        "å½©"
      ],
      [
        "çĶ¨éĢĶå¹¿",
        "æ³Ľä»·åĢ"
      ],
      [
        "ç§įé¦Ļæľ¨",
        "æ¤įçī©"
      ],
      [
        "çĤİçĥŃçļĦå¤",
        "ıå¤©è®©äºº"
      ],
      [
        "çĤİçĥ§çģ¼çĥŃ",
        "çĦ°çħ¤çĤŃ"
      ],
      [
        "æĮĩäºĭåŃĹéĢ",
        "ļè¿ĩåľ¨è±¡å½¢åŃĹ"
      ],
      [
        "å²©çŁ³æĺ¯åľ",
        "°å£³çļĦéĩįè¦ģ"
      ],
      [
        "é¢Ĺç²Ĵ",
        "å¤§å°ıä¸įä¸Ģ"
      ],
      [
        "æľ¨æĿĲæĺ¯éĩįè¦ģ",
        "çļĦå»ºç"
      ],
      [
        "å®ĿçŁ³ç»ı",
        "è¿ĩæīĵç£¨åĲİèĥ½åıĳåĩºèĢĢçľ"
      ],
      [
        "æ£®æŀĹæĺ¯åľ",
        "°çĲĥçļĦèĤ"
      ],
      [
        "çļĦçĻ¾åĪĨä¹ĭä¸ĥåįģ",
        "ä¸Ģå·¦åı³éĿ¢ç§¯"
      ],
      [
        "è¡¨éĿ¢ç§¯",
        "çļĦçĻ¾åĪĨä¹ĭä¸ĥåįģä¸Ģå·¦åı³éĿ¢ç§¯"
      ],
      [
        "ĬçļĦå¸¸è§",
        "ģç»ĦæĪĲçī©è´¨"
      ],
      [
        "ä¸ºçī¹æ®",
        "ĬçļĦç±»åŀĭ"
      ],
      [
        "æľ¸æĮĩæłĳæľ¨çļĦå",
        "Ŀļç¡¬èĬĤçĸ¤éĥ¨åĪĨ"
      ],
      [
        "äº§æıĲä¾Ľ",
        "èĥ½éĩıåĬ¨åĬĽ"
      ],
      [
        "æ°µéĥ¨çļĦåŃĹå¤§å¤ļä¸İ",
        "æ°´æ¶²ä½ĵæľīåħ³"
      ],
      [
        "æµ¯æĺ¯å±±",
        "ä¸ľçļĦä¸ĢæĿ"
      ],
      [
        "æ±¸æ£»",
        "çĤĩçł¯"
      ],
      [
        "æ±¸æĺ¯ä¸Ģä¸ªæ°´åĲ",
        "į"
      ],
      [
        "æ£»æĺ¯ä¸Ģ",
        "ç§įé¦Ļæľ¨æ¤įçī©"
      ],
      [
        "å±±è°·é",
        "Ĺ´æµģæ·Į"
      ],
      [
        "æıĲä¾Ľæ°§æ°",
        "ĶåĴĮè°ĥèĬĤ"
      ],
      [
        "çĬ´åŃĹä»İçĬŃéĥ¨",
        "åģıæĹģ"
      ],
      [
        "çĬ´æµ¯æľ¸æ±Ń",
        "æ´Ńæ³¶æ¹¸æ³"
      ],
      [
        "ç§įç±»ç¹ģ",
        "å¤ļä¸°å¯Į"
      ],
      [
        "æ¡Įæ¤ħåºĬæŁľ",
        "éĥ½æĺ¯å¸¸è§ģçļĦæľ¨åĪ¶"
      ],
      [
        "æ±Łæ²³æ¹ĸæµ·æ´ĭæ³īæºĲæµģæ´¥æ¸",
        "¡æµ¦æ¸"
      ],
      [
        "¦ä¸Ńè¾ĥ",
        "ä¸ºçī¹æ®ĬçļĦç±»åŀĭ"
      ],
      [
        "«æĺ¯çĶŁåĥ",
        "»å½¢å£°åŃĹéĽ"
      ],
      [
        "¯æ¹¾éĥ½åĲ",
        "«æ°µéĥ¨é¦ĸ"
      ],
      [
        "·æĿ¥è¡¨ç¤ºæĦı",
        "ä¹ī"
      ],
      [
        "¼åĴĮéĺ²èĮĥ",
        "æ²»çĲĨæİªæĸ"
      ],
      [
        "¼å¤ºçĽ®çļĦ",
        "åħīæ³½èī²å½©"
      ],
      [
        "çħ¤çĤŃçĩĥçĥ§äº§",
        "çĶŁçĥŃéĩıä¸ºå·¥ä¸ļçĶŁ"
      ],
      [
        "ç¯Ŀçģ«åľ¨",
        "å¤ľæĻļçĩĥçĥ§åıĳåĩºæ¸©æ"
      ],
      [
        "è½¬æ³¨åŃĹåĴĮåģ",
        "ĩåĢŁåŃĹæĺ¯åħŃä¹"
      ],
      [
        "ģæŁ±æ£įæ£",
        "ĴæŀĿ"
      ],
      [
        "ļĸæĺİäº®çļĦæ©Ļ",
        "èī²çģ«åħī"
      ],
      [
        "çĥ¹é¥ªéľĢè¦ģæİ§åĪ¶",
        "çģ«åĢĻæīįèĥ½åģļåĩ"
      ],
      [
        "æľ¨éĥ¨çļĦåŃĹä¸İæłĳæľ¨",
        "æľīåħ³"
      ],
      [
        "æ³¥æ²Ļåľ¨æ²³æµģä¸Ńæ²īç§¯",
        "å½¢æĪĲå¹³åİŁåĴĮ"
      ],
      [
        "æ´ªæ°´æ³Ľæ»¥æĹ¶",
        "éľĢè¦ģåıĬæĹ¶çĸıå¯"
      ],
      [
        "ºç¾İåĳ³åı¯",
        "åı£çļĦé£Łçī©"
      ],
      [
        "æµ·æ´ĭåįłåľ°çĲĥ",
        "è¡¨éĿ¢ç§¯çļĦçĻ¾åĪĨä¹ĭä¸ĥåįģä¸Ģå·¦åı³éĿ¢ç§¯"
      ],
      [
        "æłĳæ¡Įæ¤ħæŁľæĿ¿æ¢",
        "ģæŁ±æ£įæ£ĴæŀĿ"
      ],
      [
        "ä¸Ĭæ·»åĬłç¬¦åı",
        "·æĿ¥è¡¨ç¤ºæĦıä¹ī"
      ],
      [
        "å®¶åħ·çĶŁæ´»çĶ¨åĵ",
        "ģç§įç±»"
      ],
      [
        "æłĳæľ¨çĶŁéķ¿éľĢè¦ģéĺ³åħī",
        "æ°´åĪĨåĴĮåħ»åĪĨçļĦåħħè¶³ä¾ĽåºĶ"
      ],
      [
        "æ¸ħæ¾ĪçļĦæ²³æ°´åľ¨",
        "å±±è°·éĹ´æµģæ·Į"
      ],
      [
        "çłĤçł¾æĺ¯æ²³åº",
        "ĬçļĦå¸¸è§ģç»ĦæĪĲçī©è´¨"
      ],
      [
        "æĦŁåĪ°çĩ¥çĥŃéļ¾èĢĲåįģåĪĨ",
        "ä¸įèĪĴéĢĤ"
      ],
      [
        "æĻ¯èī²åįģåĪĨç¾İ",
        "ä¸½"
      ],
      [
        "æ·¼æ£®çĤİçĬĩé±»",
        "æĺ¯åıłåĬłæŀĦåŃĹ"
      ],
      [
        "çĶ¨éĢĶå¹¿æ³Ľä»·åĢ",
        "¼é«ĺ"
      ],
      [
        "çĤİçĥŃçļĦå¤ıå¤©è®©äºº",
        "æĦŁåĪ°çĩ¥çĥŃéļ¾èĢĲåįģåĪĨä¸įèĪĴéĢĤ"
      ],
      [
        "æĮĩäºĭåŃĹéĢļè¿ĩåľ¨è±¡å½¢åŃĹ",
        "ä¸Ĭæ·»åĬłç¬¦åı·æĿ¥è¡¨ç¤ºæĦıä¹ī"
      ],
      [
        "å²©çŁ³æĺ¯åľ°å£³çļĦéĩįè¦ģ",
        "ç»ĦæĪĲéĥ¨åĪĨ"
      ],
      [
        "æľ¨æĿĲæĺ¯éĩįè¦ģçļĦå»ºç",
        "ŃĳæĿĲæĸĻ"
      ],
      [
        "å®ĿçŁ³ç»ıè¿ĩæīĵç£¨åĲİèĥ½åıĳåĩºèĢĢçľ",
        "¼å¤ºçĽ®çļĦåħīæ³½èī²å½©"
      ],
      [
        "æ£®æŀĹæĺ¯åľ°çĲĥçļĦèĤ",
        "º"
      ],
      [
        "æµ¯æĺ¯å±±ä¸ľçļĦä¸ĢæĿ",
        "¡æ²³æµģ"
      ],
      [
        "æ±¸æ£»çĤĩçł¯",
        "çĬ´æµ¯æľ¸æ±Ńæ´Ńæ³¶æ¹¸æ³"
      ],
      [
        "æıĲä¾Ľæ°§æ°ĶåĴĮè°ĥèĬĤ",
        "æ°ĶåĢĻä½ľçĶ¨"
      ],
      [
        "æ¡Įæ¤ħåºĬæŁľéĥ½æĺ¯å¸¸è§ģçļĦæľ¨åĪ¶",
        "å®¶åħ·çĶŁæ´»çĶ¨åĵģç§įç±»"
      ],
      [
        "æ±Łæ²³æ¹ĸæµ·æ´ĭæ³īæºĲæµģæ´¥æ¸¡æµ¦æ¸",
        "¯æ¹¾éĥ½åĲ«æ°µéĥ¨é¦ĸ"
      ],
      [
        "«æĺ¯çĶŁåĥ»å½¢å£°åŃĹéĽ",
        "ĨåĲĪ"
      ],
      [
        "¼åĴĮéĺ²èĮĥæ²»çĲĨæİªæĸ",
        "½"
      ],
      [
        "çħ¤çĤŃçĩĥçĥ§äº§çĶŁçĥŃéĩıä¸ºå·¥ä¸ļçĶŁ",
        "äº§æıĲä¾Ľèĥ½éĩıåĬ¨åĬĽ"
      ],
      [
        "ç¯Ŀçģ«åľ¨å¤ľæĻļçĩĥçĥ§åıĳåĩºæ¸©æ",
        "ļĸæĺİäº®çļĦæ©Ļèī²çģ«åħī"
      ],
      [
        "è½¬æ³¨åŃĹåĴĮåģĩåĢŁåŃĹæĺ¯åħŃä¹",
        "¦ä¸Ńè¾ĥä¸ºçī¹æ®ĬçļĦç±»åŀĭ"
      ],
      [
        "çĥ¹é¥ªéľĢè¦ģæİ§åĪ¶çģ«åĢĻæīįèĥ½åģļåĩ",
        "ºç¾İåĳ³åı¯åı£çļĦé£Łçī©"
      ],
      [
        "æ³¥æ²Ļåľ¨æ²³æµģä¸Ńæ²īç§¯å½¢æĪĲå¹³åİŁåĴĮ",
        "ä¸īè§Ĵæ´²åľ°è²Į"
      ],
      [
        "æ´ªæ°´æ³Ľæ»¥æĹ¶éľĢè¦ģåıĬæĹ¶çĸıå¯",
        "¼åĴĮéĺ²èĮĥæ²»çĲĨæİªæĸ½"
      ],
      [
        "æ±¸æ£»çĤĩçł¯çĬ´æµ¯æľ¸æ±Ńæ´Ńæ³¶æ¹¸æ³",
        "«æĺ¯çĶŁåĥ»å½¢å£°åŃĹéĽĨåĲĪ"
      ]
    ]
  }
}